{
  "version": "1.0",
  "truncation": null,
  "padding": null,
  "added_tokens": [
    {
      "id": 0,
      "content": "[PAD]",
      "single_word": false,
      "lstrip": false,
      "rstrip": false,
      "normalized": false,
      "special": true
    },
    {
      "id": 1,
      "content": "[UNK]",
      "single_word": false,
      "lstrip": false,
      "rstrip": false,
      "normalized": false,
      "special": true
    },
    {
      "id": 2,
      "content": "[CLS]",
      "single_word": false,
      "lstrip": false,
      "rstrip": false,
      "normalized": false,
      "special": true
    },
    {
      "id": 3,
      "content": "[SEP]",
      "single_word": false,
      "lstrip": false,
      "rstrip": false,
      "normalized": false,
      "special": true
    },
    {
      "id": 4,
      "content": "[MASK]",
      "single_word": false,
      "lstrip": false,
      "rstrip": false,
      "normalized": false,
      "special": true
    }
  ],
  "normalizer": {
    "type": "BertNormalizer",
    "clean_text": true,
    "handle_chinese_chars": true,
    "strip_accents": null,
    "lowercase": true
  },
  "pre_tokenizer": {
    "type": "BertPreTokenizer"
  },
  "post_processor": {
    "type": "TemplateProcessing",
    "single": [
      {
        "SpecialToken": {
          "id": "[CLS]",
          "type_id": 0
        }
      },
      {
        "Sequence": {
          "id": "A",
          "type_id": 0
        }
      },
      {
        "SpecialToken": {
          "id": "[SEP]",
          "type_id": 0
        }
      }
    ],
    "pair": [
      {
        "SpecialToken": {
          "id": "[CLS]",
          "type_id": 0
        }
      },
      {
        "Sequence": {
          "id": "A",
          "type_id": 0
        }
      },
      {
        "SpecialToken": {
          "id": "[SEP]",
          "type_id": 0
        }
      },
      {
        "Sequence": {
          "id": "B",
          "type_id": 1
        }
      },
      {
        "SpecialToken": {
          "id": "[SEP]",
          "type_id": 1
        }
      }
    ],
    "special_tokens": {
      "[CLS]": {
        "id": "[CLS]",
        "ids": [
          2
        ],
        "tokens": [
          "[CLS]"
        ]
      },
      "[SEP]": {
        "id": "[SEP]",
        "ids": [
          3
        ],
        "tokens": [
          "[SEP]"
        ]
      }
    }
  },
  "decoder": {
    "type": "WordPiece",
    "prefix": "##",
    "cleanup": true
  },
  "model": {
    "type": "WordPiece",
    "unk_token": "[UNK]",
    "continuing_subword_prefix": "##",
    "max_input_chars_per_word": 100,
    "vocab": {
      "[PAD]": 0,
      "[UNK]": 1,
      "[CLS]": 2,
      "[SEP]": 3,
      "[MASK]": 4,
      "!": 5,
      "\"": 6,
      "#": 7,
      "$": 8,
      "%": 9,
      "&": 10,
      "'": 11,
      "(": 12,
      ")": 13,
      "*": 14,
      "+": 15,
      ",": 16,
      "-": 17,
      ".": 18,
      "/": 19,
      "0": 20,
      "1": 21,
      "2": 22,
      "3": 23,
      "4": 24,
      "5": 25,
      "6": 26,
      "7": 27,
      "8": 28,
      "9": 29,
      ":": 30,
      ";": 31,
      "<": 32,
      "=": 33,
      ">": 34,
      "?": 35,
      "@": 36,
      "[": 37,
      "]": 38,
      "^": 39,
      "_": 40,
      "`": 41,
      "a": 42,
      "b": 43,
      "c": 44,
      "d": 45,
      "e": 46,
      "f": 47,
      "g": 48,
      "h": 49,
      "i": 50,
      "j": 51,
      "k": 52,
      "l": 53,
      "m": 54,
      "n": 55,
      "o": 56,
      "p": 57,
      "q": 58,
      "r": 59,
      "s": 60,
      "t": 61,
      "u": 62,
      "v": 63,
      "w": 64,
      "x": 65,
      "y": 66,
      "z": 67,
      "{": 68,
      "|": 69,
      "}": 70,
      "~": 71,
      "°": 72,
      "²": 73,
      "µ": 74,
      "·": 75,
      "ɑ": 76,
      "ə": 77,
      "ɾ": 78,
      "ʈ": 79,
      "ʋ": 80,
      "ʒ": 81,
      "ʰ": 82,
      "ː": 83,
      "ت": 84,
      "ج": 85,
      "ر": 86,
      "ق": 87,
      "م": 88,
      "ه": 89,
      "و": 90,
      "ی": 91,
      "ං": 92,
      "ඃ": 93,
      "අ": 94,
      "ආ": 95,
      "ඇ": 96,
      "ඈ": 97,
      "ඉ": 98,
      "ඊ": 99,
      "උ": 100,
      "ඌ": 101,
      "ඍ": 102,
      "එ": 103,
      "ඒ": 104,
      "ඓ": 105,
      "ඔ": 106,
      "ඕ": 107,
      "ඖ": 108,
      "ක": 109,
      "ඛ": 110,
      "ග": 111,
      "ඝ": 112,
      "ඞ": 113,
      "ඟ": 114,
      "ච": 115,
      "ඡ": 116,
      "ජ": 117,
      "ඤ": 118,
      "ඥ": 119,
      "ට": 120,
      "ඨ": 121,
      "ඩ": 122,
      "ඪ": 123,
      "ණ": 124,
      "ඬ": 125,
      "ත": 126,
      "ථ": 127,
      "ද": 128,
      "ධ": 129,
      "න": 130,
      "ඳ": 131,
      "ප": 132,
      "ඵ": 133,
      "බ": 134,
      "භ": 135,
      "ම": 136,
      "ඹ": 137,
      "ය": 138,
      "ර": 139,
      "ල": 140,
      "ව": 141,
      "ශ": 142,
      "ෂ": 143,
      "ස": 144,
      "හ": 145,
      "ළ": 146,
      "ෆ": 147,
      "ා": 148,
      "ැ": 149,
      "ෑ": 150,
      "ෘ": 151,
      "ෙ": 152,
      "ෛ": 153,
      "ෟ": 154,
      "ෲ": 155,
      "ᄅ": 156,
      "ᄇ": 157,
      "ᄉ": 158,
      "ᄋ": 159,
      "ᄒ": 160,
      "ᅡ": 161,
      "ᅣ": 162,
      "ᅩ": 163,
      "ᅪ": 164,
      "ᆨ": 165,
      "ᆫ": 166,
      "ᆷ": 167,
      "ᆼ": 168,
      "–": 169,
      "—": 170,
      "‘": 171,
      "’": 172,
      "“": 173,
      "”": 174,
      "•": 175,
      "…": 176,
      "⅓": 177,
      "−": 178,
      "√": 179,
      "博": 180,
      "咸": 181,
      "唐": 182,
      "山": 183,
      "新": 184,
      "書": 185,
      "爐": 186,
      "阮": 187,
      "香": 188,
      "🇦": 189,
      "🇧": 190,
      "🇨": 191,
      "🇩": 192,
      "🇪": 193,
      "🇫": 194,
      "🇬": 195,
      "🇭": 196,
      "🇮": 197,
      "🇯": 198,
      "🇰": 199,
      "🇱": 200,
      "🇲": 201,
      "🇳": 202,
      "🇴": 203,
      "🇵": 204,
      "🇶": 205,
      "🇷": 206,
      "🇸": 207,
      "🇹": 208,
      "🇺": 209,
      "🇽": 210,
      "🇿": 211,
      "🌲": 212,
      "🌳": 213,
      "##ය": 214,
      "##ක": 215,
      "##ෙ": 216,
      "##ා": 217,
      "##ට": 218,
      "##ෑ": 219,
      "##ස": 220,
      "##ම": 221,
      "##හ": 222,
      "##ව": 223,
      "##ග": 224,
      "##ඳ": 225,
      "##i": 226,
      "##n": 227,
      "##e": 228,
      "##ල": 229,
      "##න": 230,
      "##ෂ": 231,
      "##ණ": 232,
      "##ද": 233,
      "##භ": 234,
      "##ත": 235,
      "##ඛ": 236,
      "##ඩ": 237,
      "##ං": 238,
      "##ර": 239,
      "##ථ": 240,
      "##m": 241,
      "##a": 242,
      "##g": 243,
      "##s": 244,
      "##ැ": 245,
      "##ප": 246,
      "##ජ": 247,
      "##ෘ": 248,
      "##ධ": 249,
      "##h": 250,
      "##u": 251,
      "##r": 252,
      "##7": 253,
      "##6": 254,
      "##5": 255,
      "##v": 256,
      "##ඨ": 257,
      "##ශ": 258,
      "##t": 259,
      "##2": 260,
      "##o": 261,
      "##k": 262,
      "##p": 263,
      "##l": 264,
      "##ළ": 265,
      "##බ": 266,
      "##ඹ": 267,
      "##9": 268,
      "##4": 269,
      "##3": 270,
      "##ඟ": 271,
      "##ෆ": 272,
      "##ඥ": 273,
      "##d": 274,
      "##ච": 275,
      "##c": 276,
      "##y": 277,
      "##0": 278,
      "##x": 279,
      "##b": 280,
      "##අ": 281,
      "##1": 282,
      "##🌲": 283,
      "##j": 284,
      "##ඡ": 285,
      "##ෟ": 286,
      "##🇷": 287,
      "##f": 288,
      "##ෛ": 289,
      "##z": 290,
      "##ඵ": 291,
      "##w": 292,
      "##🇪": 293,
      "##🇹": 294,
      "##ඬ": 295,
      "##ඕ": 296,
      "##8": 297,
      "##ඝ": 298,
      "##ඪ": 299,
      "##ඓ": 300,
      "##²": 301,
      "##q": 302,
      "##ඇ": 303,
      "##🇶": 304,
      "##🇿": 305,
      "##°": 306,
      "##🇩": 307,
      "##ඤ": 308,
      "##ඞ": 309,
      "##එ": 310,
      "##🇺": 311,
      "##🇬": 312,
      "##🇳": 313,
      "##උ": 314,
      "##🇴": 315,
      "##ඊ": 316,
      "##ආ": 317,
      "##م": 318,
      "##ر": 319,
      "##ی": 320,
      "##⅓": 321,
      "##🇰": 322,
      "##ə": 323,
      "##ʈ": 324,
      "##ඃ": 325,
      "##ᅣ": 326,
      "##ᆼ": 327,
      "##ᄅ": 328,
      "##ᅩ": 329,
      "##ː": 330,
      "##ʰ": 331,
      "##ɑ": 332,
      "##🇫": 333,
      "##ඔ": 334,
      "##√": 335,
      "##🇭": 336,
      "##ᅪ": 337,
      "##ᆫ": 338,
      "##ᄒ": 339,
      "##ᅡ": 340,
      "##ᆷ": 341,
      "##🇲": 342,
      "##ඒ": 343,
      "##ෲ": 344,
      "##🇽": 345,
      "##ʒ": 346,
      "##ʋ": 347,
      "##ɾ": 348,
      "##🇱": 349,
      "##ᆨ": 350,
      "##ᄉ": 351,
      "##ඉ": 352,
      "##ج": 353,
      "##ق": 354,
      "##و": 355,
      "##🇦": 356,
      "##🇵": 357,
      "##🇸": 358,
      "##ො": 359,
      "##ෙන": 360,
      "කර": 361,
      "##ාව": 362,
      "##තර": 363,
      "##ාර": 364,
      "##st": 365,
      "in": 366,
      "සම": 367,
      "පර": 368,
      "##නන": 369,
      "inst": 370,
      "##යක": 371,
      "##යෙ": 372,
      "##ාත": 373,
      "##ාන": 374,
      "සහ": 375,
      "##යෙන": 376,
      "##තව": 377,
      "වස": 378,
      "කරම": 379,
      "##හත": 380,
      "##බන": 381,
      "##යන": 382,
      "##යා": 383,
      "ඇත": 384,
      "##ැන": 385,
      "##බනධ": 386,
      "##කාව": 387,
      "සමබනධ": 388,
      "##වා": 389,
      "##කර": 390,
      "##නය": 391,
      "##පය": 392,
      "##ැක": 393,
      "සමබනධයෙන": 394,
      "##වන": 395,
      "##ාල": 396,
      "පහත": 397,
      "වසතර": 398,
      "##හා": 399,
      "මෙ": 400,
      "##ාතෘ": 401,
      "මාතෘ": 402,
      "සපය": 403,
      "මාතෘකාව": 404,
      "සපයනන": 405,
      "##ණය": 406,
      "වෙ": 407,
      "##මට": 408,
      "##වත": 409,
      "##ගෙ": 410,
      "##මක": 411,
      "වන": 412,
      "වැ": 413,
      "සඳ": 414,
      "##වස": 415,
      "##වර": 416,
      "##ෙක": 417,
      "සං": 418,
      "බව": 419,
      "##නා": 420,
      "අතර": 421,
      "##ෙස": 422,
      "##කෂ": 423,
      "##පත": 424,
      "##යට": 425,
      "සඳහා": 426,
      "කළ": 427,
      "##වල": 428,
      "අන": 429,
      "##රම": 430,
      "හැක": 431,
      "##තා": 432,
      "පළ": 433,
      "පැ": 434,
      "එක": 435,
      "##ෙශ": 436,
      "##කා": 437,
      "##දර": 438,
      "##ංග": 439,
      "කො": 440,
      "සට": 441,
      "##ාද": 442,
      "තබ": 443,
      "තර": 444,
      "වශ": 445,
      "##ණඩ": 446,
      "හො": 447,
      "##තය": 448,
      "##මන": 449,
      "##දය": 450,
      "කරන": 451,
      "පො": 452,
      "##දා": 453,
      "වර": 454,
      "##ෙර": 455,
      "##වෙ": 456,
      "නො": 457,
      "##වය": 458,
      "##කාර": 459,
      "ශර": 460,
      "##ලල": 461,
      "ගැන": 462,
      "කරමට": 463,
      "##තත": 464,
      "##ොර": 465,
      "පද": 466,
      "බල": 467,
      "##පර": 468,
      "ලෙස": 469,
      "##ාම": 470,
      "වය": 471,
      "සද": 472,
      "##මත": 473,
      "මල": 474,
      "##හන": 475,
      "වැඩ": 476,
      "##ගත": 477,
      "##ාය": 478,
      "කරය": 479,
      "ලබ": 480,
      "##මෙ": 481,
      "දෙ": 482,
      "##ානය": 483,
      "පස": 484,
      "කරනන": 485,
      "යන": 486,
      "##යත": 487,
      "##ගල": 488,
      "##ාජ": 489,
      "සෙ": 490,
      "හා": 491,
      "වෙන": 492,
      "##සක": 493,
      "##ොග": 494,
      "ලං": 495,
      "##දෙශ": 496,
      "##සය": 497,
      "##ලය": 498,
      "තබෙ": 499,
      "සැ": 500,
      "අව": 501,
      "මෙම": 502,
      "##ාවක": 503,
      "ජන": 504,
      "උප": 505,
      "##මෙන": 506,
      "භාව": 507,
      "##ගෙන": 508,
      "දක": 509,
      "අම": 510,
      "20": 511,
      "##සන": 512,
      "##ගම": 513,
      "##දන": 514,
      "අද": 515,
      "අධ": 516,
      "මහත": 517,
      "ලබා": 518,
      "එය": 519,
      "පවස": 520,
      "අත": 521,
      "##කට": 522,
      "පරත": 523,
      "##ෙෂ": 524,
      "වට": 525,
      "##හර": 526,
      "ලැ": 527,
      "##ලක": 528,
      "##වක": 529,
      "පදගල": 530,
      "##හස": 531,
      "##ාස": 532,
      "##රය": 533,
      "##නනෙ": 534,
      "හෙ": 535,
      "##වම": 536,
      "##ාධ": 537,
      "වසන": 538,
      "මහතා": 539,
      "##ොක": 540,
      "##වැ": 541,
      "පාර": 542,
      "##වට": 543,
      "##ශය": 544,
      "මහ": 545,
      "හැ": 546,
      "අප": 547,
      "##සත": 548,
      "19": 549,
      "ඉන": 550,
      "මැ": 551,
      "##ලන": 552,
      "නැ": 553,
      "දර": 554,
      "මන": 555,
      "ගො": 556,
      "##ාරය": 557,
      "##බඳ": 558,
      "##ys": 559,
      "##ෙය": 560,
      "දන": 561,
      "ඔබ": 562,
      "sys": 563,
      "##සා": 564,
      "##තාව": 565,
      "අවස": 566,
      "##ගන": 567,
      "පෙ": 568,
      "##මා": 569,
      "පවසය": 570,
      "ඔවන": 571,
      "##ලා": 572,
      "##තවර": 573,
      "හැකය": 574,
      "හම": 575,
      "##ඩා": 576,
      "##an": 577,
      "නම": 578,
      "##ගය": 579,
      "##ාතමක": 580,
      "##යෙක": 581,
      "ජාත": 582,
      "##ටට": 583,
      "සය": 584,
      "සමඟ": 585,
      "පළබඳ": 586,
      "සථ": 587,
      "ලද": 588,
      "අඩ": 589,
      "##තක": 590,
      "කාල": 591,
      "##ාක": 592,
      "##වධ": 593,
      "කැ": 594,
      "නය": 595,
      "රාජ": 596,
      "##ාවෙ": 597,
      "ලංකා": 598,
      "##ගර": 599,
      "ඔහ": 600,
      "ඇතළ": 601,
      "##තම": 602,
      "නර": 603,
      "##කත": 604,
      "##මණ": 605,
      "##ot": 606,
      "##er": 607,
      "##ොන": 608,
      "##තවය": 609,
      "##වෙන": 610,
      "##in": 611,
      "##සට": 612,
      "##කයන": 613,
      "##ජන": 614,
      "##ොහ": 615,
      "භාවතා": 616,
      "යො": 617,
      "පරදෙශ": 618,
      "ගත": 619,
      "##ෙද": 620,
      "ගෙන": 621,
      "වල": 622,
      "වැන": 623,
      "##සර": 624,
      "එම": 625,
      "සර": 626,
      "දෙන": 627,
      "වද": 628,
      "කට": 629,
      "පහ": 630,
      "ලැබ": 631,
      "කණඩ": 632,
      "##ෙහ": 633,
      "කණඩාය": 634,
      "මත": 635,
      "කොට": 636,
      "##ධාන": 637,
      "ගැ": 638,
      "බැ": 639,
      "සව": 640,
      "##නම": 641,
      "පත": 642,
      "##සම": 643,
      "qu": 644,
      "##ායක": 645,
      "##දධ": 646,
      "##ංශ": 647,
      "##ොධ": 648,
      "##පාද": 649,
      "ගැනමට": 650,
      "##කරණ": 651,
      "අනතර": 652,
      "quot": 653,
      "එහ": 654,
      "ආර": 655,
      "තළ": 656,
      "##කරණය": 657,
      "පට": 658,
      "##හාර": 659,
      "වශෙෂ": 660,
      "##ාප": 661,
      "##ෘත": 662,
      "පොල": 663,
      "##ෑම": 664,
      "සො": 665,
      "##මය": 666,
      "අය": 667,
      "##හැ": 668,
      "කරයා": 669,
      "##ාලන": 670,
      "##නද": 671,
      "##ාතය": 672,
      "නව": 673,
      "මාර": 674,
      "##ාග": 675,
      "හර": 676,
      "##ණයක": 677,
      "පවත": 678,
      "බර": 679,
      "##සථ": 680,
      "වරග": 681,
      "ගණ": 682,
      "දැ": 683,
      "පරකා": 684,
      "වම": 685,
      "##කම": 686,
      "##ලෙ": 687,
      "##ar": 688,
      "බලප": 689,
      "##ටත": 690,
      "##සල": 691,
      "##තන": 692,
      "##පයක": 693,
      "පෙර": 694,
      "රජ": 695,
      "ඉනදය": 696,
      "නරම": 697,
      "##යෙද": 698,
      "භා": 699,
      "රැ": 700,
      "##ඛය": 701,
      "##නාධ": 702,
      "තොර": 703,
      "දැන": 704,
      "##or": 705,
      "වශයෙන": 706,
      "ගනන": 707,
      "නෂ": 708,
      "වසර": 709,
      "##on": 710,
      "ලංකාව": 711,
      "කා": 712,
      "ලොක": 713,
      "වයා": 714,
      "නරමා": 715,
      "දතත": 716,
      "වාර": 717,
      "සභ": 718,
      "##ගො": 719,
      "##සෙ": 720,
      "##al": 721,
      "වැද": 722,
      "ජාතක": 723,
      "දකවා": 724,
      "කටයත": 725,
      "##ංක": 726,
      "ජනාධ": 727,
      "වනනෙ": 728,
      "සාම": 729,
      "##ොහො": 730,
      "##ලප": 731,
      "පරධාන": 732,
      "ගැනම": 733,
      "පරකාශ": 734,
      "දෙශ": 735,
      "කරමෙ": 736,
      "ආස": 737,
      "තන": 738,
      "##ඳන": 739,
      "එකසත": 740,
      "තරග": 741,
      "නෂපාද": 742,
      "මර": 743,
      "##යය": 744,
      "පරමා": 745,
      "අමාතය": 746,
      "අනව": 747,
      "ඒවා": 748,
      "පෙන": 749,
      "පකෂ": 750,
      "මට": 751,
      "වවධ": 752,
      "##ටම": 753,
      "ආරම": 754,
      "##ලමෙන": 755,
      "##දල": 756,
      "##දෙන": 757,
      "##ැය": 758,
      "##යකට": 759,
      "පාරලමෙන": 760,
      "ආරමභ": 761,
      "##වලට": 762,
      "හෙතව": 763,
      "කහ": 764,
      "කෙර": 765,
      "තෙ": 766,
      "##at": 767,
      "බවට": 768,
      "අවශය": 769,
      "201": 770,
      "ගමන": 771,
      "දෙක": 772,
      "යත": 773,
      "ඉලල": 774,
      "කල": 775,
      "##ධාර": 776,
      "ඔවනගෙ": 777,
      "ඇතළත": 778,
      "ඉදර": 779,
      "නත": 780,
      "බොහො": 781,
      "රට": 782,
      "##ic": 783,
      "##කන": 784,
      "##බර": 785,
      "කරකට": 786,
      "කරමන": 787,
      "සත": 788,
      "##ටර": 789,
      "##en": 790,
      "##ධන": 791,
      "##අඩ": 792,
      "පොහ": 793,
      "මැතවර": 794,
      "තවත": 795,
      "පන": 796,
      "##හල": 797,
      "##පාර": 798,
      "අභ": 799,
      "ගර": 800,
      "ජය": 801,
      "නමත": 802,
      "වෛ": 803,
      "##කය": 804,
      "අපර": 805,
      "නල": 806,
      "සන": 807,
      "##ලම": 808,
      "##ණක": 809,
      "##ාවන": 810,
      "පළම": 811,
      "සොයා": 812,
      "##ොල": 813,
      "කෙ": 814,
      "නද": 815,
      "##ංගවට": 816,
      "අතඅඩ": 817,
      "පදගලයන": 818,
      "##දම": 819,
      "##කරම": 820,
      "කණඩායම": 821,
      "දය": 822,
      "මගන": 823,
      "##ගැන": 824,
      "නරමාණය": 825,
      "##හළ": 826,
      "##චාරය": 827,
      "කළෙය": 828,
      "සටන": 829,
      "දකණ": 830,
      "රොග": 831,
      "මෙය": 832,
      "වෙළ": 833,
      "අතඅඩංගවට": 834,
      "අර": 835,
      "ඇය": 836,
      "##us": 837,
      "10": 838,
      "මෙන": 839,
      "වදය": 840,
      "##දරවය": 841,
      "කහපයක": 842,
      "ආණඩ": 843,
      "ආකාර": 844,
      "දැක": 845,
      "මාන": 846,
      "##සව": 847,
      "##ac": 848,
      "##ශර": 849,
      "##ොජ": 850,
      "සථාන": 851,
      "උත": 852,
      "ගන": 853,
      "මම": 854,
      "සල": 855,
      "සවය": 856,
      "##මැ": 857,
      "##es": 858,
      "පවතන": 859,
      "පොහොර": 860,
      "ඉත": 861,
      "වග": 862,
      "##නට": 863,
      "##ළඹ": 864,
      "වෙත": 865,
      "පැවැ": 866,
      "සෞ": 867,
      "##ාධය": 868,
      "ජවත": 869,
      "නසා": 870,
      "##ඩන": 871,
      "පරව": 872,
      "නදහස": 873,
      "මා": 874,
      "වව": 875,
      "##භොග": 876,
      "##රස": 877,
      "##කෂණ": 878,
      "##වලන": 879,
      "ආසාද": 880,
      "අල": 881,
      "කාර": 882,
      "ගෙ": 883,
      "මහා": 884,
      "වමට": 885,
      "පාරභොග": 886,
      "සෞඛය": 887,
      "හට": 888,
      "##ෙල": 889,
      "##ෂය": 890,
      "සංවධ": 891,
      "තරඟ": 892,
      "##පට": 893,
      "##පද": 894,
      "පැමණ": 895,
      "වෙනස": 896,
      "අවසථ": 897,
      "ජනාධපත": 898,
      "ඉගෙන": 899,
      "සා": 900,
      "##සස": 901,
      "##දනය": 902,
      "##තවල": 903,
      "භාවත": 904,
      "දම": 905,
      "වඩා": 906,
      "##වමට": 907,
      "##භාව": 908,
      "පරා": 909,
      "අනෙක": 910,
      "සවයං": 911,
      "ඉහළ": 912,
      "චන": 913,
      "##ොද": 914,
      "සමපර": 915,
      "පාරලමෙනත": 916,
      "ලංග": 917,
      "සනන": 918,
      "##ශන": 919,
      "##ොට": 920,
      "උපකාර": 921,
      "වැදගත": 922,
      "පාස": 923,
      "##ෂණය": 924,
      "##ධය": 925,
      "##ධනය": 926,
      "##යකන": 927,
      "බවය": 928,
      "##රමණ": 929,
      "වරොධ": 930,
      "කරයාතමක": 931,
      "තොරතර": 932,
      "නායක": 933,
      "පා": 934,
      "ලක": 935,
      "ලබන": 936,
      "##ථක": 937,
      "##පකෂ": 938,
      "##ානත": 939,
      "සඳහන": 940,
      "සැලක": 941,
      "මනතර": 942,
      "පරදෙශයෙ": 943,
      "පොලස": 944,
      "හෙතවෙන": 945,
      "ආයත": 946,
      "තව": 947,
      "තත": 948,
      "##ැම": 949,
      "200": 950,
      "පහට": 951,
      "ආහාර": 952,
      "සැක": 953,
      "හඳ": 954,
      "##ඳම": 955,
      "##වාද": 956,
      "##කරවන": 957,
      "මෙහ": 958,
      "##ෙකෂ": 959,
      "ඔබට": 960,
      "මාරග": 961,
      "ඉවත": 962,
      "දව": 963,
      "පමණ": 964,
      "##ed": 965,
      "##ලයෙ": 966,
      "##ානයෙ": 967,
      "##වරයා": 968,
      "ගැට": 969,
      "වෛදය": 970,
      "යෙද": 971,
      "##චාර": 972,
      "සමාජ": 973,
      "පරද": 974,
      "ඔබෙ": 975,
      "පැවැතව": 976,
      "පාල": 977,
      "වඩ": 978,
      "##ෂණ": 979,
      "තරණය": 980,
      "වශාල": 981,
      "ලැය": 982,
      "රාජය": 983,
      "ආරකෂ": 984,
      "සාමානය": 985,
      "මැතවරණ": 986,
      "එර": 987,
      "මටට": 988,
      "##ලෙක": 989,
      "##රො": 990,
      "##තරය": 991,
      "##තරක": 992,
      "සමහර": 993,
      "වදයා": 994,
      "කරයාකාර": 995,
      "ලංකාවෙ": 996,
      "දග": 997,
      "##මර": 998,
      "##රද": 999,
      "##th": 1000,
      "##00": 1001,
      "කරඩ": 1002,
      "සමග": 1003,
      "##කරන": 1004,
      "මලදරවය": 1005,
      "සෙව": 1006,
      "භාෂ": 1007,
      "වෙළඳ": 1008,
      "හඳනා": 1009,
      "කෙස": 1010,
      "කාරය": 1011,
      "මාධය": 1012,
      "සෑම": 1013,
      "##මාර": 1014,
      "##මනා": 1015,
      "##il": 1016,
      "##om": 1017,
      "කොළඹ": 1018,
      "පොලසය": 1019,
      "ලංගක": 1020,
      "නගර": 1021,
      "බෙ": 1022,
      "වදෙශ": 1023,
      "##කස": 1024,
      "##වතව": 1025,
      "##පා": 1026,
      "සමා": 1027,
      "වෙය": 1028,
      "පළාත": 1029,
      "කොම": 1030,
      "##පන": 1031,
      "පැවස": 1032,
      "කඩ": 1033,
      "දස": 1034,
      "බෙර": 1035,
      "මණඩ": 1036,
      "වච": 1037,
      "##හැක": 1038,
      "##is": 1039,
      "##නගෙ": 1040,
      "##ාවට": 1041,
      "පැහැ": 1042,
      "සැල": 1043,
      "හරහා": 1044,
      "වාරතා": 1045,
      "ආසාදත": 1046,
      "ඉතා": 1047,
      "උද": 1048,
      "ජල": 1049,
      "යටත": 1050,
      "##ාහ": 1051,
      "##සතව": 1052,
      "සහත": 1053,
      "කරමෙන": 1054,
      "අවසන": 1055,
      "ඔහගෙ": 1056,
      "නෂපාදන": 1057,
      "කව": 1058,
      "බවත": 1059,
      "වක": 1060,
      "##යො": 1061,
      "##වඩ": 1062,
      "##පාලන": 1063,
      "##වාස": 1064,
      "##වාහන": 1065,
      "වෙබ": 1066,
      "පොද": 1067,
      "පදගලයෙක": 1068,
      "##ලනත": 1069,
      "නැත": 1070,
      "බරත": 1071,
      "භාණඩ": 1072,
      "සභා": 1073,
      "පය": 1074,
      "මගෙ": 1075,
      "මහන": 1076,
      "යතය": 1077,
      "##et": 1078,
      "##el": 1079,
      "කරණ": 1080,
      "පැවත": 1081,
      "වෙනත": 1082,
      "මහද": 1083,
      "පළබඳව": 1084,
      "කොටස": 1085,
      "බරතානය": 1086,
      "අයත": 1087,
      "අංශ": 1088,
      "ඇල": 1089,
      "ඉඩ": 1090,
      "තම": 1091,
      "නකත": 1092,
      "පල": 1093,
      "මය": 1094,
      "ලා": 1095,
      "වාක": 1096,
      "##ෙම": 1097,
      "##බල": 1098,
      "##බැ": 1099,
      "##ාවර": 1100,
      "පරස": 1101,
      "##යෙහ": 1102,
      "කරමය": 1103,
      "නොහැක": 1104,
      "නැවත": 1105,
      "එරෙහ": 1106,
      "දපත": 1107,
      "ශාක": 1108,
      "##ri": 1109,
      "සමත": 1110,
      "##යනට": 1111,
      "##කෂණය": 1112,
      "සදව": 1113,
      "වෙනවෙන": 1114,
      "සැපය": 1115,
      "පරතඵ": 1116,
      "කාලය": 1117,
      "යොම": 1118,
      "දෙනෙක": 1119,
      "ගණන": 1120,
      "හටප": 1121,
      "පතව": 1122,
      "##කල": 1123,
      "##වැන": 1124,
      "##ංශය": 1125,
      "##පතවර": 1126,
      "කරඩා": 1127,
      "පරසර": 1128,
      "##දාළ": 1129,
      "අදහස": 1130,
      "නයොජ": 1131,
      "ගනනා": 1132,
      "th": 1133,
      "සාර": 1134,
      "සපර": 1135,
      "##ion": 1136,
      "##භාග": 1137,
      "##ශනය": 1138,
      "පරහාර": 1139,
      "##නනා": 1140,
      "නලධාර": 1141,
      "ලැයසතව": 1142,
      "කඩා": 1143,
      "නවස": 1144,
      "වාය": 1145,
      "##නෙ": 1146,
      "##පාල": 1147,
      "##යනතර": 1148,
      "##වරත": 1149,
      "වඩාත": 1150,
      "පයවර": 1151,
      "ඝාත": 1152,
      "ජාල": 1153,
      "මාස": 1154,
      "##ලයක": 1155,
      "##රා": 1156,
      "##වරද": 1157,
      "##දරටත": 1158,
      "පදධ": 1159,
      "පදනම": 1160,
      "සෙවා": 1161,
      "හැර": 1162,
      "ඉතාල": 1163,
      "අදාළ": 1164,
      "මධය": 1165,
      "##පො": 1166,
      "පරම": 1167,
      "##කරය": 1168,
      "කළමනා": 1169,
      "නොමැ": 1170,
      "වලට": 1171,
      "දෙශපාලන": 1172,
      "##දෙනෙක": 1173,
      "පාරභොගක": 1174,
      "පැහැදල": 1175,
      "ඉලෙක": 1176,
      "කය": 1177,
      "තමන": 1178,
      "යම": 1179,
      "##කාන": 1180,
      "##පල": 1181,
      "##ඟන": 1182,
      "##යකෂ": 1183,
      "##තවයක": 1184,
      "කරයාව": 1185,
      "දෙපාර": 1186,
      "පසව": 1187,
      "පරතකාර": 1188,
      "නයම": 1189,
      "ඉදරපත": 1190,
      "සංවධානය": 1191,
      "පාසල": 1192,
      "ඉලෙකටර": 1193,
      "කස": 1194,
      "තා": 1195,
      "පවතව": 1196,
      "මදල": 1197,
      "රා": 1198,
      "##තමෙන": 1199,
      "##ධානය": 1200,
      "සංගම": 1201,
      "##ාදෙශ": 1202,
      "ලබාද": 1203,
      "##ගරහ": 1204,
      "##හැර": 1205,
      "කාබන": 1206,
      "වයාපාර": 1207,
      "දයණ": 1208,
      "සමපරණ": 1209,
      "දෙපාරතමෙන": 1210,
      "යනන": 1211,
      "ශකත": 1212,
      "##යම": 1213,
      "##ැල": 1214,
      "##ජෙ": 1215,
      "##ජා": 1216,
      "මෙර": 1217,
      "වැට": 1218,
      "සංසක": 1219,
      "තබා": 1220,
      "තරණ": 1221,
      "රාජපකෂ": 1222,
      "යොදා": 1223,
      "මානසක": 1224,
      "බස": 1225,
      "මො": 1226,
      "රෙ": 1227,
      "සාද": 1228,
      "හද": 1229,
      "##ගාර": 1230,
      "##it": 1231,
      "##hin": 1232,
      "##බද": 1233,
      "පරසක": 1234,
      "##වෙදන": 1235,
      "නොවන": 1236,
      "හැඟ": 1237,
      "##සාහ": 1238,
      "පෙළ": 1239,
      "සථර": 1240,
      "උතසාහ": 1241,
      "කෙසෙ": 1242,
      "දෙපාරතමෙනතව": 1243,
      "ආක": 1244,
      "උදා": 1245,
      "එලල": 1246,
      "කෂ": 1247,
      "කමක": 1248,
      "ගල": 1249,
      "##යොග": 1250,
      "##හම": 1251,
      "##ගොර": 1252,
      "##ur": 1253,
      "##ොම": 1254,
      "වශව": 1255,
      "පසගය": 1256,
      "ජනතාව": 1257,
      "අපගෙ": 1258,
      "##anth": 1259,
      "පරමාණ": 1260,
      "පාලනය": 1261,
      "ඉලෙකටරොන": 1262,
      "අස": 1263,
      "ඒකා": 1264,
      "යා": 1265,
      "රථ": 1266,
      "සවා": 1267,
      "##ec": 1268,
      "##ලෙෂ": 1269,
      "##am": 1270,
      "##චත": 1271,
      "##ොත": 1272,
      "##තතෙ": 1273,
      "##ාමය": 1274,
      "මලක": 1275,
      "අපෙකෂ": 1276,
      "ජාතයනතර": 1277,
      "සයලම": 1278,
      "දැඩ": 1279,
      "පරවෙශ": 1280,
      "ඇලගොර": 1281,
      "එරෙහව": 1282,
      "ඇලගොරතම": 1283,
      "16": 1284,
      "18": 1285,
      "කෘ": 1286,
      "යද": 1287,
      "යදධ": 1288,
      "##ාට": 1289,
      "##ාංග": 1290,
      "ඇතත": 1291,
      "##නායක": 1292,
      "එකක": 1293,
      "එකදන": 1294,
      "කොවඩ": 1295,
      "දෙවන": 1296,
      "##සයාන": 1297,
      "හෙත": 1298,
      "ගොඩන": 1299,
      "හැකයාව": 1300,
      "වසරෙ": 1301,
      "##acanth": 1302,
      "##භාවය": 1303,
      "ආයතන": 1304,
      "##acanthus": 1305,
      "17": 1306,
      "rhin": 1307,
      "අලෙ": 1308,
      "තල": 1309,
      "මාල": 1310,
      "වයෙ": 1311,
      "##කළ": 1312,
      "##රඹ": 1313,
      "##ෘද": 1314,
      "##චඡ": 1315,
      "##ොව": 1316,
      "සමපත": 1317,
      "##නයට": 1318,
      "නොව": 1319,
      "කරනනෙ": 1320,
      "අවසාන": 1321,
      "හමදා": 1322,
      "ඉනදයාවෙ": 1323,
      "තවදරටත": 1324,
      "වාකය": 1325,
      "the": 1326,
      "rhinacanthus": 1327,
      "අවරද": 1328,
      "චොද": 1329,
      "රප": 1330,
      "ලකෂ": 1331,
      "##ෙට": 1332,
      "##සෙන": 1333,
      "##සමක": 1334,
      "##හනය": 1335,
      "##ෂට": 1336,
      "##ංච": 1337,
      "##as": 1338,
      "##තවෙ": 1339,
      "එකත": 1340,
      "තබෙන": 1341,
      "##සටර": 1342,
      "##සටහන": 1343,
      "පහණ": 1344,
      "ජනාධපතවර": 1345,
      "දෙකක": 1346,
      "පනත": 1347,
      "යටතෙ": 1348,
      "මහනද": 1349,
      "සැපයම": 1350,
      "චොදනා": 1351,
      "11": 1352,
      "an": 1353,
      "ආශර": 1354,
      "ඉලක": 1355,
      "චතර": 1356,
      "නෙ": 1357,
      "බහ": 1358,
      "රැක": 1359,
      "ලෙක": 1360,
      "##යයන": 1361,
      "##දැක": 1362,
      "##ැත": 1363,
      "##ජත": 1364,
      "##ෘතත": 1365,
      "සමම": 1366,
      "සමාන": 1367,
      "පරශන": 1368,
      "##වරධන": 1369,
      "පැතර": 1370,
      "වරධනය": 1371,
      "##වෙය": 1372,
      "අධයා": 1373,
      "අපට": 1374,
      "දරවය": 1375,
      "පෙරමණ": 1376,
      "ඉලලම": 1377,
      "##ගැනම": 1378,
      "ආකාරය": 1379,
      "ආසාදතයන": 1380,
      "කසල": 1381,
      "රය": 1382,
      "ශෂය": 1383,
      "සාක": 1384,
      "සකස": 1385,
      "##ay": 1386,
      "##ඹර": 1387,
      "##ොස": 1388,
      "##යාගෙ": 1389,
      "තබණ": 1390,
      "වශලෙෂ": 1391,
      "සෙවක": 1392,
      "ජනපද": 1393,
      "උපද": 1394,
      "අධයයන": 1395,
      "මහණ": 1396,
      "බැවන": 1397,
      "##ෘතතය": 1398,
      "බලපතර": 1399,
      "දසතරක": 1400,
      "අලෙව": 1401,
      "12": 1402,
      "කෙන": 1403,
      "කලා": 1404,
      "ගය": 1405,
      "තැන": 1406,
      "නස": 1407,
      "පවල": 1408,
      "මස": 1409,
      "මතර": 1410,
      "වලන": 1411,
      "##ටල": 1412,
      "##බදධ": 1413,
      "පරකෂණ": 1414,
      "##වරන": 1415,
      "සංඛය": 1416,
      "සංචාර": 1417,
      "තරගය": 1418,
      "වශවාස": 1419,
      "හොඳ": 1420,
      "##සකම": 1421,
      "අමතර": 1422,
      "මනසන": 1423,
      "රජය": 1424,
      "##ගොඩ": 1425,
      "තෙරම": 1426,
      "බෙදා": 1427,
      "සමාගම": 1428,
      "පරතඵල": 1429,
      "නොමැත": 1430,
      "මෙරට": 1431,
      "උදාහර": 1432,
      "සාකචඡ": 1433,
      "කතා": 1434,
      "හඳන": 1435,
      "##කව": 1436,
      "##ජනා": 1437,
      "##le": 1438,
      "##බොධ": 1439,
      "සමසත": 1440,
      "වනා": 1441,
      "##ංගල": 1442,
      "සටහන": 1443,
      "##හනසෙ": 1444,
      "යනතර": 1445,
      "අතදැක": 1446,
      "කාලයක": 1447,
      "යොජනා": 1448,
      "ආරථක": 1449,
      "##සථාන": 1450,
      "නෂපාදනය": 1451,
      "##ation": 1452,
      "මානව": 1453,
      "ඉතහා": 1454,
      "භාවතයෙන": 1455,
      "අනෙකත": 1456,
      "දවයන": 1457,
      "පදධත": 1458,
      "කමකද": 1459,
      "උපදෙස": 1460,
      "ඇම": 1461,
      "තැ": 1462,
      "දෙස": 1463,
      "ධන": 1464,
      "නවැ": 1465,
      "ඵල": 1466,
      "රන": 1467,
      "ලෙ": 1468,
      "වා": 1469,
      "සෙන": 1470,
      "හමක": 1471,
      "##වනන": 1472,
      "##වෙක": 1473,
      "##පස": 1474,
      "##නනය": 1475,
      "##යාට": 1476,
      "කළෙ": 1477,
      "##ණඩාර": 1478,
      "මලය": 1479,
      "අනතරජ": 1480,
      "දැනම": 1481,
      "පකෂය": 1482,
      "පැවසය": 1483,
      "ලෙකම": 1484,
      "එළ": 1485,
      "එංග": 1486,
      "කන": 1487,
      "පහර": 1488,
      "සළ": 1489,
      "සාප": 1490,
      "##ෙත": 1491,
      "##පළ": 1492,
      "ඇතැය": 1493,
      "ඇතැම": 1494,
      "##වාල": 1495,
      "වැස": 1496,
      "සටයෙ": 1497,
      "##දාය": 1498,
      "වරතම": 1499,
      "අධක": 1500,
      "පරතපත": 1501,
      "##තාවය": 1502,
      "අඩව": 1503,
      "වදල": 1504,
      "ඉලලා": 1505,
      "ජයගරහ": 1506,
      "සාකෂ": 1507,
      "කරයාකාරකම": 1508,
      "සැලසම": 1509,
      "වකණ": 1510,
      "කෂෙ": 1511,
      "ඒකාබදධ": 1512,
      "is": 1513,
      "අගය": 1514,
      "උතර": 1515,
      "ඒක": 1516,
      "ඕන": 1517,
      "දො": 1518,
      "දනා": 1519,
      "නශ": 1520,
      "නතය": 1521,
      "පහස": 1522,
      "බණඩාර": 1523,
      "මෘද": 1524,
      "යළ": 1525,
      "වෘතතය": 1526,
      "සතය": 1527,
      "ළඟ": 1528,
      "##කයෙ": 1529,
      "##සං": 1530,
      "##ලට": 1531,
      "##භය": 1532,
      "##ොච": 1533,
      "##ාවෙන": 1534,
      "සමමත": 1535,
      "##ාතයා": 1536,
      "##ණයට": 1537,
      "වැරද": 1538,
      "##වසථ": 1539,
      "අනර": 1540,
      "##ංගරස": 1541,
      "හොඳම": 1542,
      "##වෙදනය": 1543,
      "ගැනමෙ": 1544,
      "වැඩසටහන": 1545,
      "වෙනවට": 1546,
      "අවම": 1547,
      "අමාතයා": 1548,
      "##ගමනය": 1549,
      "අධකරණය": 1550,
      "##සායන": 1551,
      "##and": 1552,
      "අඩංග": 1553,
      "##ing": 1554,
      "දෙනන": 1555,
      "වයාප": 1556,
      "##ගොස": 1557,
      "පාරභොගකයන": 1558,
      "මෙහෙය": 1559,
      "සාමානයයෙන": 1560,
      "සභාපත": 1561,
      "ලාංක": 1562,
      "ඝාතනය": 1563,
      "ආකෘත": 1564,
      "ගොඩනැ": 1565,
      "හමකම": 1566,
      "අරමණ": 1567,
      "ඉට": 1568,
      "එනම": 1569,
      "ඖෂ": 1570,
      "ගම": 1571,
      "ජලය": 1572,
      "පාලන": 1573,
      "බා": 1574,
      "රොහ": 1575,
      "රසායන": 1576,
      "##වමෙ": 1577,
      "##ig": 1578,
      "##දෙ": 1579,
      "##රක": 1580,
      "##ශොධ": 1581,
      "සමප": 1582,
      "සහතක": 1583,
      "වනදනය": 1584,
      "වැළ": 1585,
      "සටය": 1586,
      "##දයණ": 1587,
      "##දාස": 1588,
      "මලා": 1589,
      "වැඩදයණ": 1590,
      "202": 1591,
      "හෙට": 1592,
      "මහජන": 1593,
      "පෞ": 1594,
      "ඔවනට": 1595,
      "##ලාභ": 1596,
      "සයල": 1597,
      "බලපෑම": 1598,
      "තරගාව": 1599,
      "ඉගෙනම": 1600,
      "සාහත": 1601,
      "තතතව": 1602,
      "##ාදෙශය": 1603,
      "කාබනක": 1604,
      "චතරපට": 1605,
      "නවැරද": 1606,
      "15": 1607,
      "අගම": 1608,
      "ආද": 1609,
      "කමට": 1610,
      "දමට": 1611,
      "නතර": 1612,
      "නයට": 1613,
      "රත": 1614,
      "සසන": 1615,
      "##හය": 1616,
      "##ගණ": 1617,
      "##ලොක": 1618,
      "##තාවක": 1619,
      "##ශකත": 1620,
      "##os": 1621,
      "සමාග": 1622,
      "පරවැ": 1623,
      "පරවාහන": 1624,
      "##යෙකට": 1625,
      "වෙල": 1626,
      "##වරධනය": 1627,
      "##නාගාර": 1628,
      "##පරය": 1629,
      "පසා": 1630,
      "ජනතා": 1631,
      "කැප": 1632,
      "වශෙෂයෙන": 1633,
      "අයර": 1634,
      "දැම": 1635,
      "කෙරෙහ": 1636,
      "ආරකෂක": 1637,
      "භාෂා": 1638,
      "මණඩලය": 1639,
      "වචන": 1640,
      "කළමනාකරණය": 1641,
      "පවතවා": 1642,
      "සංසකෘ": 1643,
      "ඉලකක": 1644,
      "අමතරව": 1645,
      "ඖෂධ": 1646,
      "25": 1647,
      "ne": 1648,
      "st": 1649,
      "අග": 1650,
      "ආලොක": 1651,
      "එල": 1652,
      "කයා": 1653,
      "ජෛ": 1654,
      "තද": 1655,
      "නා": 1656,
      "නඩ": 1657,
      "බඳ": 1658,
      "බන": 1659,
      "මැන": 1660,
      "රස": 1661,
      "සප": 1662,
      "සතව": 1663,
      "සතන": 1664,
      "##භව": 1665,
      "##භාවක": 1666,
      "##re": 1667,
      "##ශල": 1668,
      "සමාව": 1669,
      "පරකෂ": 1670,
      "කරමයක": 1671,
      "##යනගෙ": 1672,
      "වෙද": 1673,
      "වෙතත": 1674,
      "##මකට": 1675,
      "දෙය": 1676,
      "සෙවය": 1677,
      "හැඳන": 1678,
      "මැද": 1679,
      "ලැබෙ": 1680,
      "බැංක": 1681,
      "ලොකයෙ": 1682,
      "වාරතාව": 1683,
      "ආසනන": 1684,
      "මෙනම": 1685,
      "කාරයා": 1686,
      "ආයතනය": 1687,
      "මයගොස": 1688,
      "සාදනන": 1689,
      "ආශරත": 1690,
      "කෂෙතර": 1691,
      "cr": 1692,
      "on": 1693,
      "of": 1694,
      "ආවරත": 1695,
      "ඉර": 1696,
      "එයට": 1697,
      "කාන": 1698,
      "ඡාය": 1699,
      "බද": 1700,
      "බො": 1701,
      "ලය": 1702,
      "වධ": 1703,
      "වහනසෙ": 1704,
      "##ෞ": 1705,
      "##වද": 1706,
      "##ගයෙ": 1707,
      "##බස": 1708,
      "##ානම": 1709,
      "පළල": 1710,
      "කොරො": 1711,
      "පොජ": 1712,
      "වයවසථ": 1713,
      "##ාජය": 1714,
      "හෙළ": 1715,
      "199": 1716,
      "194": 1717,
      "ගොස": 1718,
      "සථරය": 1719,
      "රැස": 1720,
      "මරණ": 1721,
      "රටවල": 1722,
      "පනර": 1723,
      "අභයොග": 1724,
      "ආණඩව": 1725,
      "##ැමබර": 1726,
      "2005": 1727,
      "හැඟම": 1728,
      "එංගලනත": 1729,
      "ඡායාර": 1730,
      "කොරොනා": 1731,
      "අලල": 1732,
      "ඇමර": 1733,
      "ඊයෙ": 1734,
      "ඡනද": 1735,
      "නෑ": 1736,
      "පතර": 1737,
      "මළ": 1738,
      "යාම": 1739,
      "රො": 1740,
      "වාස": 1741,
      "වපකෂ": 1742,
      "වභාග": 1743,
      "සතවල": 1744,
      "##වමක": 1745,
      "##ගනනා": 1746,
      "##em": 1747,
      "##ණා": 1748,
      "##රණ": 1749,
      "##පනය": 1750,
      "##ජය": 1751,
      "##un": 1752,
      "##ol": 1753,
      "වසා": 1754,
      "මෙයට": 1755,
      "සංගත": 1756,
      "##දායක": 1757,
      "##වෙද": 1758,
      "බලය": 1759,
      "බලශකත": 1760,
      "දෙදෙනෙක": 1761,
      "පරතලාභ": 1762,
      "##ගරාම": 1763,
      "නරත": 1764,
      "කණඩායමෙ": 1765,
      "දැනට": 1766,
      "කාණඩ": 1767,
      "පරමාණය": 1768,
      "2015": 1769,
      "##ගැනමට": 1770,
      "සනනාම": 1771,
      "පමණක": 1772,
      "ගැටල": 1773,
      "යෙදම": 1774,
      "මටටම": 1775,
      "and": 1776,
      "සාකචඡා": 1777,
      "අනතරජාල": 1778,
      "ඕනෑම": 1779,
      "බාහර": 1780,
      "බනධ": 1781,
      "26": 1782,
      "30": 1783,
      "31": 1784,
      "com": 1785,
      "ph": 1786,
      "අගන": 1787,
      "ඇරඹ": 1788,
      "කථ": 1789,
      "කාම": 1790,
      "කමාර": 1791,
      "දශ": 1792,
      "දෂණය": 1793,
      "නපද": 1794,
      "භෞ": 1795,
      "මදා": 1796,
      "යට": 1797,
      "වහ": 1798,
      "සෘ": 1799,
      "සතර": 1800,
      "##කතය": 1801,
      "##කාලන": 1802,
      "##ලත": 1803,
      "##දගල": 1804,
      "##පක": 1805,
      "##ul": 1806,
      "##චච": 1807,
      "පරාදෙශය": 1808,
      "සහභාග": 1809,
      "සංහල": 1810,
      "සංශොධ": 1811,
      "සටම": 1812,
      "පොත": 1813,
      "##දෙශය": 1814,
      "අවධානය": 1815,
      "වටා": 1816,
      "198": 1817,
      "බලපතරය": 1818,
      "කාච": 1819,
      "නරමාණ": 1820,
      "සභාව": 1821,
      "මහාචාරය": 1822,
      "සමපරෙෂ": 1823,
      "සවාධන": 1824,
      "ඇතතෙ": 1825,
      "##පළවෙ": 1826,
      "මලාශර": 1827,
      "පෞදගල": 1828,
      "14": 1829,
      "ඇඟ": 1830,
      "එන": 1831,
      "කමන": 1832,
      "ගතත": 1833,
      "දනය": 1834,
      "නයා": 1835,
      "භාර": 1836,
      "භකෂ": 1837,
      "මෛ": 1838,
      "මඟන": 1839,
      "හාන": 1840,
      "##කයෙක": 1841,
      "##ෑන": 1842,
      "##ගතය": 1843,
      "##ගණක": 1844,
      "##නයෙ": 1845,
      "##තතය": 1846,
      "##රාල": 1847,
      "##ථය": 1848,
      "##ජනය": 1849,
      "##ඨා": 1850,
      "##ch": 1851,
      "##ber": 1852,
      "සමන": 1853,
      "පරවා": 1854,
      "##කරමට": 1855,
      "වනොද": 1856,
      "සංචාරය": 1857,
      "පළතර": 1858,
      "##ෙරණ": 1859,
      "ශරෙ": 1860,
      "අවබොධ": 1861,
      "ජනපත": 1862,
      "වටනා": 1863,
      "ගොන": 1864,
      "ගොඩ": 1865,
      "දනයෙ": 1866,
      "පෙත": 1867,
      "හමවෙ": 1868,
      "##inf": 1869,
      "ලැබෙන": 1870,
      "ගැඹර": 1871,
      "අයවැ": 1872,
      "රජයෙ": 1873,
      "සාමාජ": 1874,
      "අපරාධ": 1875,
      "මෙනන": 1876,
      "වදයාව": 1877,
      "ගැටළ": 1878,
      "නයොජනය": 1879,
      "සාරථක": 1880,
      "නලධාරන": 1881,
      "පරමඛ": 1882,
      "ඉතහාසය": 1883,
      "ඵලදාය": 1884,
      "නශචත": 1885,
      "ඡායාරප": 1886,
      "බනධනාගාර": 1887,
      "මෛතර": 1888,
      "80": 1889,
      "ඇන": 1890,
      "උසස": 1891,
      "එසෙ": 1892,
      "ජෙන": 1893,
      "තහ": 1894,
      "තෙක": 1895,
      "දාහ": 1896,
      "නාවක": 1897,
      "පඩ": 1898,
      "බට": 1899,
      "බදධ": 1900,
      "භම": 1901,
      "යැය": 1902,
      "රපය": 1903,
      "වමෙන": 1904,
      "සකන": 1905,
      "##කක": 1906,
      "##ෙලය": 1907,
      "##සාර": 1908,
      "##id": 1909,
      "##ෂඨ": 1910,
      "##ඛන": 1911,
      "##ඩර": 1912,
      "##රයක": 1913,
      "##ap": 1914,
      "##පැ": 1915,
      "##පාත": 1916,
      "##og": 1917,
      "##තරම": 1918,
      "##ානායක": 1919,
      "##තවයෙන": 1920,
      "##යනහ": 1921,
      "මෙවා": 1922,
      "වෙග": 1923,
      "සංකරණ": 1924,
      "අතරම": 1925,
      "පැල": 1926,
      "සදවන": 1927,
      "පසෙ": 1928,
      "##සයම": 1929,
      "අතට": 1930,
      "පදගලක": 1931,
      "##රයාන": 1932,
      "197": 1933,
      "දනද": 1934,
      "##anu": 1935,
      "කාලන": 1936,
      "නයොග": 1937,
      "වශෙෂඥ": 1938,
      "තොරා": 1939,
      "මරට": 1940,
      "පෙනවා": 1941,
      "කෙරෙ": 1942,
      "අපරකාන": 1943,
      "දමරය": 1944,
      "සැලකය": 1945,
      "තතතවය": 1946,
      "##ish": 1947,
      "##බැඳ": 1948,
      "##වරතනය": 1949,
      "උදාහරණයක": 1950,
      "ධනාතමක": 1951,
      "භෞතක": 1952,
      "අංග": 1953,
      "අතය": 1954,
      "අහම": 1955,
      "ආදර": 1956,
      "ආතතය": 1957,
      "ඊට": 1958,
      "උණ": 1959,
      "කප": 1960,
      "ධවර": 1961,
      "නවක": 1962,
      "නාමය": 1963,
      "පාක": 1964,
      "පනද": 1965,
      "බංගල": 1966,
      "ලොව": 1967,
      "වෂ": 1968,
      "වත": 1969,
      "සලල": 1970,
      "හත": 1971,
      "හවම": 1972,
      "##ටන": 1973,
      "##සරම": 1974,
      "##මබර": 1975,
      "##වාර": 1976,
      "##වශය": 1977,
      "##ian": 1978,
      "##ලයට": 1979,
      "##නයන": 1980,
      "##දව": 1981,
      "##ඛණඩ": 1982,
      "##ag": 1983,
      "##බාධ": 1984,
      "පරභ": 1985,
      "පරථ": 1986,
      "වසඳ": 1987,
      "##කරයා": 1988,
      "වනදන": 1989,
      "##වරයක": 1990,
      "අතරතර": 1991,
      "##ෙසට": 1992,
      "පළවන": 1993,
      "පැය": 1994,
      "එකම": 1995,
      "##ලලක": 1996,
      "##ොරො": 1997,
      "බලපර": 1998,
      "බලාප": 1999,
      "ජනම": 2000,
      "භාවතය": 2001,
      "හැසරම": 2002,
      "196": 2003,
      "195": 2004,
      "ඉනධන": 2005,
      "ගොලය": 2006,
      "පෙජෙ": 2007,
      "සරසෙන": 2008,
      "සවඳ": 2009,
      "පටන": 2010,
      "##ාපනය": 2011,
      "ඉනදයාව": 2012,
      "ලොකඩ": 2013,
      "දෙශය": 2014,
      "ඒවායෙ": 2015,
      "පකෂයෙ": 2016,
      "නතඥ": 2017,
      "##icinf": 2018,
      "මැතවරණය": 2019,
      "වදයාවෙ": 2020,
      "ගනමන": 2021,
      "සලවා": 2022,
      "සලකා": 2023,
      "සැකකර": 2024,
      "පලබඳ": 2025,
      "ලැයසතවක": 2026,
      "කසද": 2027,
      "සංගමය": 2028,
      "ශකතමත": 2029,
      "##සටරෙලය": 2030,
      "අධයාපන": 2031,
      "අලෙවකරණ": 2032,
      "කෙනෙක": 2033,
      "අතදැකම": 2034,
      "බණඩාරනායක": 2035,
      "අමාතයාංශය": 2036,
      "අගමැත": 2037,
      "සංසකෘතක": 2038,
      "ආවරතතා": 2039,
      "පෞදගලක": 2040,
      "අතයවශය": 2041,
      "හවමාර": 2042,
      "පෙජෙං": 2043,
      "##icinfo": 2044,
      "for": 2045,
      "fil": 2046,
      "අගො": 2047,
      "අඛණඩ": 2048,
      "ආචාරය": 2049,
      "ඉසල": 2050,
      "ඉංගරස": 2051,
      "එවැන": 2052,
      "කම": 2053,
      "කණ": 2054,
      "කත": 2055,
      "ගෘ": 2056,
      "ඩෙ": 2057,
      "තමා": 2058,
      "දෂ": 2059,
      "දෘ": 2060,
      "දලල": 2061,
      "පෘ": 2062,
      "බය": 2063,
      "මදර": 2064,
      "වඳ": 2065,
      "වාත": 2066,
      "වහාර": 2067,
      "සවර": 2068,
      "සාධ": 2069,
      "ෆර": 2070,
      "##යාව": 2071,
      "##කයක": 2072,
      "##කයා": 2073,
      "##ායන": 2074,
      "##ාපත": 2075,
      "##නෙක": 2076,
      "##දක": 2077,
      "##ශයක": 2078,
      "##ter": 2079,
      "##ඤඤ": 2080,
      "##ාවැක": 2081,
      "##ාරයක": 2082,
      "පරණ": 2083,
      "පරාව": 2084,
      "##නනට": 2085,
      "##නනද": 2086,
      "සමබනධතා": 2087,
      "##වනට": 2088,
      "සංක": 2089,
      "සංඛ": 2090,
      "අනාවැක": 2091,
      "එකනෙක": 2092,
      "බලා": 2093,
      "දෙයක": 2094,
      "උපකරණ": 2095,
      "##ගමව": 2096,
      "අධයකෂ": 2097,
      "මනස": 2098,
      "ගොඨා": 2099,
      "කැඳ": 2100,
      "ඔහට": 2101,
      "##ers": 2102,
      "කණඩායමක": 2103,
      "අනතරකරයා": 2104,
      "තනතර": 2105,
      "පරමාණක": 2106,
      "##දෙනා": 2107,
      "කෙරණ": 2108,
      "කෙරෙන": 2109,
      "රටෙ": 2110,
      "අභයා": 2111,
      "කෙට": 2112,
      "වදයාතමක": 2113,
      "ආණඩකරම": 2114,
      "වවෘත": 2115,
      "කාරයකෂ": 2116,
      "තරඟාව": 2117,
      "අවසථාව": 2118,
      "පරාණ": 2119,
      "වෙළඳාම": 2120,
      "##මාරග": 2121,
      "##යොජන": 2122,
      "නයටර": 2123,
      "cricinfo": 2124,
      "පොජජ": 2125,
      "ගතතෙය": 2126,
      "මෛතරපාල": 2127,
      "තහවර": 2128,
      "සලලර": 2129,
      "13": 2130,
      "27": 2131,
      "fr": 2132,
      "wi": 2133,
      "අයෙක": 2134,
      "ඇතව": 2135,
      "ඇමත": 2136,
      "කටට": 2137,
      "ගනද": 2138,
      "දළ": 2139,
      "ධර": 2140,
      "පාන": 2141,
      "පාප": 2142,
      "බොග": 2143,
      "රඳ": 2144,
      "වෘතත": 2145,
      "සලක": 2146,
      "සපා": 2147,
      "##කඩ": 2148,
      "##ටය": 2149,
      "##ංජන": 2150,
      "##රවර": 2151,
      "##lo": 2152,
      "##ොප": 2153,
      "##ාරථ": 2154,
      "සහය": 2155,
      "සහාය": 2156,
      "##යෙනම": 2157,
      "##කාවක": 2158,
      "මෙවල": 2159,
      "##වරයෙක": 2160,
      "##කෂත": 2161,
      "##කාංග": 2162,
      "කොප": 2163,
      "සටමට": 2164,
      "නොත": 2165,
      "මලද": 2166,
      "##යතාව": 2167,
      "උපාය": 2168,
      "හැඩ": 2169,
      "අපහස": 2170,
      "ඉනදන": 2171,
      "හමද": 2172,
      "සයවස": 2173,
      "##තමය": 2174,
      "පහළ": 2175,
      "ගැටම": 2176,
      "සවභාවක": 2177,
      "රැසක": 2178,
      "##ort": 2179,
      "තනක": 2180,
      "පරමාණයක": 2181,
      "පාරලමෙනතව": 2182,
      "ඉලලමක": 2183,
      "පදගලයනට": 2184,
      "වෙළෙ": 2185,
      "සලසය": 2186,
      "සංවධාන": 2187,
      "ඉගෙනමෙ": 2188,
      "පාඨ": 2189,
      "භාෂාව": 2190,
      "මහදෙ": 2191,
      "ගණනාවක": 2192,
      "වශලෙෂණය": 2193,
      "සංඛයාව": 2194,
      "තැබ": 2195,
      "පරතපතත": 2196,
      "මෘදකාංග": 2197,
      "වයාපෘත": 2198,
      "රසායනක": 2199,
      "new": 2200,
      "සංඛයා": 2201,
      "000": 2202,
      "ar": 2203,
      "ch": 2204,
      "ma": 2205,
      "අනා": 2206,
      "ආය": 2207,
      "ආසයාන": 2208,
      "ඉතර": 2209,
      "උදය": 2210,
      "උතතෙ": 2211,
      "කඳ": 2212,
      "චර": 2213,
      "චාර": 2214,
      "ටෙසට": 2215,
      "තහන": 2216,
      "තවාල": 2217,
      "දායක": 2218,
      "නාම": 2219,
      "පණ": 2220,
      "බම": 2221,
      "බොල": 2222,
      "බබස": 2223,
      "යැ": 2224,
      "වණ": 2225,
      "වළ": 2226,
      "ශාර": 2227,
      "ශකතය": 2228,
      "සවල": 2229,
      "සබැඳ": 2230,
      "##කොට": 2231,
      "##ෙප": 2232,
      "##ෑට": 2233,
      "##හොත": 2234,
      "##වමන": 2235,
      "##ගැ": 2236,
      "##iv": 2237,
      "##නයක": 2238,
      "##av": 2239,
      "##ධර": 2240,
      "##ut": 2241,
      "##pt": 2242,
      "##බෑ": 2243,
      "පරහ": 2244,
      "##ානතර": 2245,
      "##ානතය": 2246,
      "##තවාද": 2247,
      "##කාවෙ": 2248,
      "##වාය": 2249,
      "සංය": 2250,
      "අනගමනය": 2251,
      "වයස": 2252,
      "සැස": 2253,
      "දකනට": 2254,
      "අධකාර": 2255,
      "අධකරණ": 2256,
      "පවසනනෙ": 2257,
      "මහතාගෙ": 2258,
      "##ලනතය": 2259,
      "වදලය": 2260,
      "කණඩායමට": 2261,
      "කොටසක": 2262,
      "බැල": 2263,
      "වශෙෂත": 2264,
      "පරකාශය": 2265,
      "##ard": 2266,
      "ඉනදයාන": 2267,
      "රැගෙන": 2268,
      "##ent": 2269,
      "සනධාන": 2270,
      "සථානයක": 2271,
      "වවද": 2272,
      "අවසථා": 2273,
      "චනදර": 2274,
      "සනනවෙදන": 2275,
      "ලකණ": 2276,
      "මාරගයෙ": 2277,
      "කරඩකයන": 2278,
      "සෙවාවක": 2279,
      "කාරයයන": 2280,
      "සැලැ": 2281,
      "පදනමව": 2282,
      "හදස": 2283,
      "වකණම": 2284,
      "ළඟා": 2285,
      "##සංහ": 2286,
      "ගොඩනැග": 2287,
      "සමපනන": 2288,
      "සාහතය": 2289,
      "පරවැස": 2290,
      "අගනවර": 2291,
      "ශරෙණ": 2292,
      "රපයල": 2293,
      "පරථම": 2294,
      "film": 2295,
      "අගොසත": 2296,
      "සපාඤඤ": 2297,
      "ශාරරක": 2298,
      "cb": 2299,
      "pr": 2300,
      "අගරාම": 2301,
      "ආකර": 2302,
      "ඉද": 2303,
      "උපත": 2304,
      "ඛණඩ": 2305,
      "ගවන": 2306,
      "තතව": 2307,
      "තෙර": 2308,
      "පැන": 2309,
      "බොර": 2310,
      "බාධ": 2311,
      "මග": 2312,
      "මද": 2313,
      "ලඟ": 2314,
      "##කණ": 2315,
      "##ගමක": 2316,
      "##ගරය": 2317,
      "##ලනය": 2318,
      "##රතන": 2319,
      "##ථනය": 2320,
      "##ැටල": 2321,
      "##පප": 2322,
      "##ht": 2323,
      "##බා": 2324,
      "##ොනය": 2325,
      "කරත": 2326,
      "පරශ": 2327,
      "පරානත": 2328,
      "##ාලා": 2329,
      "වෙඩ": 2330,
      "වෙමන": 2331,
      "##මකන": 2332,
      "සංවරධනය": 2333,
      "##කෂෙප": 2334,
      "##වලද": 2335,
      "පැද": 2336,
      "තරණයක": 2337,
      "හොඳන": 2338,
      "වරෂ": 2339,
      "වරණ": 2340,
      "##වෙග": 2341,
      "නොවැ": 2342,
      "ශරර": 2343,
      "ලෙසන": 2344,
      "සදධ": 2345,
      "සදකරන": 2346,
      "දෙව": 2347,
      "අවද": 2348,
      "උපදෙශ": 2349,
      "පරතකෂෙප": 2350,
      "මහතාට": 2351,
      "මනද": 2352,
      "ජාතනගෙ": 2353,
      "ඇතළව": 2354,
      "##සටන": 2355,
      "පරදෙශයෙද": 2356,
      "පතකර": 2357,
      "එහද": 2358,
      "කරයාමාරග": 2359,
      "##සථානය": 2360,
      "බලපෑ": 2361,
      "රැසව": 2362,
      "තොරව": 2363,
      "ලංකාවට": 2364,
      "2018": 2365,
      "##කයො": 2366,
      "ආසාදනය": 2367,
      "මාරගයක": 2368,
      "හඳනාගත": 2369,
      "සපරශ": 2370,
      "මධයම": 2371,
      "රාතර": 2372,
      "කෘෂ": 2373,
      "දවයනෙ": 2374,
      "අනරාධ": 2375,
      "ජෛව": 2376,
      "##වදයා": 2377,
      "සමනවත": 2378,
      "අයවැය": 2379,
      "උණසම": 2380,
      "##ොරොතත": 2381,
      "බලාපොරොතත": 2382,
      "ජනමාධය": 2383,
      "ගොඨාභය": 2384,
      "ගනදෙන": 2385,
      "වෙළෙඳ": 2386,
      "06": 2387,
      "05": 2388,
      "24": 2389,
      "en": 2390,
      "lan": 2391,
      "අඟ": 2392,
      "අංක": 2393,
      "ඇගය": 2394,
      "එයන": 2395,
      "කයය": 2396,
      "ඝන": 2397,
      "ජව": 2398,
      "ජරම": 2399,
      "ජලා": 2400,
      "ජොන": 2401,
      "ඩොල": 2402,
      "තතවය": 2403,
      "දමන": 2404,
      "දනනෙ": 2405,
      "නළ": 2406,
      "බළ": 2407,
      "භට": 2408,
      "මව": 2409,
      "මතක": 2410,
      "යතර": 2411,
      "වමෙ": 2412,
      "වංච": 2413,
      "ශත": 2414,
      "සනා": 2415,
      "හෙර": 2416,
      "##සසෙ": 2417,
      "##මාන": 2418,
      "##හසක": 2419,
      "##ගණය": 2420,
      "##ia": 2421,
      "##ist": 2422,
      "##ev": 2423,
      "##ෂන": 2424,
      "##රන": 2425,
      "##රණය": 2426,
      "##රසය": 2427,
      "##ab": 2428,
      "##ධරම": 2429,
      "##ub": 2430,
      "##op": 2431,
      "##oc": 2432,
      "##බම": 2433,
      "##ොය": 2434,
      "##ාවත": 2435,
      "පරජ": 2436,
      "පරගත": 2437,
      "පරසථ": 2438,
      "පරජා": 2439,
      "පරගණක": 2440,
      "කරමක": 2441,
      "##යාම": 2442,
      "##වනගෙ": 2443,
      "වැල": 2444,
      "සංසථ": 2445,
      "##නාහර": 2446,
      "අතරදන": 2447,
      "##රමත": 2448,
      "පැටට": 2449,
      "##ාදය": 2450,
      "තබය": 2451,
      "කරනවා": 2452,
      "නොවෙ": 2453,
      "##ොරක": 2454,
      "වයදම": 2455,
      "සදවය": 2456,
      "ලබය": 2457,
      "සැපත": 2458,
      "ජනග": 2459,
      "උපාංග": 2460,
      "අමෙර": 2461,
      "පදගලයා": 2462,
      "පාරශ": 2463,
      "192": 2464,
      "දරසථ": 2465,
      "මනො": 2466,
      "##තාවයක": 2467,
      "කාලගණ": 2468,
      "කැමත": 2469,
      "නයමත": 2470,
      "##කයනට": 2471,
      "පරදෙශය": 2472,
      "වලද": 2473,
      "අනතරව": 2474,
      "මාරත": 2475,
      "##සලම": 2476,
      "දැනවත": 2477,
      "වයාපත": 2478,
      "පරකාශයක": 2479,
      "පරකාශයට": 2480,
      "අමාතයවරයා": 2481,
      "වවධතවය": 2482,
      "තෙල": 2483,
      "වෛරස": 2484,
      "පැවැතවණ": 2485,
      "වචලය": 2486,
      "වකලප": 2487,
      "අංශයෙ": 2488,
      "##ාවරණය": 2489,
      "නයොජත": 2490,
      "පරහාරයක": 2491,
      "තාකෂණය": 2492,
      "සංගමයෙ": 2493,
      "සංසකෘත": 2494,
      "බසනාහර": 2495,
      "වශවවදයා": 2496,
      "කෘතම": 2497,
      "රපවාහන": 2498,
      "ජනාධපතවරයා": 2499,
      "රැකයා": 2500,
      "අධයාපනය": 2501,
      "දසතරකකයෙ": 2502,
      "පවලෙ": 2503,
      "වනාඩ": 2504,
      "සාපප": 2505,
      "සාපෙකෂ": 2506,
      "සටයෙය": 2507,
      "වරතමානයෙ": 2508,
      "one": 2509,
      "පැලෑට": 2510,
      "නයටරජන": 2511,
      "අගරාමාතය": 2512,
      "නොවැමබර": 2513,
      "22": 2514,
      "28": 2515,
      "39": 2516,
      "dec": 2517,
      "per": 2518,
      "tr": 2519,
      "un": 2520,
      "ආධාර": 2521,
      "ඇඳ": 2522,
      "ඇගෙ": 2523,
      "එනන": 2524,
      "කෑ": 2525,
      "කානත": 2526,
      "ගයෙ": 2527,
      "ගවෙ": 2528,
      "ජනනය": 2529,
      "තරම": 2530,
      "පවර": 2531,
      "පලප": 2532,
      "බෙක": 2533,
      "මොර": 2534,
      "මොන": 2535,
      "මසලම": 2536,
      "රච": 2537,
      "රකෂත": 2538,
      "ලප": 2539,
      "ලකෂණ": 2540,
      "වගෙ": 2541,
      "වකරම": 2542,
      "සෑ": 2543,
      "සස": 2544,
      "හය": 2545,
      "හස": 2546,
      "හං": 2547,
      "##ටක": 2548,
      "##ෑසන": 2549,
      "##සප": 2550,
      "##මළ": 2551,
      "##හණ": 2552,
      "##ගස": 2553,
      "##eb": 2554,
      "##ලඩ": 2555,
      "##නතර": 2556,
      "##දද": 2557,
      "##තහා": 2558,
      "##තොට": 2559,
      "##ජව": 2560,
      "##ජර": 2561,
      "##um": 2562,
      "##tt": 2563,
      "##ka": 2564,
      "##ks": 2565,
      "##ාරම": 2566,
      "පරයෙ": 2567,
      "පරොක": 2568,
      "පරාජය": 2569,
      "පරවරතනය": 2570,
      "##ානක": 2571,
      "වසතව": 2572,
      "වසසය": 2573,
      "වනසර": 2574,
      "##වරණය": 2575,
      "##වරනගෙ": 2576,
      "සංකර": 2577,
      "සංකල": 2578,
      "එකතව": 2579,
      "වශෂට": 2580,
      "##ලලෙ": 2581,
      "##ලලට": 2582,
      "බලනන": 2583,
      "සදවම": 2584,
      "සැම": 2585,
      "උපරම": 2586,
      "##ගෙනහර": 2587,
      "අමලා": 2588,
      "##හසථ": 2589,
      "නැගෙනහර": 2590,
      "දරඝ": 2591,
      "##තවරයා": 2592,
      "සථාවර": 2593,
      "කැල": 2594,
      "නරප": 2595,
      "නරදෙශ": 2596,
      "නරකෂණය": 2597,
      "##ind": 2598,
      "වලංග": 2599,
      "සරසව": 2600,
      "පහක": 2601,
      "ලැබණ": 2602,
      "තළන": 2603,
      "මාරගය": 2604,
      "වරගයෙ": 2605,
      "රැඳ": 2606,
      "සභාවෙ": 2607,
      "##සවෙක": 2608,
      "##ොජනය": 2609,
      "පැවැත": 2610,
      "පරවෘතත": 2611,
      "මාංශ": 2612,
      "සවයංකරය": 2613,
      "පාසැල": 2614,
      "පහටා": 2615,
      "පැවැතවමට": 2616,
      "වදයාල": 2617,
      "සෙවාවන": 2618,
      "හඳනාගෙන": 2619,
      "කාරයභ": 2620,
      "නගරයෙ": 2621,
      "උදෑසන": 2622,
      "වාකයය": 2623,
      "පරසරය": 2624,
      "වායගො": 2625,
      "ඉතාලයෙ": 2626,
      "කරයාවලය": 2627,
      "තාකෂණ": 2628,
      "රාශයක": 2629,
      "සථරයෙ": 2630,
      "##ොමබ": 2631,
      "කසලාන": 2632,
      "සංචාරක": 2633,
      "හඳනවා": 2634,
      "වරතමාන": 2635,
      "දොෂ": 2636,
      "මෙහෙයම": 2637,
      "ලාංකක": 2638,
      "සංශොධනය": 2639,
      "සමපරෙෂණය": 2640,
      "පරවාහනය": 2641,
      "කපපාද": 2642,
      "බංගලාදෙශ": 2643,
      "බලපරදෙශය": 2644,
      "ගෘහසථ": 2645,
      "කාරයකෂම": 2646,
      "උතතෙජනය": 2647,
      "තහනම": 2648,
      "බොලගොඩ": 2649,
      "සැපතැමබර": 2650,
      "##තහාසක": 2651,
      "29": 2652,
      "23": 2653,
      "41": 2654,
      "ii": 2655,
      "අහ": 2656,
      "ඇස": 2657,
      "ඉකම": 2658,
      "ඓතහාසක": 2659,
      "ඔලම": 2660,
      "කැන": 2661,
      "කපා": 2662,
      "ගඟ": 2663,
      "ගතව": 2664,
      "ජප": 2665,
      "නවෙදන": 2666,
      "නගරය": 2667,
      "පවා": 2668,
      "මඟ": 2669,
      "යහ": 2670,
      "රණ": 2671,
      "ශබද": 2672,
      "සක": 2673,
      "සඟ": 2674,
      "සතරය": 2675,
      "හඟ": 2676,
      "හඬ": 2677,
      "##ාංශ": 2678,
      "##ාණක": 2679,
      "##ටස": 2680,
      "##ෑමට": 2681,
      "##සමෙ": 2682,
      "##නක": 2683,
      "##ණන": 2684,
      "##ණාතමක": 2685,
      "##දමට": 2686,
      "##රච": 2687,
      "##රොන": 2688,
      "##ැස": 2689,
      "##ෆර": 2690,
      "##ඥයන": 2691,
      "##0ක": 2692,
      "සමාල": 2693,
      "පරෂ": 2694,
      "පරච": 2695,
      "පරොට": 2696,
      "පරයොජන": 2697,
      "කරමානත": 2698,
      "##වාදය": 2699,
      "මෙවැන": 2700,
      "වෙර": 2701,
      "වෙගය": 2702,
      "වනදා": 2703,
      "වනවට": 2704,
      "අනභව": 2705,
      "##ංගම": 2706,
      "සදානම": 2707,
      "මලයන": 2708,
      "යනවෙන": 2709,
      "වෙනසකම": 2710,
      "අවධාර": 2711,
      "පදගලයෙකට": 2712,
      "හෙවත": 2713,
      "##ාධපත": 2714,
      "දරශන": 2715,
      "මනසා": 2716,
      "##ant": 2717,
      "##තකාලන": 2718,
      "කැට": 2719,
      "කැමර": 2720,
      "නරව": 2721,
      "##ොනටම": 2722,
      "##වෙනනෙ": 2723,
      "##ෙහෙ": 2724,
      "පටත": 2725,
      "බරපත": 2726,
      "##ලෙඛන": 2727,
      "##සෙකර": 2728,
      "පරධානතවයෙන": 2729,
      "මරා": 2730,
      "පෙනනම": 2731,
      "2013": 2732,
      "නතපත": 2733,
      "##end": 2734,
      "100": 2735,
      "උතස": 2736,
      "උතසව": 2737,
      "වගවෙ": 2738,
      "ජවතය": 2739,
      "කාරක": 2740,
      "අවසථාවක": 2741,
      "##තවලට": 2742,
      "සනනවෙදනය": 2743,
      "නායකයෙක": 2744,
      "සැලකෙ": 2745,
      "තතතවයක": 2746,
      "පැවැතවෙන": 2747,
      "ලැයසත": 2748,
      "ආරකෂාව": 2749,
      "දගටම": 2750,
      "කෙසෙද": 2751,
      "කඩදාස": 2752,
      "කවද": 2753,
      "කවොනටම": 2754,
      "##බැවන": 2755,
      "පරතඵලයක": 2756,
      "නවසක": 2757,
      "කළමනාකරණ": 2758,
      "තමනට": 2759,
      "නයමතව": 2760,
      "ජනතාවට": 2761,
      "පරවෙශය": 2762,
      "ඇලගොරතමයක": 2763,
      "පෙරමණෙ": 2764,
      "අධයයනය": 2765,
      "සමසතයක": 2766,
      "වනාශ": 2767,
      "සාකෂාත": 2768,
      "##ොචනය": 2769,
      "අධකරණයට": 2770,
      "පාරභොගකයනට": 2771,
      "##ight": 2772,
      "තරගාවලයෙ": 2773,
      "මැනය": 2774,
      "ලයනන": 2775,
      "වධායක": 2776,
      "අලලස": 2777,
      "##ember": 2778,
      "වනදනයෙ": 2779,
      "from": 2780,
      "වළක": 2781,
      "ශරෙණගත": 2782,
      "ලඟව": 2783,
      "december": 2784,
      "කානතාවක": 2785,
      "ඔලමපක": 2786,
      "02": 2787,
      "21": 2788,
      "cal": 2789,
      "gpt": 2790,
      "sri": 2791,
      "අයට": 2792,
      "ආශ": 2793,
      "ඕසටරෙලය": 2794,
      "කංක": 2795,
      "කසයම": 2796,
      "ගබ": 2797,
      "ජයක": 2798,
      "තාර": 2799,
      "තාය": 2800,
      "තොග": 2801,
      "දඹ": 2802,
      "දකෂ": 2803,
      "දෙරණ": 2804,
      "දරමත": 2805,
      "ධාව": 2806,
      "නමන": 2807,
      "පැක": 2808,
      "බෙල": 2809,
      "මංග": 2810,
      "යය": 2811,
      "යථ": 2812,
      "යකත": 2813,
      "යොරක": 2814,
      "ලහල": 2815,
      "වජය": 2816,
      "ශලප": 2817,
      "සොර": 2818,
      "සරය": 2819,
      "සජත": 2820,
      "ළම": 2821,
      "##යනන": 2822,
      "##ාකර": 2823,
      "##හට": 2824,
      "##හද": 2825,
      "##ey": 2826,
      "##ෂක": 2827,
      "##භත": 2828,
      "##තල": 2829,
      "##ථන": 2830,
      "##ැද": 2831,
      "##පයන": 2832,
      "##ov": 2833,
      "##od": 2834,
      "##ki": 2835,
      "##බට": 2836,
      "##yy": 2837,
      "##ff": 2838,
      "##ොඩ": 2839,
      "##ොයන": 2840,
      "##තරාත": 2841,
      "සමදර": 2842,
      "සමභාව": 2843,
      "පරාග": 2844,
      "පරශනය": 2845,
      "##ානතරක": 2846,
      "වසඳම": 2847,
      "##වරවෙ": 2848,
      "අතරන": 2849,
      "##ෙසතරාත": 2850,
      "අනපළවෙ": 2851,
      "පළවෙ": 2852,
      "කොරයාන": 2853,
      "නොල": 2854,
      "නොකළ": 2855,
      "දෙවල": 2856,
      "අවට": 2857,
      "ජනපරය": 2858,
      "දකවන": 2859,
      "අධකෂණය": 2860,
      "##රයාව": 2861,
      "මහෙසතරාත": 2862,
      "හැට": 2863,
      "193": 2864,
      "නැරඹ": 2865,
      "දරක": 2866,
      "ගොදර": 2867,
      "හමව": 2868,
      "සයලල": 2869,
      "කැමැ": 2870,
      "යොජන": 2871,
      "එමඟන": 2872,
      "සරටට": 2873,
      "##ංශයෙ": 2874,
      "එහෙත": 2875,
      "පටපත": 2876,
      "අයතය": 2877,
      "අයදම": 2878,
      "##ary": 2879,
      "පෙරහැර": 2880,
      "වයාජ": 2881,
      "පාරලමෙනතවෙ": 2882,
      "දෙකම": 2883,
      "ජයවරධන": 2884,
      "අපරාණක": 2885,
      "කෞ": 2886,
      "වවෙක": 2887,
      "අවසථාවන": 2888,
      "පාසක": 2889,
      "2004": 2890,
      "පාලක": 2891,
      "කොමෂන": 2892,
      "කඩල": 2893,
      "නැතනම": 2894,
      "සාරාංශ": 2895,
      "පරහාරයෙන": 2896,
      "නවසලනත": 2897,
      "රෙඛ": 2898,
      "හැඟමක": 2899,
      "යාමට": 2900,
      "##ාටය": 2901,
      "කසලතා": 2902,
      "රයදර": 2903,
      "ජනපදයෙ": 2904,
      "රනල": 2905,
      "ජයගරහණය": 2906,
      "ලාංකකයන": 2907,
      "වැළැක": 2908,
      "සමාගමක": 2909,
      "පවතවාගෙන": 2910,
      "නාඬ": 2911,
      "බඳවා": 2912,
      "ඇමරකාන": 2913,
      "නපදවන": 2914,
      "සාමාජකයන": 2915,
      "දාහකය": 2916,
      "සකනධ": 2917,
      "ඩෙංග": 2918,
      "සාධක": 2919,
      "තරඟාවලය": 2920,
      "රඳවා": 2921,
      "පරහාරය": 2922,
      "lanka": 2923,
      "හෙරොයන": 2924,
      "##සපෙට": 2925,
      "සංකරමණ": 2926,
      "වෙරළ": 2927,
      "කංකණා": 2928,
      "ධාවනය": 2929,
      "සමභාවතාව": 2930,
      "2ක": 2931,
      "45": 2932,
      "ai": 2933,
      "cl": 2934,
      "ib": 2935,
      "red": 2936,
      "sh": 2937,
      "ආපස": 2938,
      "ආබාධ": 2939,
      "ඇට": 2940,
      "ඇප": 2941,
      "ඇයට": 2942,
      "ඉහත": 2943,
      "එබැවන": 2944,
      "ඔක": 2945,
      "කලප": 2946,
      "ගාල": 2947,
      "ජංගම": 2948,
      "තදෙනෙක": 2949,
      "දා": 2950,
      "දෑ": 2951,
      "දහ": 2952,
      "දත": 2953,
      "දඩ": 2954,
      "දොර": 2955,
      "දයත": 2956,
      "දසන": 2957,
      "දමා": 2958,
      "ධරම": 2959,
      "නවන": 2960,
      "නවත": 2961,
      "නවර": 2962,
      "පාව": 2963,
      "බාර": 2964,
      "බදර": 2965,
      "බහල": 2966,
      "මඩ": 2967,
      "මනා": 2968,
      "යාව": 2969,
      "යරො": 2970,
      "ලපයක": 2971,
      "වනන": 2972,
      "වමක": 2973,
      "වයට": 2974,
      "වෂය": 2975,
      "ශශනය": 2976,
      "සවන": 2977,
      "සකරය": 2978,
      "හතර": 2979,
      "##කලප": 2980,
      "##ෙදය": 2981,
      "##ටා": 2982,
      "##ෑස": 2983,
      "##ගමන": 2984,
      "##ir": 2985,
      "##if": 2986,
      "##eal": 2987,
      "##ලව": 2988,
      "##ෂා": 2989,
      "##දග": 2990,
      "##භා": 2991,
      "##ඩස": 2992,
      "##රව": 2993,
      "##ැබ": 2994,
      "##පෙන": 2995,
      "##පයෙ": 2996,
      "##ජතා": 2997,
      "##ra": 2998,
      "##ශච": 2999,
      "##ශෙෂ": 3000,
      "##20": 3001,
      "##ළය": 3002,
      "##බදය": 3003,
      "##jay": 3004,
      "##ඬවම": 3005,
      "##qu": 3006,
      "##ාවය": 3007,
      "ind": 3008,
      "සමාර": 3009,
      "පරාය": 3010,
      "පරයත": 3011,
      "පරෙම": 3012,
      "පරවරධනය": 3013,
      "##යකම": 3014,
      "සහන": 3015,
      "##බනතොට": 3016,
      "##ාලාව": 3017,
      "සපයය": 3018,
      "##වතය": 3019,
      "##වසම": 3020,
      "##වරණ": 3021,
      "සංසර": 3022,
      "සංවරධන": 3023,
      "අනමැ": 3024,
      "අනාවරණය": 3025,
      "පළබද": 3026,
      "එකව": 3027,
      "එකඟ": 3028,
      "##දරය": 3029,
      "##ාදා": 3030,
      "##ණඩව": 3031,
      "වරා": 3032,
      "වරද": 3033,
      "##ෙරා": 3034,
      "නොකරන": 3035,
      "කරමටත": 3036,
      "##තතෙන": 3037,
      "සදහා": 3038,
      "##මතක": 3039,
      "වැඩපළවෙ": 3040,
      "##මෙද": 3041,
      "##සයාව": 3042,
      "##ාවකට": 3043,
      "ජනර": 3044,
      "ජනරාල": 3045,
      "අදත": 3046,
      "අධර": 3047,
      "පරතචාර": 3048,
      "##ාසයෙ": 3049,
      "මහාව": 3050,
      "මහාන": 3051,
      "දරන": 3052,
      "දරණ": 3053,
      "දරවන": 3054,
      "ඔබගෙ": 3055,
      "අවසානයෙ": 3056,
      "හැකයාවක": 3057,
      "හමකර": 3058,
      "හමබනතොට": 3059,
      "සයැටල": 3060,
      "ලදදෙ": 3061,
      "නයෂට": 3062,
      "රාජධාන": 3063,
      "රාජධානය": 3064,
      "මතප": 3065,
      "සවභාවය": 3066,
      "##පාදන": 3067,
      "වශෙෂාංග": 3068,
      "දැනෙන": 3069,
      "ඒවාට": 3070,
      "පකෂපාත": 3071,
      "අවශයතා": 3072,
      "ඉදරයට": 3073,
      "අපරෙල": 3074,
      "සනදර": 3075,
      "කෙටම": 3076,
      "ආකාරයට": 3077,
      "දැකවය": 3078,
      "වගව": 3079,
      "ජවතයෙ": 3080,
      "අලත": 3081,
      "අලතන": 3082,
      "අවසථාවෙ": 3083,
      "ඉහළම": 3084,
      "වරොධය": 3085,
      "නායකතවය": 3086,
      "ලකව": 3087,
      "තවමත": 3088,
      "ආරකෂා": 3089,
      "මටටමෙ": 3090,
      "වෙළඳස": 3091,
      "මණඩලයෙ": 3092,
      "පරසද": 3093,
      "නයොජය": 3094,
      "වඩාතම": 3095,
      "ඉතාලය": 3096,
      "##පොළ": 3097,
      "පරමාණවත": 3098,
      "##ect": 3099,
      "අපෙකෂක": 3100,
      "සමමාන": 3101,
      "සමමානය": 3102,
      "සෙවකයන": 3103,
      "දෙසට": 3104,
      "දෙසැමබර": 3105,
      "සළඟ": 3106,
      "ජයගරහණයක": 3107,
      "isl": 3108,
      "පහසවෙන": 3109,
      "2020": 3110,
      "අයරන": 3111,
      "පරකෂණයක": 3112,
      "අනතරජාලය": 3113,
      "භකෂන": 3114,
      "ජෙනරාල": 3115,
      "බටහර": 3116,
      "දනදසන": 3117,
      "පාකසත": 3118,
      "වතමන": 3119,
      "ඉසලාම": 3120,
      "පෘථ": 3121,
      "හමදාව": 3122,
      "සංයජතා": 3123,
      "සැලැසමක": 3124,
      "භටයන": 3125,
      "වංචා": 3126,
      "පරජානන": 3127,
      "බෙකජෙ": 3128,
      "වකරමසංහ": 3129,
      "පරොකථනය": 3130,
      "අවධාරණය": 3131,
      "තායව": 3132,
      "ibm": 3133,
      "වයටනා": 3134,
      "පරායොග": 3135,
      "7ක": 3136,
      "danu": 3137,
      "ex": 3138,
      "night": 3139,
      "sc": 3140,
      "wor": 3141,
      "අනය": 3142,
      "අරම": 3143,
      "අකා": 3144,
      "අතත": 3145,
      "ආදා": 3146,
      "ඉස": 3147,
      "උළ": 3148,
      "එද": 3149,
      "ඔව": 3150,
      "ඔකත": 3151,
      "කයන": 3152,
      "කතාව": 3153,
      "ගස": 3154,
      "ගමනා": 3155,
      "තයෙන": 3156,
      "තබන": 3157,
      "තාප": 3158,
      "තතවයක": 3159,
      "දට": 3160,
      "දප": 3161,
      "දඬවම": 3162,
      "පෙශ": 3163,
      "පාද": 3164,
      "පතත": 3165,
      "පඩන": 3166,
      "බත": 3167,
      "බාල": 3168,
      "බලල": 3169,
      "බඳන": 3170,
      "මොක": 3171,
      "යග": 3172,
      "යගයෙ": 3173,
      "රහත": 3174,
      "රංග": 3175,
      "රතන": 3176,
      "රසයාන": 3177,
      "වවත": 3178,
      "වවෙ": 3179,
      "වපල": 3180,
      "හන": 3181,
      "##කො": 3182,
      "##කමක": 3183,
      "##ෙමන": 3184,
      "##ෙදා": 3185,
      "##සතර": 3186,
      "##මනය": 3187,
      "##ගතව": 3188,
      "##im": 3189,
      "##නස": 3190,
      "##තනය": 3191,
      "##තෙක": 3192,
      "##se": 3193,
      "##up": 3194,
      "##uc": 3195,
      "##ළම": 3196,
      "##බක": 3197,
      "##බජ": 3198,
      "##බාහ": 3199,
      "##චනය": 3200,
      "##ෟදධ": 3201,
      "##ඝො": 3202,
      "##ආර": 3203,
      "කරගත": 3204,
      "කරසට": 3205,
      "##stur": 3206,
      "සමහා": 3207,
      "සමමෙ": 3208,
      "සමගන": 3209,
      "සමකරණ": 3210,
      "පරන": 3211,
      "පරවර": 3212,
      "##යෙල": 3213,
      "##තවයෙ": 3214,
      "##බනක": 3215,
      "##බනට": 3216,
      "##යාසර": 3217,
      "සමබනධව": 3218,
      "##වනසර": 3219,
      "වනානතර": 3220,
      "වැරම": 3221,
      "සංචත": 3222,
      "අනසම": 3223,
      "##දරශනය": 3224,
      "කොළ": 3225,
      "කොංගරස": 3226,
      "පොෂණය": 3227,
      "පොෂණ": 3228,
      "වරසෙකර": 3229,
      "නොම": 3230,
      "##කාරය": 3231,
      "ශරෙෂ": 3232,
      "බලධාර": 3233,
      "සදකළ": 3234,
      "ලබනනෙ": 3235,
      "දෙදෙන": 3236,
      "දෙමළ": 3237,
      "මෙමගන": 3238,
      "ජනවාර": 3239,
      "##හසපත": 3240,
      "හැරම": 3241,
      "අපෙ": 3242,
      "නැග": 3243,
      "ගොවනට": 3244,
      "සථානය": 3245,
      "කාලයෙ": 3246,
      "කැබනට": 3247,
      "නරභත": 3248,
      "පරදෙශවල": 3249,
      "කටය": 3250,
      "ලැබය": 3251,
      "බැර": 3252,
      "සවභාව": 3253,
      "##පාදනය": 3254,
      "පටව": 3255,
      "සොල": 3256,
      "හරන": 3257,
      "බරහසපත": 3258,
      "වරගකරණය": 3259,
      "ගණනය": 3260,
      "ගණාංග": 3261,
      "දැර": 3262,
      "බලපාන": 3263,
      "පරකාශක": 3264,
      "තනවන": 3265,
      "හෙතවක": 3266,
      "2012": 3267,
      "රටක": 3268,
      "සතට": 3269,
      "සතකාර": 3270,
      "##enc": 3271,
      "වෛරසය": 3272,
      "අරාව": 3273,
      "දැකගත": 3274,
      "මාටට": 3275,
      "වවනය": 3276,
      "අලං": 3277,
      "ගෙම": 3278,
      "##පටය": 3279,
      "##පටන": 3280,
      "සැකස": 3281,
      "වශාලතම": 3282,
      "මටටමන": 3283,
      "##ලෙකම": 3284,
      "කරයාකාරතවය": 3285,
      "කරඩකයො": 3286,
      "බෞදධ": 3287,
      "කොමසම": 3288,
      "පැවසවෙ": 3289,
      "දසානායක": 3290,
      "බෙරය": 3291,
      "උදව": 3292,
      "උදඝො": 3293,
      "##ett": 3294,
      "පදධතය": 3295,
      "ලබාදම": 3296,
      "යදධය": 3297,
      "මාලට": 3298,
      "මාලාවක": 3299,
      "හමදාපත": 3300,
      "ලකෂය": 3301,
      "මනසනට": 3302,
      "හඳනවන": 3303,
      "අතදැකමක": 3304,
      "ඉතහාස": 3305,
      "වාසය": 3306,
      "අඩවයක": 3307,
      "වදලබල": 3308,
      "තරගාවලය": 3309,
      "සාහතයය": 3310,
      "පරකෂා": 3311,
      "කානතා": 3312,
      "වයවසථාව": 3313,
      "එංගලනතයෙ": 3314,
      "සනනාමයක": 3315,
      "phish": 3316,
      "පඩනය": 3317,
      "වෂබජ": 3318,
      "පරභොජනය": 3319,
      "දෂකර": 3320,
      "මදරණය": 3321,
      "ෆරැන": 3322,
      "wiki": 3323,
      "පාපනද": 3324,
      "මෙවලම": 3325,
      "සයවසෙ": 3326,
      "mastur": 3327,
      "ආයධ": 3328,
      "උදයාන": 3329,
      "පාරශවය": 3330,
      "කාරයභාරයක": 3331,
      "බරපතල": 3332,
      "##endar": 3333,
      "ලැයසතගත": 3334,
      "යාවතකාලන": 3335,
      "අනමැතය": 3336,
      "තායවානය": 3337,
      "පරායොගක": 3338,
      "danujay": 3339,
      "අකාබනක": 3340,
      "ආදායම": 3341,
      "සමහාණඩව": 3342,
      "ශරෙෂඨ": 3343,
      "masturb": 3344,
      "by": 3345,
      "ca": 3346,
      "gu": 3347,
      "mal": 3348,
      "to": 3349,
      "zeal": 3350,
      "අසල": 3351,
      "අවාස": 3352,
      "ආලෙ": 3353,
      "ඉංජන": 3354,
      "උස": 3355,
      "උඩ": 3356,
      "උරම": 3357,
      "එදන": 3358,
      "ඔෆ": 3359,
      "කලන": 3360,
      "ගායන": 3361,
      "ගෑස": 3362,
      "චො": 3363,
      "ජාව": 3364,
      "ජයෙ": 3365,
      "ඩො": 3366,
      "ණය": 3367,
      "තය": 3368,
      "තඹ": 3369,
      "දල": 3370,
      "දෛ": 3371,
      "පදය": 3372,
      "පතවය": 3373,
      "බෙද": 3374,
      "භකත": 3375,
      "භාග": 3376,
      "මෑ": 3377,
      "මාය": 3378,
      "මොහො": 3379,
      "මංගල": 3380,
      "රධර": 3381,
      "ලයන": 3382,
      "ලහර": 3383,
      "වාරය": 3384,
      "වාතය": 3385,
      "ශා": 3386,
      "ශල": 3387,
      "ශානත": 3388,
      "සකර": 3389,
      "සවස": 3390,
      "සපත": 3391,
      "සතා": 3392,
      "හල": 3393,
      "හණ": 3394,
      "##හැන": 3395,
      "##ගාම": 3396,
      "##ex": 3397,
      "##ලස": 3398,
      "##ලයන": 3399,
      "##ලෙස": 3400,
      "##ෂල": 3401,
      "##භවය": 3402,
      "##තයක": 3403,
      "##ංස": 3404,
      "##au": 3405,
      "##ad": 3406,
      "##ැලල": 3407,
      "##පොල": 3408,
      "##ජනනය": 3409,
      "##ෘතය": 3410,
      "##ld": 3411,
      "##බාන": 3412,
      "##චන": 3413,
      "##උකාලන": 3414,
      "##ොනන": 3415,
      "##ොසථ": 3416,
      "##ෙනනෙ": 3417,
      "##ාරතන": 3418,
      "inter": 3419,
      "පරය": 3420,
      "පරමත": 3421,
      "සහයොග": 3422,
      "##තවත": 3423,
      "වසංග": 3424,
      "කරමෙද": 3425,
      "ඇතල": 3426,
      "##වාසය": 3427,
      "##කරවෙක": 3428,
      "##ාලක": 3429,
      "මෙජර": 3430,
      "වනො": 3431,
      "සංස": 3432,
      "බවක": 3433,
      "##කෂණක": 3434,
      "කළා": 3435,
      "පළගත": 3436,
      "පැර": 3437,
      "එකට": 3438,
      "කොටට": 3439,
      "සටනන": 3440,
      "තරගම": 3441,
      "තරසත": 3442,
      "##දයාතමක": 3443,
      "පොසපෙට": 3444,
      "ශරතා": 3445,
      "පදන": 3446,
      "##පරදායක": 3447,
      "ලෙසය": 3448,
      "වයහය": 3449,
      "සදස": 3450,
      "සදකර": 3451,
      "මලධරම": 3452,
      "වැඩදර": 3453,
      "කරයාවන": 3454,
      "දෙහ": 3455,
      "##සයඩ": 3456,
      "සැබෑ": 3457,
      "උපන": 3458,
      "උපොසථ": 3459,
      "අමල": 3460,
      "අමදරවය": 3461,
      "පවසන": 3462,
      "මහලෙකම": 3463,
      "මැය": 3464,
      "මැස": 3465,
      "මැණක": 3466,
      "නැං": 3467,
      "අඩවෙන": 3468,
      "##තකම": 3469,
      "කැපටන": 3470,
      "රාජයය": 3471,
      "නරක": 3472,
      "නරොධ": 3473,
      "සරත": 3474,
      "දෙනා": 3475,
      "වදෙස": 3476,
      "පහසකම": 3477,
      "ලැබම": 3478,
      "ගැලප": 3479,
      "බැඳ": 3480,
      "බැඳම": 3481,
      "සවාර": 3482,
      "සවශෙෂ": 3483,
      "අනතරගත": 3484,
      "අනතරකන": 3485,
      "ආරවල": 3486,
      "සොයනන": 3487,
      "වමර": 3488,
      "වමසම": 3489,
      "වමසමක": 3490,
      "වසරෙහ": 3491,
      "වයායාම": 3492,
      "සාමපරදායක": 3493,
      "දෙශගණය": 3494,
      "තරගයෙ": 3495,
      "මරණය": 3496,
      "ආරමභක": 3497,
      "2019": 3498,
      "##ical": 3499,
      "සනසන": 3500,
      "නදසන": 3501,
      "වදයත": 3502,
      "දැකය": 3503,
      "සථානයෙ": 3504,
      "සථානයට": 3505,
      "පරවණ": 3506,
      "මාළ": 3507,
      "භාවතයෙ": 3508,
      "ඉහළට": 3509,
      "වැදගතකම": 3510,
      "සැලකෙන": 3511,
      "පහටවා": 3512,
      "##වාදයක": 3513,
      "##කරවනට": 3514,
      "සමාජය": 3515,
      "වඩයො": 3516,
      "වදයාලයෙ": 3517,
      "පළාතෙ": 3518,
      "භාණඩයක": 3519,
      "ගණනක": 3520,
      "නලධාරයෙක": 3521,
      "ලැයසතවෙ": 3522,
      "නවසෙ": 3523,
      "හැරමට": 3524,
      "නයමතය": 3525,
      "රෙග": 3526,
      "##ity": 3527,
      "රථවාහන": 3528,
      "අපෙකෂත": 3529,
      "වශලෙෂණ": 3530,
      "තැනපත": 3531,
      "උදාහරණ": 3532,
      "##ational": 3533,
      "වාහන": 3534,
      "පරතපතතය": 3535,
      "ගොඩනැගම": 3536,
      "රොහල": 3537,
      "සටයද": 3538,
      "2021": 3539,
      "වෙලාවක": 3540,
      "අයරලනත": 3541,
      "දැමමට": 3542,
      "අගවනසර": 3543,
      "ආලොකය": 3544,
      "නඩව": 3545,
      "රසවත": 3546,
      "සපයන": 3547,
      "කාරයාල": 3548,
      "1947": 3549,
      "පනරජනනය": 3550,
      "දැනටමත": 3551,
      "කාමරය": 3552,
      "සෘජ": 3553,
      "නරමාණාතමක": 3554,
      "ඇනඋකාලන": 3555,
      "එසෙම": 3556,
      "සකනධය": 3557,
      "අභයාස": 3558,
      "000ක": 3559,
      "films": 3560,
      "ඉදකරම": 3561,
      "බාධා": 3562,
      "පරශලක": 3563,
      "පරානතයෙ": 3564,
      "අනරාධපර": 3565,
      "ඩොලර": 3566,
      "දනනෙය": 3567,
      "පරසථාර": 3568,
      "වශවවදයාල": 3569,
      "එනනත": 3570,
      "පලපනය": 3571,
      "මොනවාද": 3572,
      "නරපණය": 3573,
      "නවෙදනයක": 3574,
      "නරවදය": 3575,
      "වළකවා": 3576,
      "calendar": 3577,
      "සංකරමණකයන": 3578,
      "ගාලල": 3579,
      "බහලව": 3580,
      "මහානාග": 3581,
      "මතපැන": 3582,
      "පෘථවය": 3583,
      "එදජා": 3584,
      "danujaya": 3585,
      "ශරෙෂඨාධ": 3586,
      "masturbation": 3587,
      "zealand": 3588,
      "ජයෙෂඨ": 3589,
      "තයණ": 3590,
      "නරොධායන": 3591,
      "07": 3592,
      "03": 3593,
      "00": 3594,
      "4ක": 3595,
      "as": 3596,
      "htt": 3597,
      "it": 3598,
      "janu": 3599,
      "min": 3600,
      "or": 3601,
      "sel": 3602,
      "අබ": 3603,
      "අකාර": 3604,
      "ආසන": 3605,
      "ආපන": 3606,
      "ආගමක": 3607,
      "ඉක": 3608,
      "උල": 3609,
      "උනනද": 3610,
      "එව": 3611,
      "ඔසටරෙලය": 3612,
      "ඔසසෙ": 3613,
      "කලක": 3614,
      "කාසයෙ": 3615,
      "ඛන": 3616,
      "චනය": 3617,
      "ඩය": 3618,
      "ඩජ": 3619,
      "තයා": 3620,
      "තාවක": 3621,
      "තවක": 3622,
      "තනද": 3623,
      "දනන": 3624,
      "දවස": 3625,
      "දෂණ": 3626,
      "නවා": 3627,
      "නවෙදනය": 3628,
      "නාටය": 3629,
      "පයන": 3630,
      "පපර": 3631,
      "පෘත": 3632,
      "බජ": 3633,
      "බැක": 3634,
      "යර": 3635,
      "යාප": 3636,
      "යාපනය": 3637,
      "යකඩ": 3638,
      "රව": 3639,
      "රවන": 3640,
      "රටට": 3641,
      "රහණ": 3642,
      "ලන": 3643,
      "ලො": 3644,
      "ලයා": 3645,
      "ලොර": 3646,
      "වජ": 3647,
      "වවා": 3648,
      "ශකර": 3649,
      "ශාස": 3650,
      "සරම": 3651,
      "සසවෙක": 3652,
      "හෘද": 3653,
      "ළමන": 3654,
      "ෆය": 3655,
      "ෆන": 3656,
      "##ාණ": 3657,
      "##ටෙ": 3658,
      "##වංශ": 3659,
      "##ගා": 3660,
      "##ඳර": 3661,
      "##දහන": 3662,
      "##දමෙ": 3663,
      "##ඩම": 3664,
      "##ඩල": 3665,
      "##ඩලයෙ": 3666,
      "##රයෙ": 3667,
      "##mian": 3668,
      "##si": 3669,
      "##ැෆ": 3670,
      "##ැලක": 3671,
      "##ෘපත": 3672,
      "##rat": 3673,
      "##ray": 3674,
      "##ow": 3675,
      "##lor": 3676,
      "##ඥානක": 3677,
      "##82": 3678,
      "##ොමට": 3679,
      "##ොබර": 3680,
      "##ෙනන": 3681,
      "##ාවල": 3682,
      "##තරා": 3683,
      "##තරණ": 3684,
      "සමහ": 3685,
      "සමතව": 3686,
      "පරබල": 3687,
      "පරදරශනය": 3688,
      "##ාතක": 3689,
      "##ානමක": 3690,
      "වසතවෙ": 3691,
      "කරමයෙන": 3692,
      "කරමවෙද": 3693,
      "##යනත": 3694,
      "##යනගෙන": 3695,
      "##වාසන": 3696,
      "##වාහනය": 3697,
      "වෙලක": 3698,
      "වෙලා": 3699,
      "##වතන": 3700,
      "##වතත": 3701,
      "වනශච": 3702,
      "##ෙකා": 3703,
      "සංග": 3704,
      "සංවෙදනය": 3705,
      "අතරදහන": 3706,
      "##කෂයට": 3707,
      "කළෙම": 3708,
      "##රමෙ": 3709,
      "##රමණය": 3710,
      "##තාගාර": 3711,
      "පැරණ": 3712,
      "එකකට": 3713,
      "##දරශන": 3714,
      "සටමෙ": 3715,
      "තබම": 3716,
      "තරංග": 3717,
      "පොළ": 3718,
      "වරගය": 3719,
      "නොකර": 3720,
      "නොවම": 3721,
      "ගැනමෙන": 3722,
      "##පරස": 3723,
      "සදධය": 3724,
      "වැඩම": 3725,
      "වැඩදරටත": 3726,
      "##සකල": 3727,
      "##සයාවෙ": 3728,
      "##ලයය": 3729,
      "##ලයම": 3730,
      "අවශ": 3731,
      "අවධාන": 3732,
      "ජනයා": 3733,
      "උපටා": 3734,
      "දකවමන": 3735,
      "අතන": 3736,
      "අතපත": 3737,
      "පරතද": 3738,
      "ලැව": 3739,
      "##ාසටක": 3740,
      "##වටම": 3741,
      "හැවරද": 3742,
      "ඉනම": 3743,
      "ඉනද": 3744,
      "දරවල": 3745,
      "මනොව": 3746,
      "දනක": 3747,
      "දනයක": 3748,
      "අවසානය": 3749,
      "##ගනමන": 3750,
      "පෙළඹ": 3751,
      "##තවරෂ": 3752,
      "හමවමට": 3753,
      "නමල": 3754,
      "අඩවය": 3755,
      "ගෙනහැර": 3756,
      "මතදරවය": 3757,
      "හරතාගාර": 3758,
      "ගණාතමක": 3759,
      "##arb": 3760,
      "බලපා": 3761,
      "පෙරළ": 3762,
      "පෙරෙරා": 3763,
      "ලොකය": 3764,
      "වාරතාවක": 3765,
      "සභාප": 3766,
      "##ලපෙ": 3767,
      "තෙවන": 3768,
      "අභයනතර": 3769,
      "ගරහ": 3770,
      "ගරතව": 3771,
      "සනහ": 3772,
      "කෙළ": 3773,
      "අරගල": 3774,
      "10ක": 3775,
      "මෙනඩලයෙ": 3776,
      "ආණඩකාර": 3777,
      "ආණඩවක": 3778,
      "දැකව": 3779,
      "වගකව": 3780,
      "ජවතකෂයට": 3781,
      "මාතර": 3782,
      "මහාධ": 3783,
      "සංවධානයෙ": 3784,
      "පැමණයෙ": 3785,
      "පාංශ": 3786,
      "සැලකලලට": 3787,
      "මනතරවරන": 3788,
      "සැකසම": 3789,
      "යෙදමක": 3790,
      "මැතවරණයෙහ": 3791,
      "කරඩක": 3792,
      "භාෂාවක": 3793,
      "ලංගකව": 3794,
      "කොමසමෙ": 3795,
      "මණඩල": 3796,
      "වචනය": 3797,
      "මහනවර": 3798,
      "##ets": 3799,
      "බරතානයයෙ": 3800,
      "පලාසටක": 3801,
      "ලාභ": 3802,
      "පරසදධ": 3803,
      "නැවතත": 3804,
      "සැපයමට": 3805,
      "කයනන": 3806,
      "යමෙක": 3807,
      "කරයාවලන": 3808,
      "කසළ": 3809,
      "තාකෂණක": 3810,
      "පවතවන": 3811,
      "වයාපාරක": 3812,
      "අසතය": 3813,
      "සවාභාවක": 3814,
      "##amic": 3815,
      "ආයතනයක": 3816,
      "වාකයයක": 3817,
      "රපවාහනය": 3818,
      "පැතරම": 3819,
      "තබණෙ": 3820,
      "දසතරකක": 3821,
      "මතරන": 3822,
      "ඇමෙර": 3823,
      "ලෙඛ": 3824,
      "ලෙඛන": 3825,
      "සළං": 3826,
      "අමාතයාංශ": 3827,
      "වයාපාරය": 3828,
      "ගමම": 3829,
      "රොහලෙ": 3830,
      "තතතවයෙ": 3831,
      "ජෛන": 3832,
      "වෙදකා": 3833,
      "හැඳනවෙ": 3834,
      "බැංකව": 3835,
      "කානතාව": 3836,
      "වධමත": 3837,
      "රැසවම": 3838,
      "පනරාවර": 3839,
      "සමපරෙෂණ": 3840,
      "ඇඟල": 3841,
      "අවබොධයක": 3842,
      "වටනාකම": 3843,
      "##සාරස": 3844,
      "ආදරය": 3845,
      "දෘශය": 3846,
      "සංකෙත": 3847,
      "එකනෙකා": 3848,
      "කැඳවම": 3849,
      "අභයාච": 3850,
      "මෙවලමක": 3851,
      "ඉනදනසයාන": 3852,
      "පාරලමෙනතවට": 3853,
      "array": 3854,
      "චරයා": 3855,
      "චාරකාවක": 3856,
      "##තවාදන": 3857,
      "ගොඩනැගමෙ": 3858,
      "සදධයක": 3859,
      "අවදානම": 3860,
      "බලපෑමක": 3861,
      "රාතරයෙ": 3862,
      "බළලා": 3863,
      "permian": 3864,
      "ගයෙය": 3865,
      "ගවෙෂණය": 3866,
      "පරයෙෂණ": 3867,
      "කපපාදවක": 3868,
      "##ැසසට": 3869,
      "නතපතා": 3870,
      "උතසහ": 3871,
      "ගබඩා": 3872,
      "තොගයක": 3873,
      "දරකථන": 3874,
      "කෞත": 3875,
      "මනාප": 3876,
      "වමකත": 3877,
      "සමාරට": 3878,
      "පරෙමදාස": 3879,
      "පකෂපාතතවය": 3880,
      "කෙටමපත": 3881,
      "islamic": 3882,
      "වයටනාමය": 3883,
      "world": 3884,
      "ඔකතොබර": 3885,
      "බලධාරන": 3886,
      "වවනයාව": 3887,
      "ඉංජනෙර": 3888,
      "එදනෙදා": 3889,
      "ඩොමන": 3890,
      "http": 3891,
      "january": 3892,
      "ඩජටල": 3893,
      "මෙනඩලයෙව": 3894,
      "35": 3895,
      "55": 3896,
      "500": 3897,
      "65": 3898,
      "90": 3899,
      "91": 3900,
      "be": 3901,
      "ben": 3902,
      "con": 3903,
      "cov": 3904,
      "em": 3905,
      "fer": 3906,
      "gr": 3907,
      "gre": 3908,
      "mo": 3909,
      "my": 3910,
      "net": 3911,
      "re": 3912,
      "web": 3913,
      "අට": 3914,
      "අළ": 3915,
      "අසන": 3916,
      "අහස": 3917,
      "අසම": 3918,
      "ආගම": 3919,
      "ආනයන": 3920,
      "ආවරණය": 3921,
      "ඇද": 3922,
      "ඇඳම": 3923,
      "ඉනන": 3924,
      "ඉහල": 3925,
      "උෂණ": 3926,
      "එස": 3927,
      "එළඹ": 3928,
      "ඔකස": 3929,
      "කසම": 3930,
      "කායක": 3931,
      "කෘත": 3932,
      "කනද": 3933,
      "ගජ": 3934,
      "ගාන": 3935,
      "ගාස": 3936,
      "ගතතෙ": 3937,
      "චකත": 3938,
      "ඡන": 3939,
      "ජා": 3940,
      "ටක": 3941,
      "තවර": 3942,
      "තමය": 3943,
      "තදෙනා": 3944,
      "තසසෙ": 3945,
      "දමෙන": 3946,
      "දහස": 3947,
      "දනනා": 3948,
      "ධාවන": 3949,
      "නට": 3950,
      "නෛ": 3951,
      "නමක": 3952,
      "නතවර": 3953,
      "නතමය": 3954,
      "පෑ": 3955,
      "පම": 3956,
      "පහන": 3957,
      "පානය": 3958,
      "බමත": 3959,
      "බෙහෙ": 3960,
      "භරමණය": 3961,
      "මං": 3962,
      "මධ": 3963,
      "මයක": 3964,
      "මහර": 3965,
      "මශර": 3966,
      "යමක": 3967,
      "යෑමට": 3968,
      "රද": 3969,
      "රොම": 3970,
      "රමාන": 3971,
      "වතර": 3972,
      "වයන": 3973,
      "වලක": 3974,
      "වගන": 3975,
      "වහළ": 3976,
      "වාහ": 3977,
      "වනනට": 3978,
      "ශවෙන": 3979,
      "සොන": 3980,
      "හෂ": 3981,
      "හසම": 3982,
      "ළමා": 3983,
      "ෆො": 3984,
      "ෆොන": 3985,
      "ෆැසසට": 3986,
      "##කෙර": 3987,
      "##ාංක": 3988,
      "##ටව": 3989,
      "##ටොර": 3990,
      "##මම": 3991,
      "##හෙ": 3992,
      "##හෙන": 3993,
      "##වනනෙ": 3994,
      "##වහනසෙ": 3995,
      "##ගාරය": 3996,
      "##ies": 3997,
      "##ee": 3998,
      "##ණම": 3999,
      "##දාද": 4000,
      "##තයෙ": 4001,
      "##තයට": 4002,
      "##තගමව": 4003,
      "##ංහ": 4004,
      "##රාම": 4005,
      "##ථකය": 4006,
      "##ain": 4007,
      "##පතව": 4008,
      "##පරම": 4009,
      "##පදය": 4010,
      "##පාක": 4011,
      "##ජම": 4012,
      "##ෘදධ": 4013,
      "##65": 4014,
      "##ශරය": 4015,
      "##ශාලා": 4016,
      "##ox": 4017,
      "##ke": 4018,
      "##ll": 4019,
      "##lish": 4020,
      "##බළ": 4021,
      "##චයෙ": 4022,
      "##be": 4023,
      "##ba": 4024,
      "##10": 4025,
      "##fer": 4026,
      "##ෛරය": 4027,
      "##එස": 4028,
      "##ොපත": 4029,
      "කරෙ": 4030,
      "කරා": 4031,
      "කරවන": 4032,
      "සමළ": 4033,
      "සමපාදන": 4034,
      "සමභවය": 4035,
      "පරකට": 4036,
      "පරංශ": 4037,
      "පරචාර": 4038,
      "##ාතන": 4039,
      "සහකර": 4040,
      "##තවන": 4041,
      "##තවයන": 4042,
      "##කාවන": 4043,
      "##කරමය": 4044,
      "මෙක": 4045,
      "මෙසෙ": 4046,
      "වෙහ": 4047,
      "වෙතන": 4048,
      "වැව": 4049,
      "##වරය": 4050,
      "සංගරාම": 4051,
      "##කෂක": 4052,
      "කළහ": 4053,
      "කළාය": 4054,
      "##වලල": 4055,
      "එකල": 4056,
      "##කාශ": 4057,
      "කොනද": 4058,
      "##ාදන": 4059,
      "වශවාසය": 4060,
      "##දායතාව": 4061,
      "වරජන": 4062,
      "##ලලය": 4063,
      "##තතක": 4064,
      "##තතම": 4065,
      "පදාරථ": 4066,
      "##හනතාව": 4067,
      "වැඩපර": 4068,
      "පසවන": 4069,
      "පසවරවෙ": 4070,
      "වෙනන": 4071,
      "##සකට": 4072,
      "සැමර": 4073,
      "අවධ": 4074,
      "අවඥානක": 4075,
      "ජනපදය": 4076,
      "අමරවර": 4077,
      "ලබාගත": 4078,
      "පවසා": 4079,
      "අතසන": 4080,
      "පරතචාරය": 4081,
      "වටටොර": 4082,
      "##වකහ": 4083,
      "පදගලාර": 4084,
      "##රයාවෙ": 4085,
      "##වැතව": 4086,
      "පාරසර": 4087,
      "හැද": 4088,
      "ඉනවෙන": 4089,
      "නැහැ": 4090,
      "දරට": 4091,
      "දරවෙක": 4092,
      "ගොව": 4093,
      "නමතතෙන": 4094,
      "##ටටවක": 4095,
      "සමඟන": 4096,
      "කාලසටහන": 4097,
      "රාජත": 4098,
      "නරපන": 4099,
      "නරනතර": 4100,
      "##int": 4101,
      "##කයනගෙ": 4102,
      "##ජනක": 4103,
      "වලතගමව": 4104,
      "සරස": 4105,
      "සරව": 4106,
      "සරද": 4107,
      "වදයට": 4108,
      "කොටා": 4109,
      "ගැසට": 4110,
      "බැහැර": 4111,
      "සවං": 4112,
      "සවදෙශ": 4113,
      "සවදෙනෙක": 4114,
      "තළට": 4115,
      "##ාපො": 4116,
      "##ාගැන": 4117,
      "පවතපත": 4118,
      "දැරය": 4119,
      "##ari": 4120,
      "##arl": 4121,
      "රැගත": 4122,
      "ගනනක": 4123,
      "නරමාංශ": 4124,
      "වැදගතය": 4125,
      "පරකාශනය": 4126,
      "කහප": 4127,
      "දෙකකට": 4128,
      "ඉලලය": 4129,
      "බොහොම": 4130,
      "##ens": 4131,
      "පොහො": 4132,
      "අභරච": 4133,
      "අපරකාව": 4134,
      "අපරකා": 4135,
      "සනධානය": 4136,
      "සොයාගැනම": 4137,
      "කෙත": 4138,
      "##ගැනමෙ": 4139,
      "රොගන": 4140,
      "රොගයා": 4141,
      "අරථ": 4142,
      "අරධ": 4143,
      "කහපයකට": 4144,
      "කහපයකන": 4145,
      "ආණඩවෙ": 4146,
      "ආකාරයකන": 4147,
      "##ොජනා": 4148,
      "සෞඛයය": 4149,
      "තරඟය": 4150,
      "තරඟකාර": 4151,
      "භාවතයට": 4152,
      "චනයෙ": 4153,
      "වරොධතා": 4154,
      "තවද": 4155,
      "පහටවන": 4156,
      "ආරකෂත": 4157,
      "එරට": 4158,
      "සෙවයට": 4159,
      "වෙළඳපො": 4160,
      "##ill": 4161,
      "කොමසාරස": 4162,
      "ඉතාම": 4163,
      "නෂපාදනයෙ": 4164,
      "පොදජන": 4165,
      "##යෙහද": 4166,
      "පරසරයක": 4167,
      "පරහාරයට": 4168,
      "##පාලනය": 4169,
      "ඝාතන": 4170,
      "මාසයෙ": 4171,
      "##රාගල": 4172,
      "මධයසථානය": 4173,
      "##පොසට": 4174,
      "නොමැතව": 4175,
      "කරයාවලයක": 4176,
      "රාහල": 4177,
      "ලබාදෙන": 4178,
      "ලබාදමට": 4179,
      "සමපරණයෙනම": 4180,
      "##ජාණන": 4181,
      "මෙරටට": 4182,
      "වැටප": 4183,
      "තරණාතමක": 4184,
      "යොදාගනනා": 4185,
      "සාදන": 4186,
      "ආකෘතය": 4187,
      "පසගයදා": 4188,
      "පරමාණවක": 4189,
      "අපෙකෂා": 4190,
      "පහණව": 4191,
      "නෙළම": 4192,
      "පරශනයක": 4193,
      "සකසනන": 4194,
      "කලාපය": 4195,
      "සංඛයාවක": 4196,
      "හොඳය": 4197,
      "සටහනක": 4198,
      "##සථානයක": 4199,
      "තැප": 4200,
      "ඵලදායතාව": 4201,
      "අනතරජාතක": 4202,
      "වකණන": 4203,
      "දොං": 4204,
      "ආකෘතයක": 4205,
      "##ign": 4206,
      "මහජනතාව": 4207,
      "තතතවයට": 4208,
      "අගමැ": 4209,
      "කමටවෙ": 4210,
      "සසනට": 4211,
      "වශෙෂයෙනම": 4212,
      "සංසකෘතය": 4213,
      "සපයා": 4214,
      "මැදහත": 4215,
      "කාරයාලය": 4216,
      "ඉරදන": 4217,
      "බොවන": 4218,
      "##und": 4219,
      "කථා": 4220,
      "දශක": 4221,
      "යටතව": 4222,
      "සංශොධන": 4223,
      "නයාමනය": 4224,
      "හානයක": 4225,
      "පෙතසමක": 4226,
      "අපරාධයක": 4227,
      "භමයක": 4228,
      "වෙගවත": 4229,
      "නයොගයක": 4230,
      "ධවරයන": 4231,
      "පනදවට": 4232,
      "වසඳමට": 4233,
      "ඉසලාමය": 4234,
      "කණග": 4235,
      "පෘෂඨ": 4236,
      "සංකලප": 4237,
      "සලකණ": 4238,
      "##lob": 4239,
      "කොපමණ": 4240,
      "අනාගතය": 4241,
      "පණස": 4242,
      "##ive": 4243,
      "##ivers": 4244,
      "සැසඳ": 4245,
      "බැලමට": 4246,
      "තතවයන": 4247,
      "තතවයකට": 4248,
      "කෘෂකරම": 4249,
      "ජනමාධයවෙදන": 4250,
      "වෙළෙඳපල": 4251,
      "ඇගයම": 4252,
      "යතරපැ": 4253,
      "පරගතයක": 4254,
      "ජනගහනය": 4255,
      "අමෙරකාන": 4256,
      "univers": 4257,
      "රචනා": 4258,
      "වගෙම": 4259,
      "හංගෙ": 4260,
      "වායගොලය": 4261,
      "අහොස": 4262,
      "කැනඩ": 4263,
      "සමාලොචනය": 4264,
      "පරොටොක": 4265,
      "පරයොජනවත": 4266,
      "උතසවයක": 4267,
      "ජයකොඩ": 4268,
      "බෙලහනතාව": 4269,
      "නොලැබ": 4270,
      "නැරඹමට": 4271,
      "යොජනාව": 4272,
      "රෙඛා": 4273,
      "බදරජාණන": 4274,
      "රාජධානයෙ": 4275,
      "උළෙල": 4276,
      "පතතලම": 4277,
      "කරසටල": 4278,
      "සමමෙලනය": 4279,
      "අනසමරණය": 4280,
      "නොමලෙ": 4281,
      "සොලදාද": 4282,
      "චොදන": 4283,
      "දෛනක": 4284,
      "ශාඛ": 4285,
      "org": 4286,
      "නවාඩ": 4287,
      "පරතදානය": 4288,
      "කැඳවමකර": 4289,
      "කෞතකා": 4290,
      "covid": 4291,
      "ගානධ": 4292,
      "ඡනදය": 4293,
      "නෛතක": 4294,
      "නතවරොධ": 4295,
      "බෙහෙවන": 4296,
      "රමානඩ": 4297,
      "ශවෙනදර": 4298,
      "පාරසරක": 4299,
      "ඉනවෙනටර": 4300,
      "09": 4301,
      "3ක": 4302,
      "49": 4303,
      "40": 4304,
      "5ක": 4305,
      "8ක": 4306,
      "at": 4307,
      "ad": 4308,
      "bl": 4309,
      "dd": 4310,
      "fin": 4311,
      "go": 4312,
      "he": 4313,
      "ip": 4314,
      "mm": 4315,
      "mat": 4316,
      "mac": 4317,
      "nba": 4318,
      "pub": 4319,
      "ret": 4320,
      "sp": 4321,
      "ser": 4322,
      "vett": 4323,
      "yyy": 4324,
      "අඬ": 4325,
      "අවන": 4326,
      "ආදය": 4327,
      "ආදෙශ": 4328,
      "ඇඹ": 4329,
      "ඇලෙක": 4330,
      "ඇපල": 4331,
      "ඇවද": 4332,
      "ඊළ": 4333,
      "උලල": 4334,
      "එජ": 4335,
      "එවට": 4336,
      "එතරම": 4337,
      "කෑම": 4338,
      "කපයක": 4339,
      "කථක": 4340,
      "කතාවක": 4341,
      "කසවෙක": 4342,
      "ගලක": 4343,
      "ගතක": 4344,
      "චස": 4345,
      "චම": 4346,
      "ජෙ": 4347,
      "ජොස": 4348,
      "ජවාල": 4349,
      "ටය": 4350,
      "ටන": 4351,
      "ටර": 4352,
      "තඩ": 4353,
      "තදන": 4354,
      "තෘපත": 4355,
      "දහම": 4356,
      "ධෛරය": 4357,
      "නාස": 4358,
      "නවාස": 4359,
      "පදර": 4360,
      "පයාසර": 4361,
      "බෑ": 4362,
      "බෙන": 4363,
      "බොක": 4364,
      "භගම": 4365,
      "මණ": 4366,
      "මකර": 4367,
      "මදන": 4368,
      "මොහ": 4369,
      "මගමව": 4370,
      "යධ": 4371,
      "යතව": 4372,
      "යවන": 4373,
      "යගල": 4374,
      "යොග": 4375,
      "රඟ": 4376,
      "රෙද": 4377,
      "ලණ": 4378,
      "ලත": 4379,
      "ලොහ": 4380,
      "වකර": 4381,
      "වහා": 4382,
      "වපත": 4383,
      "වභව": 4384,
      "ශතක": 4385,
      "ශතවරෂ": 4386,
      "සදර": 4387,
      "සදා": 4388,
      "සනායක": 4389,
      "සජව": 4390,
      "හවල": 4391,
      "හනද": 4392,
      "හතරක": 4393,
      "හතවත": 4394,
      "හලපෙ": 4395,
      "##කෙ": 4396,
      "##කලා": 4397,
      "##ෙණය": 4398,
      "##ාබ": 4399,
      "##ාකාර": 4400,
      "##ටයෙ": 4401,
      "##සො": 4402,
      "##සමට": 4403,
      "##සලය": 4404,
      "##සරය": 4405,
      "##සෙකා": 4406,
      "##හසය": 4407,
      "##වළ": 4408,
      "##වයන": 4409,
      "##ගසන": 4410,
      "##ගණයක": 4411,
      "##national": 4412,
      "##ලමත": 4413,
      "##ණජ": 4414,
      "##ණයෙද": 4415,
      "##දයා": 4416,
      "##තංග": 4417,
      "##තසස": 4418,
      "##ඩව": 4419,
      "##ංඝ": 4420,
      "##රට": 4421,
      "##රයෙන": 4422,
      "##ml": 4423,
      "##පම": 4424,
      "##ෘතව": 4425,
      "##hy": 4426,
      "##ron": 4427,
      "##rap": 4428,
      "##29": 4429,
      "##ket": 4430,
      "##ped": 4431,
      "##ළණ": 4432,
      "##ළොස": 4433,
      "##බවෙ": 4434,
      "##ෆලඩ": 4435,
      "##ඝරා": 4436,
      "##ොං": 4437,
      "##ොදර": 4438,
      "කරගෙන": 4439,
      "කරලා": 4440,
      "සමයෙ": 4441,
      "සමමන": 4442,
      "සමගම": 4443,
      "සමබා": 4444,
      "පරතව": 4445,
      "පරපර": 4446,
      "පරෙකෂ": 4447,
      "##යකෂණය": 4448,
      "##ානෙ": 4449,
      "##ානකල": 4450,
      "සහල": 4451,
      "සහනාධ": 4452,
      "සහොදර": 4453,
      "##තවයට": 4454,
      "##වාලය": 4455,
      "##කරමෙ": 4456,
      "##ාලම": 4457,
      "මෙයන": 4458,
      "මෙවර": 4459,
      "මාතෘකාවක": 4460,
      "වැර": 4461,
      "වැලක": 4462,
      "සඳදා": 4463,
      "##වරම": 4464,
      "සංර": 4465,
      "සංසන": 4466,
      "සංවෙද": 4467,
      "සංරච": 4468,
      "සංවාදයක": 4469,
      "අනප": 4470,
      "අනපාත": 4471,
      "අනවරතනය": 4472,
      "##තාප": 4473,
      "පළගන": 4474,
      "පැතල": 4475,
      "එකවන": 4476,
      "##දරව": 4477,
      "##දරාජය": 4478,
      "කොන": 4479,
      "##ාදනය": 4480,
      "##ාදෙණය": 4481,
      "තරක": 4482,
      "තරයෙ": 4483,
      "තරමක": 4484,
      "තරකණ": 4485,
      "වශරා": 4486,
      "වශරාම": 4487,
      "##ණඩය": 4488,
      "පොරොන": 4489,
      "පොදරාජය": 4490,
      "##දාම": 4491,
      "වරට": 4492,
      "වරාය": 4493,
      "වරදධ": 4494,
      "වරධන": 4495,
      "නොවය": 4496,
      "ශරතාව": 4497,
      "##ලලා": 4498,
      "##ලලම": 4499,
      "ගැනමත": 4500,
      "##තතන": 4501,
      "පදම": 4502,
      "පදංච": 4503,
      "බලයක": 4504,
      "බලවෙග": 4505,
      "##පරාපත": 4506,
      "##ාමාලන": 4507,
      "වයඝරා": 4508,
      "සදසකම": 4509,
      "සදකරමට": 4510,
      "##මතාව": 4511,
      "මලට": 4512,
      "දෙමා": 4513,
      "දෙදෙනා": 4514,
      "##ගලාස": 4515,
      "සෙවන": 4516,
      "සෙදම": 4517,
      "වෙනවා": 4518,
      "වෙනසක": 4519,
      "සැඟ": 4520,
      "සැසය": 4521,
      "ජනයාගෙ": 4522,
      "උපාධ": 4523,
      "අදහසක": 4524,
      "අධයකෂණය": 4525,
      "මහතමය": 4526,
      "අතහට": 4527,
      "පරතසථ": 4528,
      "වටම": 4529,
      "වසනධ": 4530,
      "##වැනන": 4531,
      "පාරජම": 4532,
      "191": 4533,
      "මැඩ": 4534,
      "##ලනයෙ": 4535,
      "නැටම": 4536,
      "දරවා": 4537,
      "##anc": 4538,
      "සමඟම": 4539,
      "කාලගණය": 4540,
      "නයැ": 4541,
      "නයමය": 4542,
      "##ොනයා": 4543,
      "##ink": 4544,
      "යොද": 4545,
      "යොධ": 4546,
      "එමගන": 4547,
      "සරල": 4548,
      "සරපාල": 4549,
      "ලැබමට": 4550,
      "මතපට": 4551,
      "කොටඨ": 4552,
      "ගැහැ": 4553,
      "බැස": 4554,
      "බැලම": 4555,
      "සවවන": 4556,
      "සවඩන": 4557,
      "පතන": 4558,
      "අනතරවලන": 4559,
      "ආරාධ": 4560,
      "ආරථකය": 4561,
      "පටෙල": 4562,
      "අයසස": 4563,
      "කරයාශල": 4564,
      "හරස": 4565,
      "##සථානයෙ": 4566,
      "වමල": 4567,
      "වමොචනය": 4568,
      "##art": 4569,
      "පෙරාදෙණය": 4570,
      "රජගෙ": 4571,
      "ඉනදයාවට": 4572,
      "තොරනන": 4573,
      "දැනගත": 4574,
      "##ork": 4575,
      "##ord": 4576,
      "වසරෙද": 4577,
      "##සෙල": 4578,
      "##all": 4579,
      "තනතව": 4580,
      "තරගයක": 4581,
      "පෙනවමට": 4582,
      "ආරමභය": 4583,
      "තෙම": 4584,
      "තෙඳන": 4585,
      "2010": 4586,
      "2011": 4587,
      "බොහොවට": 4588,
      "##ice": 4589,
      "##ich": 4590,
      "සතතය": 4591,
      "පොහොය": 4592,
      "මැතවරණයට": 4593,
      "##හලොක": 4594,
      "ගරෙ": 4595,
      "ගරන": 4596,
      "ගරහලොක": 4597,
      "සොයාගත": 4598,
      "සොයාගෙන": 4599,
      "රොගය": 4600,
      "අරබද": 4601,
      "අරථය": 4602,
      "ඇයව": 4603,
      "ඇයගෙ": 4604,
      "##ack": 4605,
      "සලසන": 4606,
      "වගකම": 4607,
      "##නටෙන": 4608,
      "මාටන": 4609,
      "ගෙදර": 4610,
      "හටගෙන": 4611,
      "පැමණෙන": 4612,
      "වෙනසවම": 4613,
      "සාගර": 4614,
      "දමප": 4615,
      "වරොධතාව": 4616,
      "නායකයා": 4617,
      "සැලකලල": 4618,
      "පොලසපත": 4619,
      "පොලසයට": 4620,
      "සැකකරවන": 4621,
      "##වරයාගෙ": 4622,
      "යෙදමට": 4623,
      "රාජයයක": 4624,
      "රාජයයෙ": 4625,
      "මලදරවයවල": 4626,
      "සෙවාව": 4627,
      "වෙළඳපල": 4628,
      "වදෙශය": 4629,
      "කොමපොසට": 4630,
      "යටතට": 4631,
      "කවචයෙ": 4632,
      "දපතමත": 4633,
      "##riev": 4634,
      "සාරවත": 4635,
      "මාසයෙද": 4636,
      "හැරණ": 4637,
      "අදාළව": 4638,
      "##පොෂණ": 4639,
      "කයලා": 4640,
      "පරතකාරය": 4641,
      "සමපරණයෙන": 4642,
      "තබාගෙන": 4643,
      "යොදාගන": 4644,
      "මොසතර": 4645,
      "රෙඛය": 4646,
      "රෙගලාස": 4647,
      "##ite": 4648,
      "සථරයට": 4649,
      "##ure": 4650,
      "ජනතාවගෙ": 4651,
      "ඒකාධ": 4652,
      "රථයක": 4653,
      "##ames": 4654,
      "අපෙකෂකයා": 4655,
      "යදද": 4656,
      "යදධයට": 4657,
      "ඇතතනනෙ": 4658,
      "ගොඩනගා": 4659,
      "ආයතනයෙ": 4660,
      "වාකයයෙ": 4661,
      "දසතරකකය": 4662,
      "කෙනදර": 4663,
      "කලාප": 4664,
      "සංචාරයක": 4665,
      "වශවාසයන": 4666,
      "සාකචඡාවක": 4667,
      "සෙනාරතන": 4668,
      "ඇතැමවට": 4669,
      "ජයගරහණ": 4670,
      "උතරෙ": 4671,
      "යළත": 4672,
      "##ොචන": 4673,
      "තතතවයන": 4674,
      "තතතවයකට": 4675,
      "නවැරදව": 4676,
      "ආදාන": 4677,
      "ආදානය": 4678,
      "කමටව": 4679,
      "සමාගමට": 4680,
      "පරවැය": 4681,
      "දැමම": 4682,
      "එලවා": 4683,
      "නඩතත": 4684,
      "වාරතාවෙ": 4685,
      "පොජජෙ": 4686,
      "වාසසථාන": 4687,
      "වපකෂයෙ": 4688,
      "වභාගයට": 4689,
      "ගැටලව": 4690,
      "comm": 4691,
      "phot": 4692,
      "කථානායක": 4693,
      "දශම": 4694,
      "සෘණාතමක": 4695,
      "##ull": 4696,
      "නයාය": 4697,
      "අවබොධය": 4698,
      "ගොනකර": 4699,
      "අයවැයක": 4700,
      "ඇනඩ": 4701,
      "වෙගයෙන": 4702,
      "1977": 4703,
      "කාලනව": 4704,
      "අංගයක": 4705,
      "නාමයොජනා": 4706,
      "බලපරදෙශ": 4707,
      "1960": 4708,
      "සැකකරවෙක": 4709,
      "කෙනෙකට": 4710,
      "අඛණඩව": 4711,
      "ඩෙවඩ": 4712,
      "තමාට": 4713,
      "වාතත": 4714,
      "පරාවදයා": 4715,
      "අධයකෂක": 4716,
      "with": 4717,
      "කටටල": 4718,
      "කටටලයක": 4719,
      "පාපවහනසෙ": 4720,
      "රඳා": 4721,
      "##low": 4722,
      "නොතබ": 4723,
      "පරතපතතයක": 4724,
      "අනාගත": 4725,
      "සංයතය": 4726,
      "චනදරකා": 4727,
      "පරවැසභාවය": 4728,
      "ආකරෂණය": 4729,
      "ඛණඩය": 4730,
      "බොරැලල": 4731,
      "උපදෙශන": 4732,
      "මනදැය": 4733,
      "පතකරවා": 4734,
      "ගනදෙනකරවන": 4735,
      "අඟහර": 4736,
      "ඇගයමට": 4737,
      "ජලාප": 4738,
      "ජොනසන": 4739,
      "දමනද": 4740,
      "##able": 4741,
      "පරජාත": 4742,
      "සංසථාව": 4743,
      "සංසථාවෙ": 4744,
      "වචලයයක": 4745,
      "සාපෙකෂව": 4746,
      "අගරාමාතයවරයා": 4747,
      "පවරා": 4748,
      "වසතවක": 4749,
      "සංකලපය": 4750,
      "සැමවටම": 4751,
      "කැලෆ": 4752,
      "ඉකමනන": 4753,
      "ජපානය": 4754,
      "යහපත": 4755,
      "සඟරා": 4756,
      "පරචලත": 4757,
      "පරොටන": 4758,
      "ඕසටරෙලයාව": 4759,
      "දඹලල": 4760,
      "පැකට": 4761,
      "යථාරථ": 4762,
      "සොරකම": 4763,
      "පටපතක": 4764,
      "රයදරන": 4765,
      "නවතම": 4766,
      "මඩකලප": 4767,
      "index": 4768,
      "වරායෙ": 4769,
      "වැඩපළවෙලක": 4770,
      "මහාවංශය": 4771,
      "වෙළඳසැලක": 4772,
      "scor": 4773,
      "ඔවහ": 4774,
      "බතතර": 4775,
      "බලලන": 4776,
      "රතනපර": 4777,
      "වපලව": 4778,
      "කොංගරසයෙ": 4779,
      "දෙදෙනක": 4780,
      "සතකාරක": 4781,
      "අලංකාර": 4782,
      "මායම": 4783,
      "මොහොතක": 4784,
      "ශලපය": 4785,
      "සකරාදා": 4786,
      "සපතත": 4787,
      "##ලෙසයාව": 4788,
      "international": 4789,
      "තරගමාල": 4790,
      "මැසසන": 4791,
      "වමරශනය": 4792,
      "නදසනක": 4793,
      "ශරෙෂඨාධකරණය": 4794,
      "අකාරයකෂ": 4795,
      "ආපනශාලා": 4796,
      "ඛනජ": 4797,
      "තයාග": 4798,
      "පෘතගස": 4799,
      "ශාසතර": 4800,
      "වනශචය": 4801,
      "ගරතවාකර": 4802,
      "ගජරා": 4803,
      "ෆොනසෙකා": 4804,
      "##lished": 4805,
      "කොනදෙස": 4806,
      "පදගලාරොපත": 4807,
      "තැපැල": 4808,
      "යතරපැද": 4809,
      "published": 4810,
      "retriev": 4811,
      "vettel": 4812,
      "yyyy": 4813,
      "අඬනනෙ": 4814,
      "ඇලෙකස": 4815,
      "ඊළඟ": 4816,
      "උලලංඝ": 4817,
      "එජාප": 4818,
      "ජවාලාමාලන": 4819,
      "ටනබර": 4820,
      "භගමණය": 4821,
      "සමබාබවෙ": 4822,
      "පරතවපාක": 4823,
      "තරකණාම": 4824,
      "වශරාමක": 4825,
      "පොරොනද": 4826,
      "අතහටවන": 4827,
      "පාරජමබල": 4828,
      "මඩකලපව": 4829,
      "retrieved": 4830,
      "04": 4831,
      "01": 4832,
      "1ක": 4833,
      "3x": 4834,
      "47": 4835,
      "52": 4836,
      "50": 4837,
      "75": 4838,
      "87": 4839,
      "al": 4840,
      "bo": 4841,
      "dr": 4842,
      "darb": 4843,
      "es": 4844,
      "e0": 4845,
      "ge": 4846,
      "ic": 4847,
      "op": 4848,
      "osi": 4849,
      "pi": 4850,
      "rom": 4851,
      "sup": 4852,
      "vi": 4853,
      "yo": 4854,
      "අක": 4855,
      "අතව": 4856,
      "අගර": 4857,
      "අජත": 4858,
      "අමතක": 4859,
      "අඳර": 4860,
      "අලයම": 4861,
      "ආයොජන": 4862,
      "ඇබ": 4863,
      "ඈෂල": 4864,
      "ඉම": 4865,
      "ඉවස": 4866,
      "ඉවතව": 4867,
      "උන": 4868,
      "උපය": 4869,
      "උණඩ": 4870,
      "උරා": 4871,
      "එත": 4872,
      "ඒමට": 4873,
      "ඔසට": 4874,
      "කතර": 4875,
      "කයක": 4876,
      "කැක": 4877,
      "කඩන": 4878,
      "කමර": 4879,
      "කනටෙන": 4880,
      "ගඩ": 4881,
      "ගණය": 4882,
      "ගතය": 4883,
      "ගදය": 4884,
      "ගලය": 4885,
      "ගසා": 4886,
      "චත": 4887,
      "චාල": 4888,
      "චරය": 4889,
      "චලනය": 4890,
      "ඡෙද": 4891,
      "ජවන": 4892,
      "ජොර": 4893,
      "ජවතව": 4894,
      "ටෑ": 4895,
      "ටොප": 4896,
      "ටොමට": 4897,
      "ඩර": 4898,
      "තෙන": 4899,
      "තතය": 4900,
      "තලන": 4901,
      "තසර": 4902,
      "තසස": 4903,
      "තොට": 4904,
      "දයෙ": 4905,
      "දටර": 4906,
      "ධම": 4907,
      "නාය": 4908,
      "නතන": 4909,
      "පං": 4910,
      "පතා": 4911,
      "පලල": 4912,
      "පලා": 4913,
      "පලෙ": 4914,
      "පපෙන": 4915,
      "බෲ": 4916,
      "බෙස": 4917,
      "බටර": 4918,
      "බොමබ": 4919,
      "යාන": 4920,
      "යහළ": 4921,
      "යානතර": 4922,
      "රළ": 4923,
      "රතර": 4924,
      "රොද": 4925,
      "ලහ": 4926,
      "ලසන": 4927,
      "ලගයෙ": 4928,
      "වභ": 4929,
      "වනය": 4930,
      "වවන": 4931,
      "වලා": 4932,
      "වමය": 4933,
      "වොල": 4934,
      "වජත": 4935,
      "වභා": 4936,
      "ශාල": 4937,
      "ශරම": 4938,
      "ශබදය": 4939,
      "ශාලාව": 4940,
      "සොහ": 4941,
      "ෆෙ": 4942,
      "ෆෙස": 4943,
      "##යාවෙ": 4944,
      "##කද": 4945,
      "##ෙමය": 4946,
      "##ාකරණය": 4947,
      "##මබ": 4948,
      "##මණය": 4949,
      "##මතය": 4950,
      "##මහන": 4951,
      "##වණ": 4952,
      "##වහන": 4953,
      "##වමෙන": 4954,
      "##වංශය": 4955,
      "##ගයන": 4956,
      "##ගමෙ": 4957,
      "##ඳා": 4958,
      "##ඳනම": 4959,
      "##iz": 4960,
      "##ial": 4961,
      "##iod": 4962,
      "##na": 4963,
      "##ෂණයක": 4964,
      "##දස": 4965,
      "##දෙය": 4966,
      "##දැය": 4967,
      "##භරණ": 4968,
      "##තයන": 4969,
      "##ඩය": 4970,
      "##ංකර": 4971,
      "##රල": 4972,
      "##රප": 4973,
      "##ae": 4974,
      "##son": 4975,
      "##පණ": 4976,
      "##පඩ": 4977,
      "##පාස": 4978,
      "##පසව": 4979,
      "##ජයක": 4980,
      "##ශයන": 4981,
      "##ton": 4982,
      "##ok": 4983,
      "##ost": 4984,
      "##off": 4985,
      "##ound": 4986,
      "##por": 4987,
      "##les": 4988,
      "##ළැ": 4989,
      "##බාර": 4990,
      "##බොර": 4991,
      "##බලය": 4992,
      "##බලා": 4993,
      "##බොමබ": 4994,
      "##4ක": 4995,
      "##චය": 4996,
      "##චනයට": 4997,
      "##jri": 4998,
      "##ft": 4999,
      "##ward": 5000,
      "##86": 5001,
      "##එල": 5002,
      "##ොලන": 5003,
      "##ොජන": 5004,
      "##ෙනම": 5005,
      "##ෙනදර": 5006,
      "කරණය": 5007,
      "##තරයක": 5008,
      "##තරණය": 5009,
      "##ාරා": 5010,
      "ins": 5011,
      "සමය": 5012,
      "සමාවක": 5013,
      "සමතවය": 5014,
      "සමයෙද": 5015,
      "සමබර": 5016,
      "සමාවන": 5017,
      "සමරවර": 5018,
      "පරතය": 5019,
      "පරාස": 5020,
      "පරචාරය": 5021,
      "පරභව": 5022,
      "පරානතය": 5023,
      "පරයනත": 5024,
      "##යකත": 5025,
      "සහතව": 5026,
      "සහායක": 5027,
      "වසස": 5028,
      "වසතන": 5029,
      "##යාය": 5030,
      "##යාද": 5031,
      "ඇතනම": 5032,
      "##වාගමක": 5033,
      "##ාලකව": 5034,
      "මෙස": 5035,
      "මෙසය": 5036,
      "මෙටස": 5037,
      "වෙම": 5038,
      "වෙසෙන": 5039,
      "වැලම": 5040,
      "##වසර": 5041,
      "සංයත": 5042,
      "සංදෙශය": 5043,
      "අතරෙක": 5044,
      "##කෂය": 5045,
      "කළතර": 5046,
      "අනද": 5047,
      "අනතය": 5048,
      "##රමන": 5049,
      "පළබොධ": 5050,
      "පැණ": 5051,
      "පැතත": 5052,
      "පැමණය": 5053,
      "##කාචාරය": 5054,
      "කොරයාවෙ": 5055,
      "##ාදායක": 5056,
      "තබනන": 5057,
      "තරථ": 5058,
      "තරබාර": 5059,
      "පොසල": 5060,
      "වරගෙ": 5061,
      "වරෂය": 5062,
      "##වෙහ": 5063,
      "##වෙදය": 5064,
      "නොඩ": 5065,
      "නොගත": 5066,
      "නොපැ": 5067,
      "නොගැ": 5068,
      "##කාරයෙන": 5069,
      "ශරන": 5070,
      "ශරලන": 5071,
      "පදයක": 5072,
      "බලයන": 5073,
      "බලවත": 5074,
      "බලොග": 5075,
      "ලෙසට": 5076,
      "ලෙසද": 5077,
      "සදවෙන": 5078,
      "මලකට": 5079,
      "වැඩවමක": 5080,
      "ලබමන": 5081,
      "දෙයය": 5082,
      "දෙවැන": 5083,
      "පසෙහ": 5084,
      "පසළොස": 5085,
      "කරනනට": 5086,
      "කරනනැය": 5087,
      "සෙවම": 5088,
      "වෙනදා": 5089,
      "##ොගර": 5090,
      "ජනශර": 5091,
      "දකන": 5092,
      "අමර": 5093,
      "##ගමගෙ": 5094,
      "අදාල": 5095,
      "අදවතය": 5096,
      "ලබාගැනම": 5097,
      "අතහැර": 5098,
      "අතශයන": 5099,
      "අතබොමබ": 5100,
      "පරතසං": 5101,
      "පරතශොධ": 5102,
      "ලැබන": 5103,
      "පදගලකරණය": 5104,
      "##වමය": 5105,
      "##ාධපතවර": 5106,
      "##ොකස": 5107,
      "##ොකසයඩ": 5108,
      "##වැව": 5109,
      "##වැල": 5110,
      "හැදන": 5111,
      "අපදරවය": 5112,
      "ඉනපසව": 5113,
      "මැට": 5114,
      "මැරතන": 5115,
      "මැතනය": 5116,
      "මැලෙසයාව": 5117,
      "##ලනද": 5118,
      "නැඟ": 5119,
      "නැළැ": 5120,
      "ගොවන": 5121,
      "##ysh": 5122,
      "##ෙයයන": 5123,
      "ඔබබට": 5124,
      "පෙම": 5125,
      "##ang": 5126,
      "##ans": 5127,
      "ජාතන": 5128,
      "ජාතකයන": 5129,
      "##ටටව": 5130,
      "කැඩ": 5131,
      "නයජ": 5132,
      "නයැද": 5133,
      "නරතව": 5134,
      "නරාකරණය": 5135,
      "##erg": 5136,
      "පරදෙශයක": 5137,
      "පරදෙශවාසන": 5138,
      "සරවාගමක": 5139,
      "වදහා": 5140,
      "කටනායක": 5141,
      "##ෙහම": 5142,
      "කොටයා": 5143,
      "##නමතත": 5144,
      "ගැනමටත": 5145,
      "ආරොප": 5146,
      "පටර": 5147,
      "පටප": 5148,
      "##හැම": 5149,
      "##හැලල": 5150,
      "##හැරමෙ": 5151,
      "මාරක": 5152,
      "##ාගාරය": 5153,
      "හරත": 5154,
      "බරඳ": 5155,
      "බරන": 5156,
      "වරගකරණ": 5157,
      "දැව": 5158,
      "දැවැන": 5159,
      "දැරයක": 5160,
      "##ara": 5161,
      "පෙරවරවෙ": 5162,
      "රජයක": 5163,
      "නරමාතෘ": 5164,
      "නෂකරය": 5165,
      "කාංස": 5166,
      "කාකෂක": 5167,
      "සාමය": 5168,
      "දෙශගණක": 5169,
      "තරගයෙන": 5170,
      "මරදන": 5171,
      "අමාතයංශය": 5172,
      "අනවශය": 5173,
      "ඒවායන": 5174,
      "පෙනෙ": 5175,
      "පෙනෙන": 5176,
      "පකෂයක": 5177,
      "පකෂයට": 5178,
      "මටර": 5179,
      "තෙමා": 5180,
      "අවශයය": 5181,
      "2017": 5182,
      "2014": 5183,
      "ගමනක": 5184,
      "ගමනානත": 5185,
      "දෙකකන": 5186,
      "කලහ": 5187,
      "කලබල": 5188,
      "රටා": 5189,
      "මැතවරණයක": 5190,
      "අභය": 5191,
      "අභව": 5192,
      "අභපර": 5193,
      "ගරෑන": 5194,
      "සනල": 5195,
      "පළමව": 5196,
      "පදගලයනගෙ": 5197,
      "දයර": 5198,
      "දයාන": 5199,
      "##ගැනවම": 5200,
      "ආකාරයෙ": 5201,
      "දැකමට": 5202,
      "දැකවෙ": 5203,
      "දැකවම": 5204,
      "දැකවෙනනෙ": 5205,
      "උතපාදනය": 5206,
      "වගා": 5207,
      "වගමන": 5208,
      "ජවතයට": 5209,
      "වවහොත": 5210,
      "භාවතයන": 5211,
      "දමනන": 5212,
      "ඉහළන": 5213,
      "වරොධතාවයක": 5214,
      "පාහෙ": 5215,
      "සැලකලමත": 5216,
      "පොලසයෙ": 5217,
      "2009": 5218,
      "2001": 5219,
      "මෙහද": 5220,
      "මාරගගත": 5221,
      "ඉවතට": 5222,
      "දවතව": 5223,
      "ගැටමක": 5224,
      "වෛදයවරන": 5225,
      "පරදාන": 5226,
      "පැවැතවම": 5227,
      "රාජයයන": 5228,
      "මැතවරණයෙන": 5229,
      "සමහරක": 5230,
      "වදයාඥයන": 5231,
      "කරයාකාරකමක": 5232,
      "දගකාලන": 5233,
      "කරඩකයෙක": 5234,
      "මලදරවයයක": 5235,
      "##ily": 5236,
      "නගරයක": 5237,
      "නගරයට": 5238,
      "පැහැර": 5239,
      "වාරතාකර": 5240,
      "පදගලයෙකගෙ": 5241,
      "භාණඩය": 5242,
      "කරණාකර": 5243,
      "අයතම": 5244,
      "පලතර": 5245,
      "##බැහ": 5246,
      "##rist": 5247,
      "යොමව": 5248,
      "සපරැටල": 5249,
      "පයවරක": 5250,
      "ජාලයක": 5251,
      "හැරෙන": 5252,
      "මධයසථාන": 5253,
      "පරමාද": 5254,
      "පැහැදලව": 5255,
      "කයවය": 5256,
      "කයවනන": 5257,
      "පාසලට": 5258,
      "කසවක": 5259,
      "වැටල": 5260,
      "වැටලම": 5261,
      "මොටර": 5262,
      "රෙඩ": 5263,
      "හදෙක": 5264,
      "පෙළක": 5265,
      "උතසාහය": 5266,
      "උතසාහයක": 5267,
      "දෙපාරතමෙනතවට": 5268,
      "ඉලෙකටරොනක": 5269,
      "##තතෙගම": 5270,
      "කෘතරම": 5271,
      "යදධයෙද": 5272,
      "177": 5273,
      "178": 5274,
      "අවරදදක": 5275,
      "##ass": 5276,
      "ජනාධපතවරන": 5277,
      "ආශරෙයයන": 5278,
      "නෞ": 5279,
      "දරවයයන": 5280,
      "ශෂයයන": 5281,
      "බලපතරයක": 5282,
      "කලාපයෙ": 5283,
      "තැනැ": 5284,
      "පවලක": 5285,
      "මෙරටන": 5286,
      "පදධතයක": 5287,
      "පදධතයෙ": 5288,
      "ඇමොනයා": 5289,
      "ලෙකමවරයා": 5290,
      "එළය": 5291,
      "එළවළ": 5292,
      "එළමහන": 5293,
      "කනසස": 5294,
      "පහරද": 5295,
      "වැසයන": 5296,
      "අඩවයෙ": 5297,
      "දනාගත": 5298,
      "වැඩසටහනක": 5299,
      "##ando": 5300,
      "මෙහෙයමක": 5301,
      "ගමහ": 5302,
      "ගමමාන": 5303,
      "සමපව": 5304,
      "වැළක": 5305,
      "මලාශරය": 5306,
      "පෞර": 5307,
      "සසනගෙ": 5308,
      "##oss": 5309,
      "ඉලකකයක": 5310,
      "nees": 5311,
      "වෙදකාවක": 5312,
      "හැඳනවය": 5313,
      "ආසනනයෙ": 5314,
      "කෂෙතරයක": 5315,
      "කෂෙතරවල": 5316,
      "කානද": 5317,
      "බදද": 5318,
      "වයවසථාවෙ": 5319,
      "1994": 5320,
      "යාමෙ": 5321,
      "වපකෂය": 5322,
      "කථකාචාරය": 5323,
      "දශකය": 5324,
      "මදාහැර": 5325,
      "යටපත": 5326,
      "1989": 5327,
      "සවාධනව": 5328,
      "ඇඟවම": 5329,
      "##ෑනක": 5330,
      "පෙතසම": 5331,
      "සාරථකතවය": 5332,
      "බදධය": 5333,
      "භමකාව": 5334,
      "##කකලය": 5335,
      "##ඩරජන": 5336,
      "මෙවාට": 5337,
      "තොරාගත": 5338,
      "බංගලාදෙශය": 5339,
      "##age": 5340,
      "1956": 5341,
      "1950": 5342,
      "නතඥවරයක": 5343,
      "කතල": 5344,
      "ගෘහ": 5345,
      "තමාගෙ": 5346,
      "දෂත": 5347,
      "වහාරසථාන": 5348,
      "ෆරෑනක": 5349,
      "පරාවදයාතමක": 5350,
      "##erson": 5351,
      "තනතරට": 5352,
      "කාරයකෂමතාව": 5353,
      "තරඟාවලයෙ": 5354,
      "අවසථාවල": 5355,
      "පරාණවත": 5356,
      "වෘතතකයන": 5357,
      "සලකන": 5358,
      "ඉනදනසයාව": 5359,
      "ඉනදනසයාවෙ": 5360,
      "රැසකට": 5361,
      "පාඨය": 5362,
      "වයාපෘතයෙ": 5363,
      "christ": 5364,
      "පණවඩ": 5365,
      "සවලපයක": 5366,
      "අධකාරය": 5367,
      "බැලමෙ": 5368,
      "සනධානයෙ": 5369,
      "ආකරශනය": 5370,
      "තෙරමක": 5371,
      "මදලක": 5372,
      "වරෂයෙ": 5373,
      "ශරරයෙ": 5374,
      "සදධයට": 5375,
      "රැසවමක": 5376,
      "ජරමනය": 5377,
      "ජලාශය": 5378,
      "ඩොලෆ": 5379,
      "නළවා": 5380,
      "බළලන": 5381,
      "මතකයන": 5382,
      "##හසකට": 5383,
      "පරසථාරයක": 5384,
      "ජනගහන": 5385,
      "අමෙරකාවෙ": 5386,
      "මනොභාවය": 5387,
      "සංසකෘතයක": 5388,
      "සාපෙකෂතාව": 5389,
      "period": 5390,
      "හයඩරජන": 5391,
      "සංකලපයක": 5392,
      "සැමරම": 5393,
      "සරසවයෙ": 5394,
      "වායගොලයට": 5395,
      "බංගලාදෙශයෙ": 5396,
      "කාරයකෂමව": 5397,
      "iii": 5398,
      "ගතවන": 5399,
      "රණවක": 5400,
      "සකසා": 5401,
      "සමාලොචන": 5402,
      "පරෂයන": 5403,
      "පරචණඩ": 5404,
      "කැටයම": 5405,
      "කැමරා": 5406,
      "ඕසටරෙලයාවෙ": 5407,
      "මංගලය": 5408,
      "ශලපන": 5409,
      "අනපළවෙල": 5410,
      "හැටයට": 5411,
      "කැමැතත": 5412,
      "සාරාංශයක": 5413,
      "වැළැකවම": 5414,
      "නාඬප": 5415,
      "නාඬාපො": 5416,
      "කලපනා": 5417,
      "දතතවල": 5418,
      "පාවාද": 5419,
      "යරොපා": 5420,
      "පරයතනයන": 5421,
      "සංසරගයෙ": 5422,
      "ජනරජය": 5423,
      "ජනරාලවරයා": 5424,
      "අධරාජය": 5425,
      "පරතචාරයක": 5426,
      "නයෂටය": 5427,
      "වෙළඳසැල": 5428,
      "පාකසතාන": 5429,
      "පාකසතානයෙ": 5430,
      "ඉසමත": 5431,
      "තයෙනව": 5432,
      "වවෙචන": 5433,
      "කටයතවල": 5434,
      "##ences": 5435,
      "උදඝොෂණ": 5436,
      "wikiped": 5437,
      "පරයදරශන": 5438,
      "සහයොගය": 5439,
      "පදනමක": 5440,
      "බැඳමකර": 5441,
      "නරවදයතාවය": 5442,
      "ඉකමන": 5443,
      "උනනදවක": 5444,
      "එවකට": 5445,
      "ඩයොකසයඩ": 5446,
      "පපරණ": 5447,
      "වවාහ": 5448,
      "ෆනකස": 5449,
      "කරමවෙදයක": 5450,
      "සභාපතවරයා": 5451,
      "සනහව": 5452,
      "මහාධකරණය": 5453,
      "ගමමරස": 5454,
      "පනරාවරතන": 5455,
      "අභයාචනාධ": 5456,
      "refer": 5457,
      "යමකස": 5458,
      "හෂම": 5459,
      "වෙහෙස": 5460,
      "සැමරමට": 5461,
      "බොහොමයක": 5462,
      "වෙළඳපොලෙ": 5463,
      "හංගෙරයාන": 5464,
      "පරොටොකොල": 5465,
      "ශාඛාව": 5466,
      "කෞතකාගාරය": 5467,
      "final": 5468,
      "ඇඹලප": 5469,
      "වහාම": 5470,
      "##raphy": 5471,
      "සමමනතරණ": 5472,
      "සහනාධාර": 5473,
      "සංසනදනය": 5474,
      "සංරචක": 5475,
      "ගරෙගර": 5476,
      "ගරනථ": 5477,
      "දමපානය": 5478,
      "නොතබණ": 5479,
      "පරජාතනතර": 5480,
      "කැලෆොනය": 5481,
      "අකාරයකෂම": 5482,
      "උලලංඝණය": 5483,
      "darbysh": 5484,
      "ඇබබැහ": 5485,
      "කතරගම": 5486,
      "කඩනමන": 5487,
      "දටරටෙ": 5488,
      "වභාගය": 5489,
      "සොහොන": 5490,
      "ෆෙසබක": 5491,
      "ජනශරැ": 5492,
      "පරතසංස": 5493,
      "ගරෑනඩ": 5494,
      "wikipedia": 5495,
      "references": 5496,
      "08": 5497,
      "2f": 5498,
      "32": 5499,
      "38": 5500,
      "300": 5501,
      "57": 5502,
      "60": 5503,
      "600": 5504,
      "71": 5505,
      "am": 5506,
      "ast": 5507,
      "bi": 5508,
      "bal": 5509,
      "but": 5510,
      "bull": 5511,
      "cor": 5512,
      "cat": 5513,
      "de": 5514,
      "des": 5515,
      "dev": 5516,
      "fant": 5517,
      "har": 5518,
      "hind": 5519,
      "ill": 5520,
      "karl": 5521,
      "le": 5522,
      "lt": 5523,
      "list": 5524,
      "mets": 5525,
      "pm": 5526,
      "pa": 5527,
      "pl": 5528,
      "pac": 5529,
      "sm": 5530,
      "sub": 5531,
      "table": 5532,
      "von": 5533,
      "ww": 5534,
      "xml": 5535,
      "zh": 5536,
      "අණ": 5537,
      "අශ": 5538,
      "අහත": 5539,
      "අදය": 5540,
      "අසර": 5541,
      "අකරණ": 5542,
      "අසථ": 5543,
      "අංශය": 5544,
      "අනනය": 5545,
      "අටක": 5546,
      "ආන": 5547,
      "ආතත": 5548,
      "ආතම": 5549,
      "ආවෙන": 5550,
      "ආංජන": 5551,
      "ආතමය": 5552,
      "ආවෙග": 5553,
      "ආගමන": 5554,
      "ඇව": 5555,
      "ඇණ": 5556,
      "ඇෆ": 5557,
      "ඈත": 5558,
      "ඉනනෙ": 5559,
      "ඉසර": 5560,
      "උර": 5561,
      "උගර": 5562,
      "උචච": 5563,
      "ඌයෙල": 5564,
      "ඍණාතමක": 5565,
      "එදා": 5566,
      "එමෙන": 5567,
      "එවක": 5568,
      "එපා": 5569,
      "ඒජන": 5570,
      "ඔට": 5571,
      "ඔම": 5572,
      "ඕවර": 5573,
      "කවන": 5574,
      "කවර": 5575,
      "කවය": 5576,
      "කලල": 5577,
      "කසා": 5578,
      "කාවය": 5579,
      "කවසම": 5580,
      "ඛණජ": 5581,
      "ගා": 5582,
      "ගවස": 5583,
      "ගංග": 5584,
      "ගෙර": 5585,
      "ගනනෙ": 5586,
      "ගවසම": 5587,
      "ගවයන": 5588,
      "චාන": 5589,
      "චකර": 5590,
      "චෙක": 5591,
      "චතත": 5592,
      "චකරය": 5593,
      "ඡා": 5594,
      "ජම": 5595,
      "ජනා": 5596,
      "ජයත": 5597,
      "ජලයෙ": 5598,
      "ඥාන": 5599,
      "ටකට": 5600,
      "තෑ": 5601,
      "තාන": 5602,
      "තාම": 5603,
      "තදෙන": 5604,
      "තකක": 5605,
      "තෙහෙ": 5606,
      "දද": 5607,
      "දාර": 5608,
      "දවල": 5609,
      "දවය": 5610,
      "දරය": 5611,
      "දසා": 5612,
      "දගන": 5613,
      "දහනය": 5614,
      "දොස": 5615,
      "දයාසර": 5616,
      "දවමය": 5617,
      "ධානය": 5618,
      "නාර": 5619,
      "නාන": 5620,
      "නකා": 5621,
      "නවය": 5622,
      "නදන": 5623,
      "නනද": 5624,
      "නසකල": 5625,
      "පක": 5626,
      "පව": 5627,
      "පඨ": 5628,
      "පඩා": 5629,
      "පතරය": 5630,
      "පඟන": 5631,
      "පජය": 5632,
      "පෑන": 5633,
      "බඩ": 5634,
      "බැන": 5635,
      "බදය": 5636,
      "බසන": 5637,
      "බනද": 5638,
      "බොට": 5639,
      "බයො": 5640,
      "භාජ": 5641,
      "භමය": 5642,
      "භගො": 5643,
      "භරමණ": 5644,
      "මනන": 5645,
      "මාත": 5646,
      "මතව": 5647,
      "මයන": 5648,
      "මයා": 5649,
      "මැක": 5650,
      "මාද": 5651,
      "මගම": 5652,
      "මාප": 5653,
      "මඛය": 5654,
      "යෙ": 5655,
      "යල": 5656,
      "යඨ": 5657,
      "යවර": 5658,
      "යනා": 5659,
      "යමන": 5660,
      "යනනෙ": 5661,
      "යෑම": 5662,
      "යානතරක": 5663,
      "රඩ": 5664,
      "රං": 5665,
      "රශ": 5666,
      "රබ": 5667,
      "රාම": 5668,
      "රහස": 5669,
      "රොස": 5670,
      "රොරො": 5671,
      "ලග": 5672,
      "ලවා": 5673,
      "වවර": 5674,
      "වකා": 5675,
      "වපර": 5676,
      "වමත": 5677,
      "වචාර": 5678,
      "වදාළ": 5679,
      "වජෙ": 5680,
      "වවාය": 5681,
      "වවනගෙ": 5682,
      "වාදනය": 5683,
      "ශදධ": 5684,
      "ශාලා": 5685,
      "සඵ": 5686,
      "සඝ": 5687,
      "සාන": 5688,
      "සැන": 5689,
      "සෙර": 5690,
      "සබඳ": 5691,
      "සජන": 5692,
      "සොහො": 5693,
      "හෙන": 5694,
      "හාර": 5695,
      "හපත": 5696,
      "ෙබක": 5697,
      "##යයා": 5698,
      "##යශල": 5699,
      "##කකාර": 5700,
      "##කෙරණ": 5701,
      "##ෙව": 5702,
      "##ටඩ": 5703,
      "##සමන": 5704,
      "##සොන": 5705,
      "##මහත": 5706,
      "##මතා": 5707,
      "##මතත": 5708,
      "##හක": 5709,
      "##හමෙ": 5710,
      "##වාත": 5711,
      "##වාන": 5712,
      "##ගසක": 5713,
      "##ie": 5714,
      "##ik": 5715,
      "##ier": 5716,
      "##nando": 5717,
      "##ලර": 5718,
      "##ලෆ": 5719,
      "##ලමට": 5720,
      "##ලොම": 5721,
      "##නදා": 5722,
      "##ණයෙ": 5723,
      "##දො": 5724,
      "##දාන": 5725,
      "##දොය": 5726,
      "##භක": 5727,
      "##තැ": 5728,
      "##ඩනය": 5729,
      "##ථමක": 5730,
      "##ai": 5731,
      "##aj": 5732,
      "##ැට": 5733,
      "##ැමන": 5734,
      "##පෙ": 5735,
      "##පයෙන": 5736,
      "##පදා": 5737,
      "##පපර": 5738,
      "##ජරවර": 5739,
      "##hn": 5740,
      "##ust": 5741,
      "##7°": 5742,
      "##va": 5743,
      "##ver": 5744,
      "##ශලෙෂ": 5745,
      "##tion": 5746,
      "##ous": 5747,
      "##ole": 5748,
      "##obe": 5749,
      "##බත": 5750,
      "##බඹ": 5751,
      "##බෙන": 5752,
      "##බාද": 5753,
      "##බාය": 5754,
      "##බෑම": 5755,
      "##බොල": 5756,
      "##97": 5757,
      "##45": 5758,
      "##3ක": 5759,
      "##ෆට": 5760,
      "##ෆො": 5761,
      "##ඥා": 5762,
      "##db": 5763,
      "##14": 5764,
      "##ෟරව": 5765,
      "##wh": 5766,
      "##85": 5767,
      "##එන": 5768,
      "##ොළ": 5769,
      "##ොලක": 5770,
      "##ොලෙ": 5771,
      "##ෙනස": 5772,
      "##ෙනයම": 5773,
      "කරස": 5774,
      "කරළ": 5775,
      "කරදර": 5776,
      "කරලල": 5777,
      "කරගැනම": 5778,
      "කරගනමන": 5779,
      "##ාවෛ": 5780,
      "##තරාතමක": 5781,
      "##තරකන": 5782,
      "##ාරඩ": 5783,
      "##ාරමක": 5784,
      "සමබාධ": 5785,
      "සමරන": 5786,
      "සමෘදධ": 5787,
      "පරප": 5788,
      "පරබනධ": 5789,
      "පරතවර": 5790,
      "පරමය": 5791,
      "පරමාර": 5792,
      "පරපාලන": 5793,
      "පරංශය": 5794,
      "පරවරධන": 5795,
      "පරංශයෙ": 5796,
      "පරාතන": 5797,
      "පරපාලනය": 5798,
      "##නනෙක": 5799,
      "##ාතම": 5800,
      "##ානද": 5801,
      "සහද": 5802,
      "සහපත": 5803,
      "සහකාර": 5804,
      "සහනයක": 5805,
      "වසම": 5806,
      "කරමලෙඛන": 5807,
      "කරමාංක": 5808,
      "කරමවෙදය": 5809,
      "##හතකාරයෙන": 5810,
      "##යනො": 5811,
      "සමබනධතාවය": 5812,
      "සමබනධතාවයක": 5813,
      "##වාදා": 5814,
      "##කරයෙ": 5815,
      "##කරමන": 5816,
      "##කරොන": 5817,
      "##වනවා": 5818,
      "##ාලය": 5819,
      "මෙවන": 5820,
      "මෙමෙ": 5821,
      "මෙතෙක": 5822,
      "මෙජරවර": 5823,
      "වෙෙදය": 5824,
      "##වතැන": 5825,
      "වනයා": 5826,
      "වනහම": 5827,
      "##වරනට": 5828,
      "##වරයෙකට": 5829,
      "සංගරහ": 5830,
      "සංගතය": 5831,
      "##නාය": 5832,
      "##ෙසා": 5833,
      "කළයත": 5834,
      "අනත": 5835,
      "අනකරණය": 5836,
      "හැකකෙ": 5837,
      "පළකා": 5838,
      "පළගැන": 5839,
      "පළගැනම": 5840,
      "පළබඹ": 5841,
      "පැස": 5842,
      "පැත": 5843,
      "පැළ": 5844,
      "පැතක": 5845,
      "##කාස": 5846,
      "##දරශ": 5847,
      "##දරාගැන": 5848,
      "##ංගවෙ": 5849,
      "කොල": 5850,
      "කොබ": 5851,
      "කොලල": 5852,
      "කොරොන": 5853,
      "කොදොය": 5854,
      "සටමන": 5855,
      "සටනනෙ": 5856,
      "සටයාය": 5857,
      "තබමය": 5858,
      "තරල": 5859,
      "තරසතව": 5860,
      "තරසාර": 5861,
      "වශවය": 5862,
      "හොංක": 5863,
      "##මනද": 5864,
      "කරනයෙ": 5865,
      "පොකර": 5866,
      "පොසටර": 5867,
      "##දානනද": 5868,
      "වරක": 5869,
      "වරහත": 5870,
      "##වෙගයෙ": 5871,
      "නොට": 5872,
      "නොද": 5873,
      "නොර": 5874,
      "නොයෙක": 5875,
      "නොදෙන": 5876,
      "##කාරව": 5877,
      "ශරල": 5878,
      "ශරතයක": 5879,
      "ගැනෙ": 5880,
      "ගැනමක": 5881,
      "ගැනමය": 5882,
      "කරමටය": 5883,
      "##ොරොත": 5884,
      "බලන": 5885,
      "බලයෙ": 5886,
      "බලයට": 5887,
      "බලහතකාරයෙන": 5888,
      "##පරද": 5889,
      "සදානමක": 5890,
      "මලන": 5891,
      "මලනම": 5892,
      "මලාරම": 5893,
      "වැඩවම": 5894,
      "වැඩහට": 5895,
      "ලබනනා": 5896,
      "දෙම": 5897,
      "දෙවත": 5898,
      "දෙවසථ": 5899,
      "පසකාලන": 5900,
      "කරනනෙද": 5901,
      "##යතන": 5902,
      "##යතානතරක": 5903,
      "##ාජයය": 5904,
      "සෙම": 5905,
      "සෙබළ": 5906,
      "වෙනව": 5907,
      "##සයස": 5908,
      "තබෙද": 5909,
      "සැතක": 5910,
      "සැහැලල": 5911,
      "අවංක": 5912,
      "අවධය": 5913,
      "##ාවකන": 5914,
      "උපකරම": 5915,
      "උපාධය": 5916,
      "දකවය": 5917,
      "දකවනන": 5918,
      "##දනයක": 5919,
      "අධකය": 5920,
      "ලබාගෙන": 5921,
      "ලබාගැනමට": 5922,
      "අතල": 5923,
      "අතථය": 5924,
      "අතමහත": 5925,
      "පරතපොෂණ": 5926,
      "පරතලොම": 5927,
      "වටය": 5928,
      "වටහා": 5929,
      "වටෙක": 5930,
      "##ලකන": 5931,
      "පදගලයාගෙ": 5932,
      "පදගලයාට": 5933,
      "හෙල": 5934,
      "වසනම": 5935,
      "##වැට": 5936,
      "මහල": 5937,
      "මහවැල": 5938,
      "හැම": 5939,
      "හැටන": 5940,
      "හැඳනම": 5941,
      "ඉනපස": 5942,
      "මැදර": 5943,
      "මැගසන": 5944,
      "නැගම": 5945,
      "නැවම": 5946,
      "දරශ": 5947,
      "දරාපත": 5948,
      "මනෂය": 5949,
      "ගොණ": 5950,
      "ගොතම": 5951,
      "ගොලයක": 5952,
      "ගොලෆ": 5953,
      "දනවල": 5954,
      "දනකම": 5955,
      "දනයෙද": 5956,
      "දනයකන": 5957,
      "අවසර": 5958,
      "##තවරන": 5959,
      "##තවරයාගෙ": 5960,
      "හමයන": 5961,
      "හමවක": 5962,
      "හමවම": 5963,
      "හමවට": 5964,
      "හමවෙය": 5965,
      "නමද": 5966,
      "නමැත": 5967,
      "නමයශල": 5968,
      "##ගයවනන": 5969,
      "##යෙකගෙ": 5970,
      "ජාතවාදය": 5971,
      "##ටටය": 5972,
      "##තකයෙ": 5973,
      "කාලංග": 5974,
      "කාලයෙද": 5975,
      "කාලගණයක": 5976,
      "කැසස": 5977,
      "කැවලල": 5978,
      "රාජකාර": 5979,
      "රාජයතානතරක": 5980,
      "##ගරාහ": 5981,
      "##තමනය": 5982,
      "නරවාය": 5983,
      "##සටක": 5984,
      "වැනදා": 5985,
      "සරකරවන": 5986,
      "දෙනක": 5987,
      "වදවත": 5988,
      "ලැබවෙ": 5989,
      "කණඩායමකට": 5990,
      "මතධාර": 5991,
      "බැහැ": 5992,
      "පතල": 5993,
      "##සමමා": 5994,
      "##කරණයෙ": 5995,
      "තළද": 5996,
      "පටපා": 5997,
      "පටහය": 5998,
      "වශෙෂයක": 5999,
      "සොබාද": 6000,
      "අයතව": 6001,
      "කරයාකරවන": 6002,
      "නවහන": 6003,
      "මාරවම": 6004,
      "හරාම": 6005,
      "පවතය": 6006,
      "බරලන": 6007,
      "වරගයක": 6008,
      "ගණම": 6009,
      "ගණත": 6010,
      "ගණතමය": 6011,
      "දැලෙ": 6012,
      "##arc": 6013,
      "පෙරවර": 6014,
      "රජයට": 6015,
      "භාගය": 6016,
      "##ore": 6017,
      "##ory": 6018,
      "වසරකට": 6019,
      "##one": 6020,
      "##ons": 6021,
      "සභාවට": 6022,
      "වැදදො": 6023,
      "පරකාශන": 6024,
      "දෙශනා": 6025,
      "දෙශගණ": 6026,
      "දෙශපරය": 6027,
      "තනකන": 6028,
      "තනතරක": 6029,
      "තරගයට": 6030,
      "තරගයෙද": 6031,
      "නෂපාදකයන": 6032,
      "නෂපාදනාගාර": 6033,
      "මරදනය": 6034,
      "අමාතයවර": 6035,
      "අමාතයංශ": 6036,
      "අනවාරය": 6037,
      "ආරමභකයන": 6038,
      "කෙරෙය": 6039,
      "තෙත": 6040,
      "තෙතමනය": 6041,
      "##ate": 6042,
      "##atus": 6043,
      "දෙකෙහම": 6044,
      "කලද": 6045,
      "කලාව": 6046,
      "ඉදරපට": 6047,
      "නතපතවර": 6048,
      "රටාව": 6049,
      "##ics": 6050,
      "##icial": 6051,
      "සතල": 6052,
      "සතයෙ": 6053,
      "සතතව": 6054,
      "##ene": 6055,
      "පනවල": 6056,
      "ගරක": 6057,
      "ගරල": 6058,
      "ගරැෆ": 6059,
      "ජයරතන": 6060,
      "අපරකාවෙ": 6061,
      "සනානය": 6062,
      "සනමා": 6063,
      "සනතකයෙ": 6064,
      "##ාවනට": 6065,
      "පළමවන": 6066,
      "සොයාබැ": 6067,
      "කෙතය": 6068,
      "කෙබල": 6069,
      "අතඅඩංගවෙ": 6070,
      "##කරමණය": 6071,
      "##කරමබාහ": 6072,
      "දයණය": 6073,
      "##ගැනමක": 6074,
      "දකණෙ": 6075,
      "දකණට": 6076,
      "රොගනගෙ": 6077,
      "වෙළද": 6078,
      "අරජන": 6079,
      "ආණඩවට": 6080,
      "ආකාරයක": 6081,
      "ආකාරයෙන": 6082,
      "ආකාරයය": 6083,
      "දැකම": 6084,
      "දැකවමට": 6085,
      "##ace": 6086,
      "##acse": 6087,
      "උතතර": 6088,
      "පොහොරක": 6089,
      "පොහොරවල": 6090,
      "වගසන": 6091,
      "වගාවන": 6092,
      "වවෘතව": 6093,
      "අලයා": 6094,
      "අලගයවනන": 6095,
      "කාරමක": 6096,
      "ගෙවම": 6097,
      "ගෞරව": 6098,
      "තරඟයෙ": 6099,
      "##පදංච": 6100,
      "පැමණල": 6101,
      "පැමණමට": 6102,
      "පැමණමෙන": 6103,
      "පරාථමක": 6104,
      "සනනදධ": 6105,
      "වරොධව": 6106,
      "වරොධයක": 6107,
      "පාකෂ": 6108,
      "පාඩම": 6109,
      "පාණඩය": 6110,
      "මනතරවරයෙක": 6111,
      "200ක": 6112,
      "2006": 6113,
      "පහටවමට": 6114,
      "##කරවනගෙන": 6115,
      "මාරගයෙන": 6116,
      "##edy": 6117,
      "යෙදවම": 6118,
      "සමාජයට": 6119,
      "රාජයයෙන": 6120,
      "මටටමට": 6121,
      "##රොසො": 6122,
      "වදයාලයක": 6123,
      "##000": 6124,
      "කරඩාව": 6125,
      "මලදරවයය": 6126,
      "භාෂාවෙන": 6127,
      "කාරයය": 6128,
      "කාරයයක": 6129,
      "##omb": 6130,
      "බෙකර": 6131,
      "බෙදය": 6132,
      "කොමසමට": 6133,
      "කඩනම": 6134,
      "බෙරයෙ": 6135,
      "බෙරවල": 6136,
      "මණඩලයට": 6137,
      "වචතර": 6138,
      "ආසාදතයෙක": 6139,
      "ජලජ": 6140,
      "නෂපාදනයක": 6141,
      "නැතැය": 6142,
      "මහනදානනද": 6143,
      "පැවතය": 6144,
      "අංශක": 6145,
      "ඉඩක": 6146,
      "ඉඩකඩ": 6147,
      "ශාකවලට": 6148,
      "##ries": 6149,
      "සමතල": 6150,
      "පරතඵලය": 6151,
      "දෙනෙකගෙන": 6152,
      "ගණනවල": 6153,
      "පතවන": 6154,
      "කරඩාංග": 6155,
      "සපරාලම": 6156,
      "නලධාරනට": 6157,
      "නවසට": 6158,
      "ඝාතනයට": 6159,
      "මධයයෙ": 6160,
      "පරමපර": 6161,
      "දෙශපාලනක": 6162,
      "කයනනෙ": 6163,
      "ලබාදන": 6164,
      "වයාපාරයක": 6165,
      "වයාපාරවලට": 6166,
      "වැටෙන": 6167,
      "තරණයන": 6168,
      "මොචනය": 6169,
      "හදකලා": 6170,
      "##බදයක": 6171,
      "උතසාහයන": 6172,
      "පරමාණයෙ": 6173,
      "අසබ": 6174,
      "සවාම": 6175,
      "##ecard": 6176,
      "##ame": 6177,
      "##ොතල": 6178,
      "ඇලගොරතමයෙ": 6179,
      "180": 6180,
      "යදධයෙ": 6181,
      "යදධයෙන": 6182,
      "මාලාව": 6183,
      "මාලයක": 6184,
      "මාලදව": 6185,
      "නොවනන": 6186,
      "ලකෂයය": 6187,
      "##ෙටා": 6188,
      "##ෙටො": 6189,
      "##ash": 6190,
      "##asy": 6191,
      "##තවෙමන": 6192,
      "තබෙනවා": 6193,
      "තබෙනනෙ": 6194,
      "ජනාධපතවරණය": 6195,
      "ඉලකකම": 6196,
      "ඉලකකය": 6197,
      "නෙදර": 6198,
      "නෙපාල": 6199,
      "බහව": 6200,
      "බහතරයක": 6201,
      "සමමඛ": 6202,
      "සමානව": 6203,
      "ශෂයාව": 6204,
      "ශෂයතව": 6205,
      "තබණා": 6206,
      "වශලෙෂණයක": 6207,
      "සෙවකයා": 6208,
      "සෙවකයනගෙ": 6209,
      "බලපතරයෙ": 6210,
      "නසාවෙන": 6211,
      "මතරශල": 6212,
      "##ations": 6213,
      "කමකදැය": 6214,
      "ඇමොනය": 6215,
      "ඇමතවරයා": 6216,
      "තැට": 6217,
      "ලෙබල": 6218,
      "සෙනට": 6219,
      "සෙනසර": 6220,
      "එංගලනතය": 6221,
      "කනයා": 6222,
      "පහරදන": 6223,
      "කෂෙතරය": 6224,
      "උතරන": 6225,
      "ඒකකයක": 6226,
      "ඕනෑ": 6227,
      "වෘතතයමය": 6228,
      "සතයම": 6229,
      "ආකෘතයෙන": 6230,
      "අරමණන": 6231,
      "ජලයාන": 6232,
      "රොහලට": 6233,
      "වැළඳ": 6234,
      "වැළල": 6235,
      "##දාසවාදය": 6236,
      "2022": 6237,
      "චතරපටය": 6238,
      "චතරපටයක": 6239,
      "150": 6240,
      "කමටවක": 6241,
      "සමාගමෙ": 6242,
      "සමාගමකට": 6243,
      "පරවැටම": 6244,
      "වෙලාවට": 6245,
      "කැපවම": 6246,
      "250": 6247,
      "අගයක": 6248,
      "තදබදයක": 6249,
      "නාඩ": 6250,
      "නාසය": 6251,
      "සපගසක": 6252,
      "වෙදකාව": 6253,
      "වෙදකම": 6254,
      "හැඳනවෙන": 6255,
      "හැඳනවෙනනෙ": 6256,
      "බදලල": 6257,
      "බොසටන": 6258,
      "##ානමපය": 6259,
      "වයවසථාදායක": 6260,
      "හෙළදරව": 6261,
      "1997": 6262,
      "1996": 6263,
      "අභයොගය": 6264,
      "අලලය": 6265,
      "ඇමරකාව": 6266,
      "ඇමරකාවෙ": 6267,
      "පතරකා": 6268,
      "යාමෙන": 6269,
      "##olog": 6270,
      "කාණඩයක": 6271,
      "කාණඩයෙ": 6272,
      "php": 6273,
      "ඇරඹෙන": 6274,
      "කාමරයක": 6275,
      "කාමරයෙ": 6276,
      "මදාහර": 6277,
      "වහාරය": 6278,
      "සෘතව": 6279,
      "සතරන": 6280,
      "කාචය": 6281,
      "කාචයෙ": 6282,
      "එනජන": 6283,
      "නයායක": 6284,
      "භකෂක": 6285,
      "හානකර": 6286,
      "##berries": 6287,
      "පරවාහය": 6288,
      "ගොඩබම": 6289,
      "සාරථකව": 6290,
      "පරමඛතවය": 6291,
      "දාහක": 6292,
      "පඩාවට": 6293,
      "##ඩරල": 6294,
      "##ogle": 6295,
      "සංකරණයෙ": 6296,
      "1979": 6297,
      "1970": 6298,
      "පාකසථාන": 6299,
      "හතනනෙ": 6300,
      "පරභෙද": 6301,
      "වසඳා": 6302,
      "බලාපොරොත": 6303,
      "1969": 6304,
      "කෙනෙකගෙ": 6305,
      "කෙනෙකටම": 6306,
      "හවමාරව": 6307,
      "පෙජෙංහ": 6308,
      "form": 6309,
      "දෘෂට": 6310,
      "වඳදරාගැන": 6311,
      "සවරපය": 6312,
      "පරාවදය": 6313,
      "එකනෙකට": 6314,
      "කැඳවය": 6315,
      "වදයාතමකව": 6316,
      "පොජජෙන": 6317,
      "ඇතවන": 6318,
      "ධරැ": 6319,
      "ධරයට": 6320,
      "පානදර": 6321,
      "වෘතතයක": 6322,
      "වෘතතයට": 6323,
      "සලකනන": 6324,
      "##යතාවය": 6325,
      "හමදාවට": 6326,
      "සංවධානාතමක": 6327,
      "පාඨල": 6328,
      "වයාපෘතයක": 6329,
      "සංඛයාලෙඛන": 6330,
      "art": 6331,
      "උදයොග": 6332,
      "චරත": 6333,
      "බමතව": 6334,
      "යැව": 6335,
      "##ents": 6336,
      "සැලැසම": 6337,
      "සාහතයයක": 6338,
      "පරවැසයනට": 6339,
      "සපාඤඤය": 6340,
      "print": 6341,
      "ආකරමණ": 6342,
      "පරශසත": 6343,
      "පැදවම": 6344,
      "ශරරයට": 6345,
      "දෙවපරය": 6346,
      "දෙවානමපය": 6347,
      "අවදානමක": 6348,
      "මනදගාම": 6349,
      "වෙළෙඳපොළ": 6350,
      "අඟර": 6351,
      "අංකය": 6352,
      "සනාය": 6353,
      "සනාථ": 6354,
      "##oph": 6355,
      "අතරදනව": 6356,
      "පාරශව": 6357,
      "වචලයයන": 6358,
      "නයොජතයන": 6359,
      "නයොජතයෙක": 6360,
      "සංසකෘතන": 6361,
      "සංසකෘතයෙ": 6362,
      "trans": 6363,
      "ආධාරක": 6364,
      "මොනරාගල": 6365,
      "හයවන": 6366,
      "හංසා": 6367,
      "දරඝතම": 6368,
      "සවයංකරයව": 6369,
      "කාරයභාරය": 6370,
      "තාකෂණයෙ": 6371,
      "ඇසමට": 6372,
      "ඉකමවා": 6373,
      "ජපානයෙ": 6374,
      "යහපාලන": 6375,
      "රණවර": 6376,
      "සඟවා": 6377,
      "හඟය": 6378,
      "හඟයක": 6379,
      "හඬක": 6380,
      "##ෆරඩ": 6381,
      "කැමරාවන": 6382,
      "නරවචනය": 6383,
      "ආශවාස": 6384,
      "ගබඩ": 6385,
      "දකෂතා": 6386,
      "යථා": 6387,
      "වජයවරධන": 6388,
      "වජයබාහ": 6389,
      "සරයස": 6390,
      "සරයයා": 6391,
      "ළමයන": 6392,
      "පළවෙත": 6393,
      "කැමැතතෙන": 6394,
      "වවෙකයක": 6395,
      "අවසථාවනහද": 6396,
      "clit": 6397,
      "shot": 6398,
      "ඔකෙය": 6399,
      "ඔකමා": 6400,
      "දෑත": 6401,
      "යරොපය": 6402,
      "##කලපනය": 6403,
      "##ෂාඩ": 6404,
      "##que": 6405,
      "පරයතම": 6406,
      "එකඟතාව": 6407,
      "වරායට": 6408,
      "වරදකාර": 6409,
      "අධරාජයය": 6410,
      "දැනෙනනට": 6411,
      "සනදරතවය": 6412,
      "##ected": 6413,
      "දනදසනෙ": 6414,
      "අරමදල": 6415,
      "ගමනාගමනය": 6416,
      "ගමනාගමන": 6417,
      "දටවෙය": 6418,
      "මොකකට": 6419,
      "රංගන": 6420,
      "වපලවය": 6421,
      "##ආරචච": 6422,
      "පරනැම": 6423,
      "පරනානද": 6424,
      "කොළොනන": 6425,
      "සවභාවධරම": 6426,
      "බරහසපතනදා": 6427,
      "ගෙමබා": 6428,
      "ඉතහාසඥයන": 6429,
      "ආයධයකන": 6430,
      "ආලෙපත": 6431,
      "ජාවාරම": 6432,
      "භාගයෙද": 6433,
      "ශානතකරම": 6434,
      "සවසතරාතමක": 6435,
      "හලාවත": 6436,
      "හණසමමා": 6437,
      "##ලයනස": 6438,
      "##පොලවල": 6439,
      "##ොනනරව": 6440,
      "වනොදාසවාදය": 6441,
      "සංසකරණය": 6442,
      "පැරසෙල": 6443,
      "පැරෙටො": 6444,
      "මලධරමය": 6445,
      "නැංවමට": 6446,
      "ගැලපෙන": 6447,
      "වමසමකද": 6448,
      "සනසනව": 6449,
      "පරවණතා": 6450,
      "danujayaoff": 6451,
      "අබෙස": 6452,
      "උලමන": 6453,
      "ඔසටරෙලයාවෙ": 6454,
      "තාවකාලක": 6455,
      "තාවකාලකව": 6456,
      "තවකක": 6457,
      "දනනවා": 6458,
      "දවසක": 6459,
      "යාපා": 6460,
      "රහණගෙ": 6461,
      "ලනඩන": 6462,
      "ලයාපදංච": 6463,
      "වජතවාදන": 6464,
      "සංගකකාර": 6465,
      "සංගපපර": 6466,
      "අවධානයෙන": 6467,
      "ලැවගන": 6468,
      "මනොවදයාතමක": 6469,
      "මනොවශලෙෂ": 6470,
      "බලපානනෙ": 6471,
      "කෙළවර": 6472,
      "ඇමෙරකා": 6473,
      "ලෙඛනගත": 6474,
      "ඩොමනකන": 6475,
      "fernando": 6476,
      "netw": 6477,
      "ඇදහය": 6478,
      "උෂණතවය": 6479,
      "ඔකසජන": 6480,
      "කනදෙ": 6481,
      "ගාසත": 6482,
      "චකතසක": 6483,
      "මධෂ": 6484,
      "මයකරොසො": 6485,
      "ෆැසසටවාද": 6486,
      "පරචාරක": 6487,
      "##ensis": 6488,
      "කණගාටය": 6489,
      "##lobal": 6490,
      "කැනඩාවෙ": 6491,
      "සොලදාදවන": 6492,
      "චොදනාවක": 6493,
      "blas": 6494,
      "google": 6495,
      "math": 6496,
      "තෘපතය": 6497,
      "ධෛරයය": 6498,
      "පදරපප": 6499,
      "බොකකට": 6500,
      "වපතට": 6501,
      "පරතසථාපනය": 6502,
      "ගැහැණ": 6503,
      "තෙඳනාන": 6504,
      "අඟහරවාදා": 6505,
      "ජලාපවහන": 6506,
      "යථාරථවාද": 6507,
      "scorecard": 6508,
      "තරගමාලාවෙ": 6509,
      "තරකණාමලය": 6510,
      "piacse": 6511,
      "උපයොග": 6512,
      "ගඩොල": 6513,
      "චතතවෙ": 6514,
      "ටෑං": 6515,
      "රොදයක": 6516,
      "ලසනත": 6517,
      "වලාකළ": 6518,
      "ෆෙඩරල": 6519,
      "වැලමඩ": 6520,
      "අනදැන": 6521,
      "අමරාවත": 6522,
      "පටපසන": 6523,
      "දැවැනතම": 6524,
      "කාංසාව": 6525,
      "අභපරෙරණ": 6526,
      "වැටලමක": 6527,
      "ෆරෑනකලන": 6528,
      "ඩොලෆනස": 6529,
      "සාපෙකෂතාවාදය": 6530,
      "periodic": 6531,
      "අභයාචනාධකරණය": 6532,
      "වෙහෙසක": 6533,
      "ඇඹලපටය": 6534,
      "ගරෑනඩපාස": 6535,
      "fantasy": 6536,
      "zhu": 6537,
      "අහතකර": 6538,
      "ආවෙනක": 6539,
      "ඇෆගන": 6540,
      "ඔමකරොන": 6541,
      "ඡායා": 6542,
      "ජයතලක": 6543,
      "තෑග": 6544,
      "තානාපත": 6545,
      "තකකාල": 6546,
      "නසකලංක": 6547,
      "බදයදන": 6548,
      "භාජනය": 6549,
      "මයනමාර": 6550,
      "යඨාල": 6551,
      "යවරජ": 6552,
      "රංජත": 6553,
      "රොරොයයා": 6554,
      "සබඳතා": 6555,
      "සොහොය": 6556,
      "හපතලෙ": 6557,
      "ෙබකං": 6558,
      "සමබාධක": 6559,
      "සමෘදධමත": 6560,
      "පරතවරදධ": 6561,
      "පරමයර": 6562,
      "පරමාරථය": 6563,
      "පැතකඩ": 6564,
      "කොරොනාවෛ": 6565,
      "තරසතවාදය": 6566,
      "හොංකොං": 6567,
      "මලාරමභය": 6568,
      "හැඳනමපත": 6569,
      "මාලදවයන": 6570,
      "ඇමොනයම": 6571,
      "සපගසකනද": 6572,
      "danujayaofficial": 6573,
      "මයකරොසොෆට": 6574,
      "piacsek": 6575,
      "2වන": 6576,
      "34": 6577,
      "33": 6578,
      "46": 6579,
      "43": 6580,
      "40ක": 6581,
      "56": 6582,
      "54": 6583,
      "53": 6584,
      "582": 6585,
      "72": 6586,
      "93": 6587,
      "award": 6588,
      "b7": 6589,
      "bey": 6590,
      "co": 6591,
      "cc": 6592,
      "can": 6593,
      "car": 6594,
      "col": 6595,
      "cid": 6596,
      "clow": 6597,
      "cdb": 6598,
      "di": 6599,
      "dur": 6600,
      "dir": 6601,
      "dash": 6602,
      "el": 6603,
      "ed": 6604,
      "ec": 6605,
      "fe": 6606,
      "fu": 6607,
      "fle": 6608,
      "foc": 6609,
      "ga": 6610,
      "hi": 6611,
      "ha": 6612,
      "hom": 6613,
      "hum": 6614,
      "if": 6615,
      "jal": 6616,
      "james": 6617,
      "ka": 6618,
      "kh": 6619,
      "klob": 6620,
      "mon": 6621,
      "mil": 6622,
      "mis": 6623,
      "met": 6624,
      "manu": 6625,
      "mich": 6626,
      "na": 6627,
      "ol": 6628,
      "pə": 6629,
      "par": 6630,
      "pas": 6631,
      "pos": 6632,
      "rv": 6633,
      "rel": 6634,
      "sq": 6635,
      "sec": 6636,
      "sau": 6637,
      "sox": 6638,
      "t20": 6639,
      "us": 6640,
      "ur": 6641,
      "val": 6642,
      "vir": 6643,
      "we": 6644,
      "wh": 6645,
      "wil": 6646,
      "york": 6647,
      "අකර": 6648,
      "අවල": 6649,
      "අවය": 6650,
      "අමත": 6651,
      "අගත": 6652,
      "අකරම": 6653,
      "අකණ": 6654,
      "ආරය": 6655,
      "ආවරණ": 6656,
      "ආසයාව": 6657,
      "ආගමෙ": 6658,
      "ආපදා": 6659,
      "ඇර": 6660,
      "ඇසත": 6661,
      "ඇතවය": 6662,
      "ඇසල": 6663,
      "ඇදම": 6664,
      "ඇඩම": 6665,
      "ඉඳ": 6666,
      "ඉවර": 6667,
      "ඉංග": 6668,
      "ඉතය": 6669,
      "ඉකත": 6670,
      "ඊශර": 6671,
      "උදධ": 6672,
      "උඳන": 6673,
      "ඌව": 6674,
      "ඍණ": 6675,
      "ඍජව": 6676,
      "එඩ": 6677,
      "එප": 6678,
      "එෆ": 6679,
      "එනෙ": 6680,
      "එතෙක": 6681,
      "ඒඑල": 6682,
      "ඔන": 6683,
      "ඔර": 6684,
      "ඔයන": 6685,
      "ඔරො": 6686,
      "ඔසටර": 6687,
      "ඔපප": 6688,
      "ඔලව": 6689,
      "කං": 6690,
      "කවා": 6691,
      "කෙක": 6692,
      "කතක": 6693,
      "කකල": 6694,
      "කංච": 6695,
      "කලයය": 6696,
      "ගහ": 6697,
      "ගං": 6698,
      "ගවා": 6699,
      "ගණයක": 6700,
      "චංච": 6701,
      "චපප": 6702,
      "චාලක": 6703,
      "ජවලන": 6704,
      "ජෙම": 6705,
      "ජවනගෙ": 6706,
      "ඥාතන": 6707,
      "ටැ": 6708,
      "ටෙක": 6709,
      "ටයට": 6710,
      "ටරම": 6711,
      "ටොක": 6712,
      "ටොන": 6713,
      "ටරො": 6714,
      "ටොම": 6715,
      "ඩමබ": 6716,
      "තට": 6717,
      "තස": 6718,
      "තණ": 6719,
      "තලල": 6720,
      "තාක": 6721,
      "තණක": 6722,
      "තොම": 6723,
      "තැත": 6724,
      "තානතරක": 6725,
      "දවා": 6726,
      "දගෙ": 6727,
      "දමය": 6728,
      "දඹර": 6729,
      "දවරම": 6730,
      "ධාවක": 6731,
      "නඟ": 6732,
      "නමා": 6733,
      "නාට": 6734,
      "නකොට": 6735,
      "නතවලට": 6736,
      "පශ": 6737,
      "පනන": 6738,
      "පයා": 6739,
      "පහා": 6740,
      "පෙෂ": 6741,
      "පතක": 6742,
      "පංච": 6743,
      "පලලෙ": 6744,
      "පශච": 6745,
      "ඵලක": 6746,
      "බාන": 6747,
      "බයෙන": 6748,
      "බසර": 6749,
      "බසව": 6750,
      "බටල": 6751,
      "බඩල": 6752,
      "බදාම": 6753,
      "බොතල": 6754,
      "භය": 6755,
      "භෙද": 6756,
      "මථ": 6757,
      "මයට": 6758,
      "මරම": 6759,
      "මතය": 6760,
      "මොග": 6761,
      "මාධ": 6762,
      "මාලන": 6763,
      "මයය": 6764,
      "මකළ": 6765,
      "මකණ": 6766,
      "මාවත": 6767,
      "යක": 6768,
      "යවා": 6769,
      "යකර": 6770,
      "යදා": 6771,
      "යගය": 6772,
      "යොන": 6773,
      "යකතය": 6774,
      "රක": 6775,
      "රග": 6776,
      "රතව": 6777,
      "රබන": 6778,
      "රයන": 6779,
      "රසක": 6780,
      "රවම": 6781,
      "රංජන": 6782,
      "ලපය": 6783,
      "ලෙය": 6784,
      "ලොජ": 6785,
      "ලවමට": 6786,
      "ලකෂණය": 6787,
      "වඥ": 6788,
      "වදන": 6789,
      "වකට": 6790,
      "වංශය": 6791,
      "වගරහ": 6792,
      "වෑන": 6793,
      "ව20": 6794,
      "වතකම": 6795,
      "වලලය": 6796,
      "වානෙ": 6797,
      "වයකත": 6798,
      "ශශන": 6799,
      "ශෂණය": 6800,
      "ශෂණ": 6801,
      "ෂොල": 6802,
      "සෙස": 6803,
      "සවෙ": 6804,
      "සගර": 6805,
      "සසල": 6806,
      "සබර": 6807,
      "සඩන": 6808,
      "සපන": 6809,
      "සබස": 6810,
      "සොකස": 6811,
      "හැන": 6812,
      "හරය": 6813,
      "හසත": 6814,
      "හසර": 6815,
      "හාවර": 6816,
      "ළණ": 6817,
      "ෆල": 6818,
      "ෆැන": 6819,
      "ෆලඩ": 6820,
      "##යංග": 6821,
      "##යමන": 6822,
      "##යෑමට": 6823,
      "##කඳ": 6824,
      "##කාල": 6825,
      "##කමෙන": 6826,
      "##කසන": 6827,
      "##කකම": 6828,
      "##ෙඩ": 6829,
      "##ෙකර": 6830,
      "##ෙලෙ": 6831,
      "##ාගත": 6832,
      "##ාසකම": 6833,
      "##ෑමෙන": 6834,
      "##සාන": 6835,
      "##සාද": 6836,
      "##සදධ": 6837,
      "##සබෑ": 6838,
      "##සපරස": 6839,
      "##මඩ": 6840,
      "##මතව": 6841,
      "##මාලාව": 6842,
      "##හලල": 6843,
      "##හයම": 6844,
      "##වො": 6845,
      "##වයට": 6846,
      "##වමත": 6847,
      "##වවද": 6848,
      "##වකාශ": 6849,
      "##ගක": 6850,
      "##ගහ": 6851,
      "##ගං": 6852,
      "##ගනන": 6853,
      "##ගයක": 6854,
      "##ඳනන": 6855,
      "##ඳපොලවල": 6856,
      "##io": 6857,
      "##ix": 6858,
      "##ius": 6859,
      "##ne": 6860,
      "##ns": 6861,
      "##ලයෙන": 6862,
      "##ලාල": 6863,
      "##ලතා": 6864,
      "##ලයෙද": 6865,
      "##ලතාවය": 6866,
      "##නාවක": 6867,
      "##නයෙද": 6868,
      "##ෂකයන": 6869,
      "##ණයන": 6870,
      "##ණරාගල": 6871,
      "##දලක": 6872,
      "##දෂණය": 6873,
      "##දහසකට": 6874,
      "##භෙද": 6875,
      "##තප": 6876,
      "##තමා": 6877,
      "##තැබ": 6878,
      "##ඩට": 6879,
      "##ඩඩ": 6880,
      "##ඩයාව": 6881,
      "##රත": 6882,
      "##රෙන": 6883,
      "##රාන": 6884,
      "##my": 6885,
      "##mb": 6886,
      "##man": 6887,
      "##ming": 6888,
      "##gu": 6889,
      "##gor": 6890,
      "##gun": 6891,
      "##site": 6892,
      "##ැවත": 6893,
      "##ැදම": 6894,
      "##ැලලෙ": 6895,
      "##පාව": 6896,
      "##පාන": 6897,
      "##පෙර": 6898,
      "##පහස": 6899,
      "##ජෙහ": 6900,
      "##ධයෙ": 6901,
      "##ධරය": 6902,
      "##rt": 6903,
      "##vent": 6904,
      "##ශා": 6905,
      "##ශයෙ": 6906,
      "##ශයා": 6907,
      "##ශංක": 6908,
      "##ශචත": 6909,
      "##oist": 6910,
      "##pn": 6911,
      "##ps": 6912,
      "##pr": 6913,
      "##put": 6914,
      "##lc": 6915,
      "##ly": 6916,
      "##බැක": 6917,
      "##බවන": 6918,
      "##බෙර": 6919,
      "##බලන": 6920,
      "##බහල": 6921,
      "##ඹක": 6922,
      "##ඹා": 6923,
      "##40": 6924,
      "##4°": 6925,
      "##32": 6926,
      "##3°": 6927,
      "##ඟයට": 6928,
      "##ෆය": 6929,
      "##ෆෙට": 6930,
      "##චල": 6931,
      "##ca": 6932,
      "##ybe": 6933,
      "##bwh": 6934,
      "##1ක": 6935,
      "##12": 6936,
      "##19": 6937,
      "##11": 6938,
      "##ze": 6939,
      "##එළය": 6940,
      "##ොපය": 6941,
      "##ොලය": 6942,
      "##ොෆර": 6943,
      "##ෙනත": 6944,
      "##ෙනවා": 6945,
      "කරක": 6946,
      "කරල": 6947,
      "කරප": 6948,
      "කරවල": 6949,
      "##ාවා": 6950,
      "##ාවො": 6951,
      "##ාවාස": 6952,
      "##ාරක": 6953,
      "##ාරථක": 6954,
      "input": 6955,
      "සමෙ": 6956,
      "සමකරණය": 6957,
      "සමපාදනය": 6958,
      "සමෙනත": 6959,
      "පරතර": 6960,
      "පරමන": 6961,
      "පරකාර": 6962,
      "පරාම": 6963,
      "පරාජ": 6964,
      "පරකෂණය": 6965,
      "පරබොධ": 6966,
      "පරගතය": 6967,
      "##නනන": 6968,
      "##යකරණය": 6969,
      "##ාතත": 6970,
      "##ානෂක": 6971,
      "සහම": 6972,
      "සහයක": 6973,
      "සහනය": 6974,
      "සහසර": 6975,
      "##තවම": 6976,
      "##තවරය": 6977,
      "වසමත": 6978,
      "වසමෙ": 6979,
      "වසඟයට": 6980,
      "කරමත": 6981,
      "කරමවල": 6982,
      "කරමයය": 6983,
      "කරමානතය": 6984,
      "##යාස": 6985,
      "##යාගොඩ": 6986,
      "ඇතලත": 6987,
      "ඇතලලම": 6988,
      "ඇතැමන": 6989,
      "##ැනක": 6990,
      "##ැනස": 6991,
      "##ැනඩර": 6992,
      "සමබනධය": 6993,
      "සමබනධක": 6994,
      "සමබනධත": 6995,
      "සමබනධයක": 6996,
      "##වාදන": 6997,
      "##කරො": 6998,
      "##කරගත": 6999,
      "##කරසට": 7000,
      "##කරගැනමට": 7001,
      "##නයය": 7002,
      "##වනතව": 7003,
      "වසතරය": 7004,
      "##හාඩ": 7005,
      "මෙල": 7006,
      "මෙලෙස": 7007,
      "මෙවාත": 7008,
      "මාතෘකා": 7009,
      "වෙවා": 7010,
      "වෙදන": 7011,
      "##මටර": 7012,
      "##මටගොඩ": 7013,
      "##වතාන": 7014,
      "##වතසතර": 7015,
      "##මකාම": 7016,
      "වනද": 7017,
      "වනයෙ": 7018,
      "වනතෙක": 7019,
      "වැවෙ": 7020,
      "වැසස": 7021,
      "සඳට": 7022,
      "##වසන": 7023,
      "##වරඩ": 7024,
      "##වරධ": 7025,
      "##ෙකට": 7026,
      "සංහ": 7027,
      "සංච": 7028,
      "සංකෂ": 7029,
      "සංයොග": 7030,
      "සංගණ": 7031,
      "සංවරධ": 7032,
      "බවද": 7033,
      "##පතය": 7034,
      "##යටද": 7035,
      "සඳහාද": 7036,
      "කළහොත": 7037,
      "අනතත": 7038,
      "අනමත": 7039,
      "අනලා": 7040,
      "අනකම": 7041,
      "අනොනය": 7042,
      "අනවසර": 7043,
      "හැකව": 7044,
      "හැකනම": 7045,
      "පළස": 7046,
      "පළකරන": 7047,
      "පැදම": 7048,
      "පැරස": 7049,
      "එකතරා": 7050,
      "##කාය": 7051,
      "##කාම": 7052,
      "##කාමන": 7053,
      "කොක": 7054,
      "කොස": 7055,
      "කොහ": 7056,
      "කොර": 7057,
      "කොවල": 7058,
      "සටරො": 7059,
      "තරවක": 7060,
      "තරාස": 7061,
      "තරජන": 7062,
      "තරපද": 7063,
      "තරජනය": 7064,
      "හොඃ": 7065,
      "හොරණ": 7066,
      "හොටඩ": 7067,
      "##මනස": 7068,
      "කරනල": 7069,
      "පොළඹ": 7070,
      "පොෂය": 7071,
      "පොතවල": 7072,
      "පොෂක": 7073,
      "පොසපරස": 7074,
      "##දාංශ": 7075,
      "වරය": 7076,
      "වරන": 7077,
      "##වෙල": 7078,
      "##වෙමන": 7079,
      "##වෙතත": 7080,
      "##වෙලා": 7081,
      "##වෙලට": 7082,
      "නොස": 7083,
      "නොප": 7084,
      "නොසට": 7085,
      "නොදම": 7086,
      "නොකරය": 7087,
      "නොගැනම": 7088,
      "##කාරමක": 7089,
      "ශරරය": 7090,
      "ශරතාවය": 7091,
      "ශරාණ": 7092,
      "ගැනවම": 7093,
      "ගැනවමට": 7094,
      "##තතල": 7095,
      "##තතාව": 7096,
      "බලට": 7097,
      "බලයෙන": 7098,
      "බලගත": 7099,
      "බලවෙගයෙ": 7100,
      "වයසෙ": 7101,
      "සදධාන": 7102,
      "සදකරම": 7103,
      "සදදක": 7104,
      "සදකෙර": 7105,
      "මලම": 7106,
      "වැඩණ": 7107,
      "වැඩවන": 7108,
      "වැඩවය": 7109,
      "වැඩකරන": 7110,
      "වැඩමළ": 7111,
      "වැඩපරම": 7112,
      "##ගතාව": 7113,
      "##ගතයන": 7114,
      "කරයාවට": 7115,
      "##මෙෂ": 7116,
      "දෙමන": 7117,
      "දෙවය": 7118,
      "දෙහය": 7119,
      "දෙවාලය": 7120,
      "දෙමටගොඩ": 7121,
      "පසවර": 7122,
      "පසබට": 7123,
      "යනතරය": 7124,
      "සෙපාල": 7125,
      "වෙනම": 7126,
      "##සකන": 7127,
      "##ලයගොඩ": 7128,
      "සැර": 7129,
      "සැළ": 7130,
      "සැරස": 7131,
      "අවප": 7132,
      "අවයක": 7133,
      "ජනවා": 7134,
      "ජනබලය": 7135,
      "ජනාවාස": 7136,
      "උපකරණය": 7137,
      "උපකලපනය": 7138,
      "අමම": 7139,
      "අමතා": 7140,
      "අමානෂක": 7141,
      "20ය": 7142,
      "අදහසය": 7143,
      "අධයන": 7144,
      "අධවෙග": 7145,
      "පවසනනය": 7146,
      "අතකර": 7147,
      "පරතමා": 7148,
      "##ෙෂා": 7149,
      "##වකගෙ": 7150,
      "හෙලක": 7151,
      "හෙලස": 7152,
      "වසනත": 7153,
      "##ොකො": 7154,
      "##වැලල": 7155,
      "##වැතම": 7156,
      "##වැඩයාව": 7157,
      "පාරක": 7158,
      "##ශයාව": 7159,
      "මහම": 7160,
      "මහයංග": 7161,
      "හැසර": 7162,
      "අපව": 7163,
      "ඉනදර": 7164,
      "මැකරො": 7165,
      "නැට": 7166,
      "නැතව": 7167,
      "නැඹර": 7168,
      "නැදද": 7169,
      "දරශනය": 7170,
      "දරනනා": 7171,
      "දරවනට": 7172,
      "දරගැනවම": 7173,
      "මනම": 7174,
      "මනදා": 7175,
      "ගොවා": 7176,
      "ගොවතැන": 7177,
      "##ෙයාර": 7178,
      "##ෙයබාන": 7179,
      "දනට": 7180,
      "දනෙෂ": 7181,
      "දනවනන": 7182,
      "දනවලද": 7183,
      "ඔබව": 7184,
      "අවසසන": 7185,
      "පෙල": 7186,
      "පෙබර": 7187,
      "පෙටටය": 7188,
      "##තවරයක": 7189,
      "හමවන": 7190,
      "හමයනට": 7191,
      "##ane": 7192,
      "නමවා": 7193,
      "සයයට": 7194,
      "සථාපනය": 7195,
      "සථාපත": 7196,
      "අඩවම": 7197,
      "අඩංගවට": 7198,
      "කාලයත": 7199,
      "කාලසම": 7200,
      "කැකර": 7201,
      "කැණම": 7202,
      "කැමතය": 7203,
      "නයැල": 7204,
      "රාජා": 7205,
      "රාජව": 7206,
      "රාජකය": 7207,
      "රාජවංශ": 7208,
      "##ාවෙද": 7209,
      "ඔහගෙන": 7210,
      "නරකෂණ": 7211,
      "නරෙනදර": 7212,
      "##ott": 7213,
      "##ero": 7214,
      "##erc": 7215,
      "##ering": 7216,
      "##ine": 7217,
      "##සටල": 7218,
      "යොනය": 7219,
      "යොදන": 7220,
      "පරදෙශයට": 7221,
      "ගතතා": 7222,
      "##ෙදනය": 7223,
      "ගෙනවා": 7224,
      "වලසන": 7225,
      "වලාස": 7226,
      "සරණ": 7227,
      "සරැක": 7228,
      "සරසත": 7229,
      "සරණා": 7230,
      "සරතල": 7231,
      "දෙනනය": 7232,
      "දෙනකට": 7233,
      "කටාර": 7234,
      "මතට": 7235,
      "මතසය": 7236,
      "මතභෙද": 7237,
      "කොටව": 7238,
      "කොටඨා": 7239,
      "ගැස": 7240,
      "ගැල": 7241,
      "ගැහැන": 7242,
      "බැලය": 7243,
      "බැසල": 7244,
      "සවද": 7245,
      "සවපහස": 7246,
      "##නමය": 7247,
      "පතකරන": 7248,
      "පතකරමට": 7249,
      "අනතරදායක": 7250,
      "ආරකෂණ": 7251,
      "පටක": 7252,
      "පටවක": 7253,
      "පටපස": 7254,
      "පටහැන": 7255,
      "පොලම": 7256,
      "සොස": 7257,
      "සොදන": 7258,
      "සොදස": 7259,
      "##මයම": 7260,
      "අයස": 7261,
      "අයව": 7262,
      "අයැද": 7263,
      "##ාගාර": 7264,
      "හරෂණ": 7265,
      "හරහැර": 7266,
      "පවතනනෙ": 7267,
      "බරයන": 7268,
      "බරසල": 7269,
      "වරගයා": 7270,
      "ගණවරධන": 7271,
      "දැය": 7272,
      "දැරම": 7273,
      "දැමණ": 7274,
      "##කමොල": 7275,
      "##ලෙඛ": 7276,
      "##arn": 7277,
      "##ark": 7278,
      "රජව": 7279,
      "රජවර": 7280,
      "ඉනදයාවෙන": 7281,
      "රැළ": 7282,
      "රැවට": 7283,
      "රැහැන": 7284,
      "වශයෙනම": 7285,
      "ගනනැය": 7286,
      "වසරක": 7287,
      "වසරවා": 7288,
      "##ong": 7289,
      "##ond": 7290,
      "කාඩ": 7291,
      "කාළ": 7292,
      "වයාකල": 7293,
      "වාරණ": 7294,
      "සභක": 7295,
      "සභාවක": 7296,
      "##ale": 7297,
      "වැදදන": 7298,
      "ජාතකයෙක": 7299,
      "සාමපල": 7300,
      "පරධානයා": 7301,
      "පරකාශනයක": 7302,
      "දෙශපාල": 7303,
      "දෙශපාලනය": 7304,
      "තනව": 7305,
      "තනකට": 7306,
      "නෂපාදතය": 7307,
      "මරාද": 7308,
      "අමාතයවරන": 7309,
      "පෙනවන": 7310,
      "පෙනමක": 7311,
      "පෙනවය": 7312,
      "මටරයක": 7313,
      "මටයාගොඩ": 7314,
      "##දෙනන": 7315,
      "හෙතවන": 7316,
      "##ature": 7317,
      "අවශයද": 7318,
      "2016": 7319,
      "දෙකෙ": 7320,
      "යතද": 7321,
      "කලොමට": 7322,
      "ඉදරයෙන": 7323,
      "නතගත": 7324,
      "රටවලට": 7325,
      "##ick": 7326,
      "සතපය": 7327,
      "##ටරල": 7328,
      "##ටරො": 7329,
      "##ටරයක": 7330,
      "##ටරයා": 7331,
      "##enn": 7332,
      "##ධනහලල": 7333,
      "පනතර": 7334,
      "පනවා": 7335,
      "පනකඩ": 7336,
      "අභබ": 7337,
      "අභාව": 7338,
      "අභලෙඛන": 7339,
      "ගරෑම": 7340,
      "ජයගැනමට": 7341,
      "ජයගරාහ": 7342,
      "අපරස": 7343,
      "සොයාගනනා": 7344,
      "##ොලාන": 7345,
      "දයවැඩයාව": 7346,
      "රොගයක": 7347,
      "අරබදය": 7348,
      "අරාබ": 7349,
      "##usic": 7350,
      "1000": 7351,
      "ආණඩවෙන": 7352,
      "දැකවෙන": 7353,
      "##acam": 7354,
      "සථානවල": 7355,
      "ගනධ": 7356,
      "ගනධනහලල": 7357,
      "##මැද": 7358,
      "##ess": 7359,
      "වගාව": 7360,
      "වෙතට": 7361,
      "ජවතයක": 7362,
      "පරවතර": 7363,
      "ආසාදන": 7364,
      "අලගැ": 7365,
      "හටගත": 7366,
      "##ෙලට": 7367,
      "තරඟයක": 7368,
      "පැමණම": 7369,
      "පැමණලලක": 7370,
      "ජනාධපතධර": 7371,
      "ඉගෙනමට": 7372,
      "සාමකාම": 7373,
      "භාවතයක": 7374,
      "පරාකරමබාහ": 7375,
      "ලංගම": 7376,
      "සනනද": 7377,
      "වැදගතම": 7378,
      "පාසලෙ": 7379,
      "නායකයන": 7380,
      "පාඩ": 7381,
      "මනතරවරයා": 7382,
      "පොලසපතවර": 7383,
      "ආහාරයකට": 7384,
      "මෙහෙමය": 7385,
      "##ෙකෂත": 7386,
      "මාරගයට": 7387,
      "ඉවතලන": 7388,
      "දවයනට": 7389,
      "වෛදයවරයා": 7390,
      "වෛදයවරයක": 7391,
      "යෙදෙන": 7392,
      "යෙදමෙන": 7393,
      "සමාජයෙ": 7394,
      "පරදානය": 7395,
      "පැවැතවමෙ": 7396,
      "පාලම": 7397,
      "තරණයට": 7398,
      "මැතවරණයෙ": 7399,
      "මැතවරණයෙද": 7400,
      "මටටකකලය": 7401,
      "වදයාඥ": 7402,
      "වදයාලය": 7403,
      "වදයාගාර": 7404,
      "කරඩාවක": 7405,
      "කරඩාවෙ": 7406,
      "කරඩකයා": 7407,
      "සෙවයෙ": 7408,
      "සෙවාවෙ": 7409,
      "වෙළඳපොළ": 7410,
      "කෙසෙල": 7411,
      "කාරයයට": 7412,
      "කාරයබහල": 7413,
      "මාධයයක": 7414,
      "##මනාදන": 7415,
      "කොළඹට": 7416,
      "නගරයෙද": 7417,
      "නගරාධපත": 7418,
      "නගරාධපතවර": 7419,
      "කොමසමක": 7420,
      "පැවසවෙය": 7421,
      "පැවසවාය": 7422,
      "කඩවතසතර": 7423,
      "කඩොලාන": 7424,
      "දසවන": 7425,
      "මණඩය": 7426,
      "උදගතව": 7427,
      "උදෙසා": 7428,
      "ජලතාප": 7429,
      "කවයක": 7430,
      "කවආර": 7431,
      "බවතය": 7432,
      "වකල": 7433,
      "වෙබඅඩ": 7434,
      "##ලනතයෙ": 7435,
      "කරණාව": 7436,
      "කරණාට": 7437,
      "පැවතන": 7438,
      "පැවතණ": 7439,
      "අයතන": 7440,
      "අංශයට": 7441,
      "මයගය": 7442,
      "මයසර": 7443,
      "##බැඳම": 7444,
      "නොහැකය": 7445,
      "නැවතම": 7446,
      "ශාකය": 7447,
      "ශාකයට": 7448,
      "සමතලත": 7449,
      "දෙනෙකට": 7450,
      "##කලපත": 7451,
      "පරසරයට": 7452,
      "this": 7453,
      "සාරව": 7454,
      "සපරශය": 7455,
      "පරහාරයකන": 7456,
      "නලධාරනගෙ": 7457,
      "නලධාරයෙකට": 7458,
      "ලැයසතවට": 7459,
      "නවසලනතය": 7460,
      "වායදෂණය": 7461,
      "ජාලයෙ": 7462,
      "ජාලකරණ": 7463,
      "මාසයෙහද": 7464,
      "මධයසථ": 7465,
      "මධයසාර": 7466,
      "##පොසපෙට": 7467,
      "පරමාව": 7468,
      "කළමනාකර": 7469,
      "නොමැතකම": 7470,
      "කයවම": 7471,
      "කයවමෙ": 7472,
      "තමනව": 7473,
      "තමනගෙ": 7474,
      "කරයාවලයෙ": 7475,
      "පරතකාරයෙ": 7476,
      "නයමයන": 7477,
      "පාසලවල": 7478,
      "පවතවනන": 7479,
      "මදලට": 7480,
      "රාශ": 7481,
      "##ගරහණය": 7482,
      "වයාපාරයෙ": 7483,
      "යනනය": 7484,
      "යනනෙන": 7485,
      "ශකතයක": 7486,
      "##යමස": 7487,
      "වැටණ": 7488,
      "වැටමෙන": 7489,
      "වැටහණ": 7490,
      "තරණයෙක": 7491,
      "යොදාගෙන": 7492,
      "මොඩ": 7493,
      "මොළ": 7494,
      "මොණරාගල": 7495,
      "සාදා": 7496,
      "කෙසෙවවද": 7497,
      "කෙසෙවෙතත": 7498,
      "දෙපාරතමෙනතවෙ": 7499,
      "එලලව": 7500,
      "කෂරප": 7501,
      "##urr": 7502,
      "##ures": 7503,
      "##urch": 7504,
      "ජනතාවගෙන": 7505,
      "පරමාණයෙන": 7506,
      "අසාද": 7507,
      "අසවැනන": 7508,
      "අසාරථක": 7509,
      "යාතර": 7510,
      "රථය": 7511,
      "රථයට": 7512,
      "මලකාලන": 7513,
      "දැඩව": 7514,
      "පරවෙශයක": 7515,
      "16ක": 7516,
      "160": 7517,
      "187": 7518,
      "186": 7519,
      "185": 7520,
      "හැකයාවය": 7521,
      "තලද": 7522,
      "තලාන": 7523,
      "තලෙයබාන": 7524,
      "අවසානයෙද": 7525,
      "ලකෂමන": 7526,
      "ලකෂණයක": 7527,
      "එකතැන": 7528,
      "පහණකර": 7529,
      "ජනාධපතවරයාගෙ": 7530,
      "ජනාධපතවරණයෙද": 7531,
      "110": 7532,
      "1111": 7533,
      "ang": 7534,
      "රැකවරණය": 7535,
      "රැකවරණ": 7536,
      "රැකබලා": 7537,
      "සමමතය": 7538,
      "සමමතවාද": 7539,
      "පරශනවලට": 7540,
      "වරධනයට": 7541,
      "ශෂයයෙක": 7542,
      "තබණද": 7543,
      "අධයයනයන": 7544,
      "අධයයනයට": 7545,
      "12ක": 7546,
      "කෙනදරය": 7547,
      "කලාතරකන": 7548,
      "තැනක": 7549,
      "තැනට": 7550,
      "නසාය": 7551,
      "මසොලන": 7552,
      "මතරා": 7553,
      "සංඛයාතමක": 7554,
      "සංචාරකයනගෙ": 7555,
      "වශවාසයක": 7556,
      "වශවාසයට": 7557,
      "බෙදාගත": 7558,
      "උදාහරණය": 7559,
      "හඳනවාද": 7560,
      "යනතරයක": 7561,
      "යනතරයෙන": 7562,
      "ආරථකයට": 7563,
      "ඇමසන": 7564,
      "දෙසන": 7565,
      "වාඩ": 7566,
      "##වනනැය": 7567,
      "එළයට": 7568,
      "පහරදම": 7569,
      "පහරදමට": 7570,
      "පහරදමෙ": 7571,
      "##පළෙ": 7572,
      "සාකෂය": 7573,
      "කරයාකාරකමවල": 7574,
      "ඒකාබදධතාවය": 7575,
      "iso": 7576,
      "ඒකකය": 7577,
      "දොෂය": 7578,
      "දොමනස": 7579,
      "දනාගැනමට": 7580,
      "නශශංක": 7581,
      "නතයානකල": 7582,
      "බණඩාරගම": 7583,
      "ගැනමෙද": 7584,
      "මෙහෙයවන": 7585,
      "ඉටස": 7586,
      "රොහණ": 7587,
      "##දෙව": 7588,
      "##දෙණය": 7589,
      "සහතකය": 7590,
      "සහතකයක": 7591,
      "සටයහ": 7592,
      "2023": 7593,
      "##තාවකට": 7594,
      "වෙලඳපොලවල": 7595,
      "කැපම": 7596,
      "252": 7597,
      "starb": 7598,
      "starl": 7599,
      "ආලොකයට": 7600,
      "ආලොකමත": 7601,
      "තදස": 7602,
      "තදබදය": 7603,
      "නඩවක": 7604,
      "බඳත": 7605,
      "රසවෙලට": 7606,
      "සතනගෙන": 7607,
      "##rev": 7608,
      "පරකෂාව": 7609,
      "බැංකවට": 7610,
      "ඉරඟ": 7611,
      "ඉරාන": 7612,
      "ඉරදා": 7613,
      "බදාදා": 7614,
      "බොටට": 7615,
      "ලයනනෙ": 7616,
      "වහනසෙගෙ": 7617,
      "වයවසථා": 7618,
      "1999": 7619,
      "1993": 7620,
      "1946": 7621,
      "1943": 7622,
      "1940": 7623,
      "ඇමරකා": 7624,
      "පතරයක": 7625,
      "පතරොම": 7626,
      "යාමෙද": 7627,
      "රොදය": 7628,
      "රොඩර": 7629,
      "වාසයක": 7630,
      "##ණාභරණ": 7631,
      "##unt": 7632,
      "බලයලත": 7633,
      "දෙදෙනෙකට": 7634,
      "කණඩායමෙහ": 7635,
      "කාණඩය": 7636,
      "ගැටලවක": 7637,
      "බාහරතා": 7638,
      "බාහරතාවයක": 7639,
      "comp": 7640,
      "comedy": 7641,
      "අගනදග": 7642,
      "ඇරඹෙ": 7643,
      "ඇරඹම": 7644,
      "ඇරඹෙය": 7645,
      "කාමර": 7646,
      "නපදවය": 7647,
      "වහද": 7648,
      "වහදෙ": 7649,
      "සෘණ": 7650,
      "සතරයක": 7651,
      "##ula": 7652,
      "##චචට": 7653,
      "1986": 7654,
      "1984": 7655,
      "1983": 7656,
      "කාචයන": 7657,
      "කාචයනහ": 7658,
      "මහාචාරයවරයා": 7659,
      "140": 7660,
      "ගතතෙම": 7661,
      "නයාමන": 7662,
      "හානයට": 7663,
      "##ෑනස": 7664,
      "ශරෙණය": 7665,
      "ගොනවලට": 7666,
      "ගොඩබෑම": 7667,
      "ලැබෙනනෙ": 7668,
      "සාමාජකයා": 7669,
      "සාමාජකයනට": 7670,
      "අපරාධකරවන": 7671,
      "බනධනාගාරයෙ": 7672,
      "##ide": 7673,
      "##ography": 7674,
      "##තරමලල": 7675,
      "සංකරණතවය": 7676,
      "අංගනයෙ": 7677,
      "අහමඩ": 7678,
      "ආදරශ": 7679,
      "නවකොමබ": 7680,
      "පනදව": 7681,
      "පනදවාර": 7682,
      "හතකර": 7683,
      "##ages": 7684,
      "##agna": 7685,
      "##බාධත": 7686,
      "වසඳය": 7687,
      "වසඳමක": 7688,
      "අතරතරද": 7689,
      "1965": 7690,
      "1964": 7691,
      "1954": 7692,
      "ලොකඩවන": 7693,
      "පලබඳව": 7694,
      "ශකතමතම": 7695,
      "හවමාරවක": 7696,
      "ආචාරයවරනගෙ": 7697,
      "කමකර": 7698,
      "කමපන": 7699,
      "කතොලක": 7700,
      "දෘශයා": 7701,
      "දලලයෙ": 7702,
      "බයර": 7703,
      "බයසකල": 7704,
      "මදරණ": 7705,
      "වඳනන": 7706,
      "වඳමට": 7707,
      "වඳමන": 7708,
      "වාතව": 7709,
      "සවරපයෙන": 7710,
      "සවරණාභරණ": 7711,
      "සාධාර": 7712,
      "සාධනය": 7713,
      "##දකවන": 7714,
      "පරණාමය": 7715,
      "සංකෙ": 7716,
      "එකනෙකාට": 7717,
      "මනසෙක": 7718,
      "##දෙනාගෙ": 7719,
      "පරාණයෙ": 7720,
      "franc": 7721,
      "කටටලය": 7722,
      "දළදා": 7723,
      "නොතස": 7724,
      "හැඩයෙන": 7725,
      "හැඩැත": 7726,
      "හැඩගැ": 7727,
      "හැඩගස": 7728,
      "##ortal": 7729,
      "පාරලමෙනතවෙද": 7730,
      "සංවධානයක": 7731,
      "තැබය": 7732,
      "තැබමට": 7733,
      "තැබමකන": 7734,
      "අනාගමක": 7735,
      "ආයොජනය": 7736,
      "ඉතරකරමෙ": 7737,
      "චාරකා": 7738,
      "දායකතවයක": 7739,
      "නාමල": 7740,
      "යැවම": 7741,
      "වණෙම": 7742,
      "සැසයක": 7743,
      "අධකරණයෙන": 7744,
      "වකණමකරවන": 7745,
      "ගොඩනැගමට": 7746,
      "ගොඩනැගලල": 7747,
      "පරථමයෙන": 7748,
      "ඉදකර": 7749,
      "ඉදකරන": 7750,
      "ඛණඩයෙ": 7751,
      "ඛණඩනය": 7752,
      "තෙරප": 7753,
      "මදදර": 7754,
      "සංවරධනයට": 7755,
      "පැදවමෙ": 7756,
      "වරණවත": 7757,
      "උපදෙශක": 7758,
      "උපදෙශනය": 7759,
      "කරයාමාරගයක": 7760,
      "රැසවමෙ": 7761,
      "කෘෂකාරමක": 7762,
      "ජෛවමතක": 7763,
      "eng": 7764,
      "end": 7765,
      "අඟල": 7766,
      "ජවපෙ": 7767,
      "ජරමන": 7768,
      "ජරමනයෙ": 7769,
      "නළධාර": 7770,
      "මවපයන": 7771,
      "සනාම": 7772,
      "සනාසෙන": 7773,
      "හෙරත": 7774,
      "##abs": 7775,
      "##ocybe": 7776,
      "පරජාව": 7777,
      "පරගණකයක": 7778,
      "තබයද": 7779,
      "අමෙරකාව": 7780,
      "1923": 7781,
      "දරසථව": 7782,
      "වයාපතය": 7783,
      "වෛරසයක": 7784,
      "වෛරසයෙන": 7785,
      "වශවවදයාලය": 7786,
      "ගවෙෂණ": 7787,
      "බෙකජෙහ": 7788,
      "සෑදම": 7789,
      "සෑදමට": 7790,
      "හසාන": 7791,
      "##ගසවැව": 7792,
      "පරයෙෂ": 7793,
      "පරොකථන": 7794,
      "දරඝකාලන": 7795,
      "සථාවරභාව": 7796,
      "නරපණ": 7797,
      "##indu": 7798,
      "ලැබණෙ": 7799,
      "තාකෂණයන": 7800,
      "දොෂයක": 7801,
      "අහඹ": 7802,
      "ඉකමව": 7803,
      "කැනම": 7804,
      "ගඟෙ": 7805,
      "ගඟට": 7806,
      "ජපාන": 7807,
      "නවෙදනයෙ": 7808,
      "යහපැ": 7809,
      "රණතංග": 7810,
      "සකසන": 7811,
      "හඬන": 7812,
      "දරශනයක": 7813,
      "##antic": 7814,
      "කැමරාව": 7815,
      "පටතට": 7816,
      "උතසවය": 7817,
      "කෙසෙදැය": 7818,
      "කවදාද": 7819,
      "##ighting": 7820,
      "ආශාව": 7821,
      "තාරකක": 7822,
      "දඹල": 7823,
      "දකෂතාවය": 7824,
      "මංගලයය": 7825,
      "සොරබොර": 7826,
      "පරාගණය": 7827,
      "1935": 7828,
      "යොජනාවට": 7829,
      "සරටටවක": 7830,
      "අයදමපත": 7831,
      "අයදමකරවන": 7832,
      "වැළැකවමෙ": 7833,
      "වෙරළට": 7834,
      "clar": 7835,
      "ඔකසයඩ": 7836,
      "තදෙනෙකට": 7837,
      "දාහත": 7838,
      "දහමට": 7839,
      "දහමෙ": 7840,
      "දඩය": 7841,
      "දොරට": 7842,
      "දොරවල": 7843,
      "ධරමපරය": 7844,
      "නවතා": 7845,
      "නවරඑළය": 7846,
      "පාවා": 7847,
      "බදරදන": 7848,
      "ශශනයට": 7849,
      "##iflor": 7850,
      "##භාෂා": 7851,
      "සමාරක": 7852,
      "වැඩපළවෙල": 7853,
      "ජනරජයක": 7854,
      "සයැටලහ": 7855,
      "නයෂටක": 7856,
      "අලතගමගෙ": 7857,
      "අවසථාවෙද": 7858,
      "අපෙකෂකයාට": 7859,
      "සළඟෙ": 7860,
      "island": 7861,
      "වයටනාම": 7862,
      "අනයම": 7863,
      "අරමදලක": 7864,
      "උළෙලෙ": 7865,
      "දපතවල": 7866,
      "පාදක": 7867,
      "පඩනයකට": 7868,
      "බතතරමලල": 7869,
      "මොකද": 7870,
      "රතනවලල": 7871,
      "වවෙචනයට": 7872,
      "##කොණ": 7873,
      "##ucks": 7874,
      "කරසටොෆර": 7875,
      "සමකරණයක": 7876,
      "සමකරණයෙ": 7877,
      "පරවරතක": 7878,
      "සංචතයට": 7879,
      "අනසමරණ": 7880,
      "දෙදෙනාම": 7881,
      "බැරසටර": 7882,
      "දැරමට": 7883,
      "සැකසමට": 7884,
      "උදඝොෂණයක": 7885,
      "ඉතහාසයෙ": 7886,
      "ෆරැනසස": 7887,
      "guacam": 7888,
      "ආලෙපන": 7889,
      "කලනොච": 7890,
      "ගායනය": 7891,
      "ජාවාරමක": 7892,
      "තඹතතෙගම": 7893,
      "දලර": 7894,
      "බෙදනන": 7895,
      "මෑත": 7896,
      "මෑතක": 7897,
      "මෑතකාලන": 7898,
      "ලයනල": 7899,
      "පරමතන": 7900,
      "වසංගත": 7901,
      "වසංගතය": 7902,
      "වනොදාංශ": 7903,
      "සංසදධ": 7904,
      "කොටටෙ": 7905,
      "කොටටාව": 7906,
      "උපනදනයක": 7907,
      "නැංවය": 7908,
      "බැඳණ": 7909,
      "වමරශන": 7910,
      "වසරෙහද": 7911,
      "වාහනවල": 7912,
      "ශරෙෂඨාධකරණ": 7913,
      "තවකකව": 7914,
      "නාටයයක": 7915,
      "බැකටරයා": 7916,
      "යරයා": 7917,
      "ලනකන": 7918,
      "ලොරයක": 7919,
      "##rator": 7920,
      "##ows": 7921,
      "සමහයක": 7922,
      "පොළොනනරව": 7923,
      "අවශයතාවය": 7924,
      "පෙළඹවම": 7925,
      "ගණාතමකභාවය": 7926,
      "ගරහණය": 7927,
      "මාතරාව": 7928,
      "පැමණයෙය": 7929,
      "ලෙඛනය": 7930,
      "අමාතයාංශයෙන": 7931,
      "ගමමානයෙ": 7932,
      "කානතාවන": 7933,
      "සංකෙතාතමක": 7934,
      "අභයාචනා": 7935,
      "උතසහයක": 7936,
      "මෙනඩලයෙවගෙ": 7937,
      "6510": 7938,
      "benoist": 7939,
      "cont": 7940,
      "emily": 7941,
      "grand": 7942,
      "website": 7943,
      "අළත": 7944,
      "අසනප": 7945,
      "අහසෙ": 7946,
      "අසමාන": 7947,
      "ආනයනයට": 7948,
      "ඉනනවා": 7949,
      "එළඹෙන": 7950,
      "ධාවනයෙ": 7951,
      "නටාල": 7952,
      "පෑලයගොඩ": 7953,
      "පමමක": 7954,
      "බමතන": 7955,
      "වාහකයන": 7956,
      "කරෙඩට": 7957,
      "සමළව": 7958,
      "සහකරගෙ": 7959,
      "මෙකසක": 7960,
      "සංගරාමයෙන": 7961,
      "අවධමත": 7962,
      "වටටොරව": 7963,
      "##වැතවමට": 7964,
      "හැදෑ": 7965,
      "කාලසටහනට": 7966,
      "නරනතරයෙන": 7967,
      "සරසවය": 7968,
      "පොහොසත": 7969,
      "පොහොටට": 7970,
      "අපරකාණ": 7971,
      "කෙතකරණ": 7972,
      "අරධදව": 7973,
      "##igner": 7974,
      "අගමැතවරයාගෙ": 7975,
      "යටතවජත": 7976,
      "කණගාට": 7977,
      "පෘෂඨයන": 7978,
      "සැසඳය": 7979,
      "කෘෂකරමානතය": 7980,
      "universe": 7981,
      "university": 7982,
      "කැනඩාව": 7983,
      "බෙලහනතාවට": 7984,
      "උළෙලෙද": 7985,
      "සොලදාදවනගෙ": 7986,
      "adobe": 7987,
      "machin": 7988,
      "series": 7989,
      "අවනශචත": 7990,
      "ඇපලො": 7991,
      "ඇවදමට": 7992,
      "කථකයා": 7993,
      "කථකයාගෙ": 7994,
      "චමපක": 7995,
      "ජොසප": 7996,
      "නාසතය": 7997,
      "මොහාන": 7998,
      "යොගයතාව": 7999,
      "රඟප": 8000,
      "ලතනන": 8001,
      "සදාචාර": 8002,
      "පරෙකෂකයන": 8003,
      "වැරදය": 8004,
      "වැලකඩ": 8005,
      "සංරකෂණ": 8006,
      "අනපාතය": 8007,
      "අනපෙකෂත": 8008,
      "##පරාපතක": 8009,
      "දෙමාපයන": 8010,
      "සෙවනැල": 8011,
      "1918": 8012,
      "නයැලම": 8013,
      "යොදවා": 8014,
      "මතපටක": 8015,
      "කොටඨාස": 8016,
      "කොටඨාසයෙ": 8017,
      "කරයාශලව": 8018,
      "තෙමාවන": 8019,
      "ඒකාධපත": 8020,
      "වපලවයෙ": 8021,
      "ගරතවාකරෂණය": 8022,
      "ගරතවාකරෂණ": 8023,
      "ගජරාට": 8024,
      "ගජරාටයෙ": 8025,
      "යතරපැදයක": 8026,
      "ඇලෙකසැනඩර": 8027,
      "5286": 8028,
      "espn": 8029,
      "open": 8030,
      "romantic": 8031,
      "vii": 8032,
      "අකකර": 8033,
      "උනඋ": 8034,
      "ගතයත": 8035,
      "චාලසටන": 8036,
      "ජොරජ": 8037,
      "ටොපංස": 8038,
      "පලලව": 8039,
      "පලෙටස": 8040,
      "බෲනාය": 8041,
      "බෙසබොල": 8042,
      "යානයක": 8043,
      "රතරන": 8044,
      "ශාලාවක": 8045,
      "##පඩයා": 8046,
      "##poration": 8047,
      "insane": 8048,
      "පරාසයක": 8049,
      "පරභවයක": 8050,
      "සංයතයෙ": 8051,
      "පැතතට": 8052,
      "තරබාරකම": 8053,
      "පසළොසවකහ": 8054,
      "##ොගරෑම": 8055,
      "පරතශොධන": 8056,
      "නැළැවල": 8057,
      "පෙමවත": 8058,
      "කැඩමයම": 8059,
      "ආරොපණය": 8060,
      "ගමනානතයක": 8061,
      "කලහකාර": 8062,
      "අභයවකාශ": 8063,
      "අභවෘතතය": 8064,
      "පැහැරගත": 8065,
      "හදෙකලා": 8066,
      "නෞකාව": 8067,
      "තැනැතතන": 8068,
      "ගමහාන": 8069,
      "පෞරෂය": 8070,
      "මදාහැරමට": 8071,
      "christoph": 8072,
      "ජනගහනයක": 8073,
      "පාවාදමෙ": 8074,
      "වවෙචනාතමක": 8075,
      "පරජාතනතරවාද": 8076,
      "කැලෆොනයාවෙ": 8077,
      "ජනශරැතය": 8078,
      "පරතසංසකරණ": 8079,
      "corporation": 8080,
      "designer": 8081,
      "hindi": 8082,
      "illust": 8083,
      "pm2": 8084,
      "subc": 8085,
      "www": 8086,
      "ආංජනෙය": 8087,
      "එමෙනම": 8088,
      "කවනසලය": 8089,
      "කලලයක": 8090,
      "ගෙරෙටා": 8091,
      "චානසල": 8092,
      "තෙහෙටටව": 8093,
      "දදලන": 8094,
      "දවයමය": 8095,
      "දොසතර": 8096,
      "නාරලතා": 8097,
      "නදනගත": 8098,
      "පවතවය": 8099,
      "පඩාකාර": 8100,
      "බනදල": 8101,
      "භගොලය": 8102,
      "මනනාරම": 8103,
      "මාතලෙ": 8104,
      "මාදල": 8105,
      "යනාදය": 8106,
      "වකාශය": 8107,
      "වපරයාස": 8108,
      "වජෙවර": 8109,
      "සඵලතාවය": 8110,
      "සඝරයෙන": 8111,
      "හෙනර": 8112,
      "කරමාංකයෙ": 8113,
      "වනයාසය": 8114,
      "ශරලං": 8115,
      "දෙවතාවය": 8116,
      "අවංකවම": 8117,
      "මනෂයතවයෙ": 8118,
      "කැවලලාන": 8119,
      "පටපාටය": 8120,
      "සොබාදහමෙ": 8121,
      "අයතවාසකම": 8122,
      "භාගයවතන": 8123,
      "නතපතවරයා": 8124,
      "සොයාබැලමට": 8125,
      "##aceae": 8126,
      "උතතරතර": 8127,
      "පාකෂකයන": 8128,
      "වචතරවත": 8129,
      "සමතලතය": 8130,
      "අසබවාද": 8131,
      "නෙදරලනතය": 8132,
      "සෙනටමටර": 8133,
      "පරභෙදයක": 8134,
      "බලාපොරොතතව": 8135,
      "පරාවදයාව": 8136,
      "උදයොගමත": 8137,
      "හංසාකාර": 8138,
      "clitocybe": 8139,
      "shotgun": 8140,
      "පරනැමම": 8141,
      "සවභාවධරමය": 8142,
      "සංගපපරවෙ": 8143,
      "network": 8144,
      "blasket": 8145,
      "තෙඳනානා": 8146,
      "උපයොගතා": 8147,
      "යඨාලතසස": 8148,
      "beyond": 8149,
      "clown": 8150,
      "focac": 8151,
      "hijri": 8152,
      "manual": 8153,
      "pasindu": 8154,
      "posse": 8155,
      "sqrt": 8156,
      "ඇසතමෙන": 8157,
      "ඇඩමස": 8158,
      "ඉතයොපය": 8159,
      "ඊශරාය": 8160,
      "එනෙබල": 8161,
      "ඒඑලඑස": 8162,
      "ඔනලයන": 8163,
      "ඔරොතත": 8164,
      "කවාසල": 8165,
      "ගවාකමොල": 8166,
      "ටරොජන": 8167,
      "ඩමබො": 8168,
      "තටාක": 8169,
      "තණබම": 8170,
      "තණකොළ": 8171,
      "තොමස": 8172,
      "නකොටන": 8173,
      "පහාට": 8174,
      "පශචාත": 8175,
      "බසරථ": 8176,
      "බටලර": 8177,
      "බඩලගම": 8178,
      "මථයා": 8179,
      "මයටාවන": 8180,
      "මරමවට": 8181,
      "මොගන": 8182,
      "මකණන": 8183,
      "යකරෙන": 8184,
      "යදාධ": 8185,
      "රගබ": 8186,
      "ලොජසටක": 8187,
      "සබසාධ": 8188,
      "හාවරඩ": 8189,
      "කරවලගසවැව": 8190,
      "පරබොධමත": 8191,
      "සංකෂපත": 8192,
      "තරාසජනක": 8193,
      "තරපදගල": 8194,
      "හොටඩොග": 8195,
      "පෙබරවාර": 8196,
      "කාලසමාව": 8197,
      "සරණාගතයන": 8198,
      "මතභෙදාතමක": 8199,
      "කලොමටර": 8200,
      "අලගැට": 8201,
      "1111000": 8202,
      "starbucks": 8203,
      "starlink": 8204,
      "රොඩරගො": 8205,
      "දෘශයාබාධත": 8206,
      "හැඩගසවා": 8207,
      "##iflorus": 8208,
      "guacamole": 8209,
      "වනොදාංශයක": 8210,
      "65104°": 8211,
      "52863°": 8212,
      "1වන": 8213,
      "2ය": 8214,
      "37": 8215,
      "3කන": 8216,
      "4√": 8217,
      "482": 8218,
      "429": 8219,
      "5කන": 8220,
      "565": 8221,
      "510": 8222,
      "6ක": 8223,
      "64": 8224,
      "70": 8225,
      "70ක": 8226,
      "86": 8227,
      "84": 8228,
      "83": 8229,
      "88": 8230,
      "800": 8231,
      "9ක": 8232,
      "92": 8233,
      "9c": 8234,
      "98": 8235,
      "997": 8236,
      "ag": 8237,
      "ac": 8238,
      "ab": 8239,
      "af": 8240,
      "ale": 8241,
      "aut": 8242,
      "aff": 8243,
      "bm": 8244,
      "bu": 8245,
      "br": 8246,
      "b6": 8247,
      "bb": 8248,
      "big": 8249,
      "bub": 8250,
      "back": 8251,
      "c²": 8252,
      "cav": 8253,
      "city": 8254,
      "da": 8255,
      "do": 8256,
      "dj": 8257,
      "dat": 8258,
      "dic": 8259,
      "dom": 8260,
      "dis": 8261,
      "day": 8262,
      "dun": 8263,
      "dav": 8264,
      "dum": 8265,
      "fm": 8266,
      "fac": 8267,
      "flor": 8268,
      "full": 8269,
      "found": 8270,
      "foss": 8271,
      "gd": 8272,
      "gen": 8273,
      "games": 8274,
      "global": 8275,
      "gps": 8276,
      "ht": 8277,
      "h²": 8278,
      "hil": 8279,
      "hel": 8280,
      "hist": 8281,
      "how": 8282,
      "hero": 8283,
      "habs": 8284,
      "im": 8285,
      "iee": 8286,
      "jo": 8287,
      "jav": 8288,
      "jmb": 8289,
      "ke": 8290,
      "kg": 8291,
      "kev": 8292,
      "komb": 8293,
      "lin": 8294,
      "led": 8295,
      "lec": 8296,
      "lam": 8297,
      "ltt": 8298,
      "live": 8299,
      "mor": 8300,
      "may": 8301,
      "map": 8302,
      "mind": 8303,
      "mart": 8304,
      "merg": 8305,
      "merc": 8306,
      "mark": 8307,
      "music": 8308,
      "mortal": 8309,
      "nit": 8310,
      "nas": 8311,
      "nov": 8312,
      "name": 8313,
      "nature": 8314,
      "os": 8315,
      "ob": 8316,
      "po": 8317,
      "pan": 8318,
      "pat": 8319,
      "pes": 8320,
      "pri": 8321,
      "pre": 8322,
      "pol": 8323,
      "pum": 8324,
      "part": 8325,
      "page": 8326,
      "p32": 8327,
      "pages": 8328,
      "ras": 8329,
      "run": 8330,
      "rey": 8331,
      "ross": 8332,
      "raj": 8333,
      "si": 8334,
      "se": 8335,
      "so": 8336,
      "sy": 8337,
      "set": 8338,
      "sch": 8339,
      "sort": 8340,
      "soc": 8341,
      "squ": 8342,
      "sim": 8343,
      "sex": 8344,
      "sket": 8345,
      "site": 8346,
      "ta": 8347,
      "tw": 8348,
      "tor": 8349,
      "tom": 8350,
      "tel": 8351,
      "tri": 8352,
      "tim": 8353,
      "utt": 8354,
      "ull": 8355,
      "vo": 8356,
      "vau": 8357,
      "wri": 8358,
      "was": 8359,
      "wind": 8360,
      "warc": 8361,
      "xp": 8362,
      "අනන": 8363,
      "අයක": 8364,
      "අකෂ": 8365,
      "අසත": 8366,
      "අලන": 8367,
      "අකම": 8368,
      "අකල": 8369,
      "අෂට": 8370,
      "අටල": 8371,
      "අයෙකට": 8372,
      "අංජන": 8373,
      "ආධ": 8374,
      "ආමන": 8375,
      "ආවෙ": 8376,
      "ආසය": 8377,
      "ආගන": 8378,
      "ආනද": 8379,
      "ආදාය": 8380,
      "ආගමනය": 8381,
      "ආනනද": 8382,
      "ආභා": 8383,
      "ආසයාවෙ": 8384,
      "ආකාශ": 8385,
      "ආකරමණය": 8386,
      "ඇවත": 8387,
      "ඇසර": 8388,
      "ඇසම": 8389,
      "ඇතවෙ": 8390,
      "ඇසටර": 8391,
      "ඇබෑ": 8392,
      "ඇදද": 8393,
      "ඇලලෙ": 8394,
      "ඇදග": 8395,
      "ඇලලම": 8396,
      "ඇඩඩ": 8397,
      "ඇසටල": 8398,
      "ඈඳා": 8399,
      "ඉහ": 8400,
      "ඉඟ": 8401,
      "ඉසය": 8402,
      "ඉරය": 8403,
      "ඉගැන": 8404,
      "ඉසව": 8405,
      "ඉමර": 8406,
      "ඉරා": 8407,
      "ඉතරම": 8408,
      "ඉවරය": 8409,
      "ඉගැනවම": 8410,
      "ඊල": 8411,
      "ඊජ": 8412,
      "උනන": 8413,
      "උගත": 8414,
      "උදම": 8415,
      "උභය": 8416,
      "උසකට": 8417,
      "ඌර": 8418,
      "ඍෂ": 8419,
      "එබ": 8420,
      "එකර": 8421,
      "එමන": 8422,
      "එනනෙ": 8423,
      "එතක": 8424,
      "එවැනන": 8425,
      "ඒමෙන": 8426,
      "ඔය": 8427,
      "ඔයා": 8428,
      "ඔතත": 8429,
      "ඔටට": 8430,
      "ඔපට": 8431,
      "ඔයාට": 8432,
      "ඕමාර": 8433,
      "ඕකෙ": 8434,
      "කච": 8435,
      "කකෂ": 8436,
      "කයට": 8437,
      "කවෙ": 8438,
      "කපර": 8439,
      "කලය": 8440,
      "කසන": 8441,
      "කහර": 8442,
      "කලෙ": 8443,
      "කතන": 8444,
      "කෂය": 8445,
      "කකළ": 8446,
      "කඹර": 8447,
      "කතවරයා": 8448,
      "කෙහෙ": 8449,
      "කාදන": 8450,
      "ඛෙද": 8451,
      "ගට": 8452,
      "ගග": 8453,
      "ගළ": 8454,
      "ගයා": 8455,
      "ගනය": 8456,
      "ගයත": 8457,
      "ගගල": 8458,
      "ගසක": 8459,
      "ගලා": 8460,
      "ගායක": 8461,
      "ගදම": 8462,
      "ගණයට": 8463,
      "ගචච": 8464,
      "ගාරඩ": 8465,
      "ඝො": 8466,
      "චල": 8467,
      "චරම": 8468,
      "චෙර": 8469,
      "චොක": 8470,
      "චනද": 8471,
      "චකන": 8472,
      "චොල": 8473,
      "චනයට": 8474,
      "චලනයෙ": 8475,
      "ඡෙදය": 8476,
      "ජැ": 8477,
      "ජො": 8478,
      "ජාර": 8479,
      "ජයා": 8480,
      "ජවා": 8481,
      "ජකර": 8482,
      "ජගත": 8483,
      "ජවම": 8484,
      "ජොක": 8485,
      "ජලන": 8486,
      "ජරා": 8487,
      "ජෑස": 8488,
      "ජෙදා": 8489,
      "ජැෆ": 8490,
      "ජහාඩ": 8491,
      "ටවන": 8492,
      "ටකක": 8493,
      "ටලර": 8494,
      "ඩෂ": 8495,
      "ඩෙන": 8496,
      "ඩෙර": 8497,
      "ඩොන": 8498,
      "ඩසටන": 8499,
      "ඩයනො": 8500,
      "තො": 8501,
      "තතත": 8502,
      "තලය": 8503,
      "තලක": 8504,
      "තනම": 8505,
      "තැල": 8506,
      "තපස": 8507,
      "තාපනය": 8508,
      "තවරණය": 8509,
      "තටටවක": 8510,
      "තවාලය": 8511,
      "දාන": 8512,
      "දයා": 8513,
      "දවන": 8514,
      "දමෙ": 8515,
      "දොහ": 8516,
      "දනයට": 8517,
      "දශල": 8518,
      "දහසකට": 8519,
      "ධල": 8520,
      "නහ": 8521,
      "නං": 8522,
      "නයක": 8523,
      "නාල": 8524,
      "නකෂ": 8525,
      "නතා": 8526,
      "නාද": 8527,
      "නදය": 8528,
      "නදා": 8529,
      "නයත": 8530,
      "නවම": 8531,
      "නධාන": 8532,
      "නධන": 8533,
      "නවලන": 8534,
      "නාහ": 8535,
      "නගමනය": 8536,
      "නාතත": 8537,
      "නතතල": 8538,
      "පප": 8539,
      "පජ": 8540,
      "පඹ": 8541,
      "පවක": 8542,
      "පයය": 8543,
      "පවලට": 8544,
      "පථය": 8545,
      "පජනය": 8546,
      "බධ": 8547,
      "බබ": 8548,
      "බවන": 8549,
      "බමට": 8550,
      "බගල": 8551,
      "බසක": 8552,
      "බගම": 8553,
      "බදන": 8554,
      "බසම": 8555,
      "බාහ": 8556,
      "බබල": 8557,
      "බරමන": 8558,
      "භමත": 8559,
      "භාරය": 8560,
      "භානක": 8561,
      "භතාප": 8562,
      "මඳ": 8563,
      "මාව": 8564,
      "මවා": 8565,
      "මලල": 8566,
      "මමත": 8567,
      "මවක": 8568,
      "මහස": 8569,
      "මරය": 8570,
      "මවට": 8571,
      "මාක": 8572,
      "මංක": 8573,
      "මකන": 8574,
      "මාවන": 8575,
      "මදම": 8576,
      "මොද": 8577,
      "මලලක": 8578,
      "යව": 8579,
      "යාල": 8580,
      "යවල": 8581,
      "යතම": 8582,
      "යතතෙ": 8583,
      "යාමය": 8584,
      "යෙදය": 8585,
      "රෆ": 8586,
      "රයා": 8587,
      "රවෙ": 8588,
      "රවක": 8589,
      "රවට": 8590,
      "රාක": 8591,
      "රොන": 8592,
      "රසල": 8593,
      "රටම": 8594,
      "රකස": 8595,
      "රපන": 8596,
      "රචත": 8597,
      "රහසක": 8598,
      "රසයාව": 8599,
      "රෂාඩ": 8600,
      "රධරය": 8601,
      "රඹක": 8602,
      "ලස": 8603,
      "ලඛ": 8604,
      "ලයක": 8605,
      "ලැන": 8606,
      "ලයට": 8607,
      "ලතය": 8608,
      "ලහස": 8609,
      "ලවම": 8610,
      "ලතන": 8611,
      "ලපන": 8612,
      "ලාහ": 8613,
      "ලයො": 8614,
      "ලයනගෙ": 8615,
      "ලපනය": 8616,
      "ලලත": 8617,
      "ලාරා": 8618,
      "ලටරො": 8619,
      "ලෑනස": 8620,
      "වෘ": 8621,
      "වො": 8622,
      "වාන": 8623,
      "වරම": 8624,
      "වංග": 8625,
      "වතත": 8626,
      "වතාව": 8627,
      "වංශ": 8628,
      "වහල": 8629,
      "වතතෙ": 8630,
      "වතාවක": 8631,
      "වණා": 8632,
      "වවාදය": 8633,
      "වඑස": 8634,
      "ශෘ": 8635,
      "ශෛ": 8636,
      "ශාන": 8637,
      "ශරමත": 8638,
      "ශවසන": 8639,
      "ෂයා": 8640,
      "ෂලට": 8641,
      "සග": 8642,
      "සණ": 8643,
      "සබ": 8644,
      "සෆ": 8645,
      "සබන": 8646,
      "සකෂ": 8647,
      "සකාර": 8648,
      "සවක": 8649,
      "සතම": 8650,
      "සනම": 8651,
      "සනද": 8652,
      "සබා": 8653,
      "සගයන": 8654,
      "හෘ": 8655,
      "හරම": 8656,
      "හමන": 8657,
      "හානය": 8658,
      "හසක": 8659,
      "හදන": 8660,
      "හසට": 8661,
      "හයකට": 8662,
      "හයකන": 8663,
      "හනගෙ": 8664,
      "හසෙන": 8665,
      "හංගල": 8666,
      "හසාර": 8667,
      "හඹා": 8668,
      "හයමස": 8669,
      "ළඳ": 8670,
      "ළදර": 8671,
      "ෆැ": 8672,
      "ෆයන": 8673,
      "ෆෙර": 8674,
      "ෆරය": 8675,
      "ෆලෙ": 8676,
      "ෆරො": 8677,
      "ෆයො": 8678,
      "ෆෙලට": 8679,
      "🇪🇬": 8680,
      "🇳🇿": 8681,
      "##යස": 8682,
      "##යඩ": 8683,
      "##යාන": 8684,
      "##යවල": 8685,
      "##කමට": 8686,
      "##කවය": 8687,
      "##කමෙ": 8688,
      "##කතවය": 8689,
      "##කෘත": 8690,
      "##කයෙද": 8691,
      "##කොත": 8692,
      "##කයාගෙ": 8693,
      "##ෙදන": 8694,
      "##ාභ": 8695,
      "##ානන": 8696,
      "##ාගෙ": 8697,
      "##ාමක": 8698,
      "##ායෙල": 8699,
      "##ාභරණ": 8700,
      "##ටෑ": 8701,
      "##ටෙල": 8702,
      "##ෑමෙ": 8703,
      "##ෑගල": 8704,
      "##සයෙ": 8705,
      "##සයන": 8706,
      "##සගල": 8707,
      "##සගෙන": 8708,
      "##සාවෙ": 8709,
      "##මාව": 8710,
      "##මනන": 8711,
      "##මැන": 8712,
      "##මානය": 8713,
      "##මඩා": 8714,
      "##මාලා": 8715,
      "##හඩ": 8716,
      "##හයට": 8717,
      "##හදා": 8718,
      "##හලක": 8719,
      "##හලප": 8720,
      "##හමකට": 8721,
      "##වව": 8722,
      "##වං": 8723,
      "##වදය": 8724,
      "##වදල": 8725,
      "##වොත": 8726,
      "##වයනගෙ": 8727,
      "##වහොත": 8728,
      "##වෘදධ": 8729,
      "##ගාව": 8730,
      "##ගසා": 8731,
      "##ගයකට": 8732,
      "##ගනනට": 8733,
      "##ගටෙල": 8734,
      "##ඳමන": 8735,
      "##ඳකම": 8736,
      "##ip": 8737,
      "##ib": 8738,
      "##ior": 8739,
      "##ner": 8740,
      "##nal": 8741,
      "##nia": 8742,
      "##ei": 8743,
      "##ef": 8744,
      "##ear": 8745,
      "##eas": 8746,
      "##eets": 8747,
      "##ලභ": 8748,
      "##ලො": 8749,
      "##ලාව": 8750,
      "##ලනා": 8751,
      "##ලවම": 8752,
      "##ලොච": 8753,
      "##ලසයස": 8754,
      "##නත": 8755,
      "##නාව": 8756,
      "##නගෙන": 8757,
      "##නකල": 8758,
      "##ෂනට": 8759,
      "##ෂකව": 8760,
      "##ෂෙඩ": 8761,
      "##ණාය": 8762,
      "##ණහල": 8763,
      "##ණෙම": 8764,
      "##ණොත": 8765,
      "##දඹ": 8766,
      "##දගර": 8767,
      "##දපක": 8768,
      "##භාර": 8769,
      "##භයා": 8770,
      "##භංග": 8771,
      "##භාරය": 8772,
      "##භතකම": 8773,
      "##තොල": 8774,
      "##තෙල": 8775,
      "##තශයාව": 8776,
      "##ඩග": 8777,
      "##ඩගල": 8778,
      "##ඩයම": 8779,
      "##ංඡ": 8780,
      "##ංසා": 8781,
      "##රවන": 8782,
      "##රමට": 8783,
      "##රාජ": 8784,
      "##රෙද": 8785,
      "##රනට": 8786,
      "##රපා": 8787,
      "##රගරහ": 8788,
      "##රවෙද": 8789,
      "##රැද": 8790,
      "##රොගරෑම": 8791,
      "##mer": 8792,
      "##ment": 8793,
      "##af": 8794,
      "##az": 8795,
      "##ser": 8796,
      "##sen": 8797,
      "##sort": 8798,
      "##sist": 8799,
      "##ැඹ": 8800,
      "##ැඟ": 8801,
      "##ැනන": 8802,
      "##ැසන": 8803,
      "##ැමය": 8804,
      "##ැටය": 8805,
      "##ැසකට": 8806,
      "##ැවැතව": 8807,
      "##ැෆරඩ": 8808,
      "##ැරනට": 8809,
      "##පතර": 8810,
      "##පණය": 8811,
      "##පගෙ": 8812,
      "##පපත": 8813,
      "##පෙශ": 8814,
      "##පැය": 8815,
      "##පනයට": 8816,
      "##පඩස": 8817,
      "##පචන": 8818,
      "##පඑල": 8819,
      "##පාගාරය": 8820,
      "##ජස": 8821,
      "##ජජ": 8822,
      "##ජමෙන": 8823,
      "##ජනයට": 8824,
      "##ජපාන": 8825,
      "##ෘෂය": 8826,
      "##ෘතවලට": 8827,
      "##ධරණ": 8828,
      "##hr": 8829,
      "##ho": 8830,
      "##hand": 8831,
      "##hav": 8832,
      "##hop": 8833,
      "##hall": 8834,
      "##hai": 8835,
      "##hone": 8836,
      "##uw": 8837,
      "##uch": 8838,
      "##ram": 8839,
      "##rog": 8840,
      "##rari": 8841,
      "##7කට": 8842,
      "##6ක": 8843,
      "##52": 8844,
      "##5කට": 8845,
      "##ඨයය": 8846,
      "##ඨාට": 8847,
      "##ශණය": 8848,
      "##ශවක": 8849,
      "##ශාහ": 8850,
      "##ශකතය": 8851,
      "##ශකයක": 8852,
      "##ශංකර": 8853,
      "##te": 8854,
      "##oey": 8855,
      "##kj": 8856,
      "##kw": 8857,
      "##kan": 8858,
      "##kar": 8859,
      "##khand": 8860,
      "##pa": 8861,
      "##ph": 8862,
      "##pl": 8863,
      "##per": 8864,
      "##ping": 8865,
      "##pol": 8866,
      "##port": 8867,
      "##pberries": 8868,
      "##ler": 8869,
      "##ling": 8870,
      "##lations": 8871,
      "##lix": 8872,
      "##ළෙය": 8873,
      "##බෙ": 8874,
      "##බග": 8875,
      "##බෆ": 8876,
      "##බො": 8877,
      "##බාල": 8878,
      "##බමට": 8879,
      "##බොක": 8880,
      "##බොන": 8881,
      "##බෙල": 8882,
      "##බොව": 8883,
      "##බණඩාර": 8884,
      "##ඹලා": 8885,
      "##92": 8886,
      "##94": 8887,
      "##93": 8888,
      "##98": 8889,
      "##345": 8890,
      "##ඟා": 8891,
      "##ෆක": 8892,
      "##ෆොන": 8893,
      "##ෆරන": 8894,
      "##ඥාවක": 8895,
      "##de": 8896,
      "##dra": 8897,
      "##චක": 8898,
      "##චර": 8899,
      "##චකර": 8900,
      "##car": 8901,
      "##cri": 8902,
      "##cort": 8903,
      "##cia": 8904,
      "##comb": 8905,
      "##yn": 8906,
      "##ypt": 8907,
      "##0ද": 8908,
      "##xhall": 8909,
      "##bes": 8910,
      "##bur": 8911,
      "##bles": 8912,
      "##bhai": 8913,
      "##අංශ": 8914,
      "##for": 8915,
      "##flix": 8916,
      "##ෛර": 8917,
      "##ෛභාෂා": 8918,
      "##wed": 8919,
      "##wim": 8920,
      "##ඬවමක": 8921,
      "##ඕවාද": 8922,
      "##8ක": 8923,
      "##qwim": 8924,
      "##ඇල": 8925,
      "##ඞවමක": 8926,
      "##උල": 8927,
      "##ری": 8928,
      "##ʰɑ": 8929,
      "##ොණ": 8930,
      "##ොකා": 8931,
      "##ොටම": 8932,
      "##ොෂණය": 8933,
      "##ොලලක": 8934,
      "##ොතතම": 8935,
      "##ොබෆ": 8936,
      "##ෙනඩ": 8937,
      "##ෙනදරය": 8938,
      "##ෙනෙකා": 8939,
      "කරඳ": 8940,
      "කරවට": 8941,
      "කරසත": 8942,
      "කරපට": 8943,
      "කරෙම": 8944,
      "කරගැනමට": 8945,
      "කරදද": 8946,
      "##ාවම": 8947,
      "##ාවච": 8948,
      "##ාවයෙ": 8949,
      "##ාවලය": 8950,
      "##ාවරය": 8951,
      "##ාවලන": 8952,
      "##ාවතරණය": 8953,
      "##තරණයක": 8954,
      "##ාරාම": 8955,
      "##ාරාමය": 8956,
      "##ාරථය": 8957,
      "##stem": 8958,
      "inf": 8959,
      "සමට": 8960,
      "සමනය": 8961,
      "සමදා": 8962,
      "සමගත": 8963,
      "සමරය": 8964,
      "සමගය": 8965,
      "සමසථ": 8966,
      "සමකෂණ": 8967,
      "සමභාවය": 8968,
      "සමරක": 8969,
      "සමහය": 8970,
      "සමදායක": 8971,
      "සමකාලන": 8972,
      "සමාදන": 8973,
      "සමරප": 8974,
      "සමභාරය": 8975,
      "පරෙන": 8976,
      "පරාන": 8977,
      "පරවන": 8978,
      "පරවය": 8979,
      "පරසත": 8980,
      "පරවෙන": 8981,
      "පරමැ": 8982,
      "පරවාද": 8983,
      "පරසයාන": 8984,
      "පරාරථ": 8985,
      "පරෙමය": 8986,
      "පරාතම": 8987,
      "පරරාජ": 8988,
      "##නනාස": 8989,
      "##නනැය": 8990,
      "##යකාර": 8991,
      "##යකරවන": 8992,
      "##යෙය": 8993,
      "##යෙත": 8994,
      "##ාතලක": 8995,
      "##ානතරය": 8996,
      "##ානඩර": 8997,
      "සහගත": 8998,
      "සහයො": 8999,
      "සහරාන": 9000,
      "##තවට": 9001,
      "##තවො": 9002,
      "වසය": 9003,
      "වසත": 9004,
      "වසසක": 9005,
      "කරමයෙ": 9006,
      "කරමයට": 9007,
      "කරමෙහ": 9008,
      "කරමකන": 9009,
      "කරමවලන": 9010,
      "කරමානකල": 9011,
      "කරමලෙඛ": 9012,
      "##යනක": 9013,
      "##යනද": 9014,
      "##යනදල": 9015,
      "##යාමට": 9016,
      "ඇතකරන": 9017,
      "ඇතදැය": 9018,
      "##ැනකට": 9019,
      "##ැනතන": 9020,
      "##කාවල": 9021,
      "##වාක": 9022,
      "##වාට": 9023,
      "##වාපටය": 9024,
      "##කරට": 9025,
      "##කරත": 9026,
      "##කරනනෙ": 9027,
      "##නයතවය": 9028,
      "##පයරක": 9029,
      "##ැකවම": 9030,
      "##වනෙ": 9031,
      "##වනත": 9032,
      "##වනදනය": 9033,
      "වසතරයක": 9034,
      "මෙවාද": 9035,
      "මෙතරම": 9036,
      "##වතසරය": 9037,
      "##ගෙලා": 9038,
      "##මකයන": 9039,
      "##මකොට": 9040,
      "වනමය": 9041,
      "වනැය": 9042,
      "වැය": 9043,
      "වැලල": 9044,
      "වැටම": 9045,
      "වැගටෙල": 9046,
      "##වසනයතවය": 9047,
      "##වරක": 9048,
      "##වරට": 9049,
      "##වරස": 9050,
      "##ෙකස": 9051,
      "##ෙකගෙ": 9052,
      "##ෙකසට": 9053,
      "සංඝ": 9054,
      "සංගර": 9055,
      "සංවාද": 9056,
      "සංවෙදන": 9057,
      "සංවෙග": 9058,
      "සංදරශන": 9059,
      "සංයකත": 9060,
      "සංකරමණය": 9061,
      "සංඥාවක": 9062,
      "සංවතසරය": 9063,
      "බවවෙය": 9064,
      "##නාගම": 9065,
      "##නාහම": 9066,
      "අතරට": 9067,
      "අතරකත": 9068,
      "අතරමැද": 9069,
      "##ෙසන": 9070,
      "##ෙසවලට": 9071,
      "##කෂණයක": 9072,
      "##කෂකය": 9073,
      "##කෂතතාව": 9074,
      "##පතක": 9075,
      "##පතන": 9076,
      "සඳහාය": 9077,
      "කළත": 9078,
      "කළහැක": 9079,
      "කළොත": 9080,
      "කළකරමට": 9081,
      "##වලා": 9082,
      "##වලව": 9083,
      "##වලත": 9084,
      "##වලලක": 9085,
      "##වලොක": 9086,
      "##වලපටය": 9087,
      "අනවර": 9088,
      "අනගත": 9089,
      "අනතම": 9090,
      "අනවාද": 9091,
      "අනාවර": 9092,
      "අනකල": 9093,
      "අනතවාද": 9094,
      "අනදමට": 9095,
      "අනතවාදන": 9096,
      "අනපරාපතක": 9097,
      "අනගෙලා": 9098,
      "##රමය": 9099,
      "##රමස": 9100,
      "##රමකරණ": 9101,
      "හැකද": 9102,
      "##තාපද": 9103,
      "පළා": 9104,
      "පළපර": 9105,
      "පළඳන": 9106,
      "පළසස": 9107,
      "පළලයක": 9108,
      "පළයම": 9109,
      "පළගනනා": 9110,
      "පළගැනමට": 9111,
      "පළයෙල": 9112,
      "පළගැනමෙ": 9113,
      "පළයනදල": 9114,
      "පැට": 9115,
      "පැතම": 9116,
      "පැනනා": 9117,
      "පැතතෙ": 9118,
      "පැෆර": 9119,
      "පැතවලට": 9120,
      "පැටව": 9121,
      "පැවරම": 9122,
      "එකෙ": 9123,
      "එකෙන": 9124,
      "එකවර": 9125,
      "එකවමට": 9126,
      "එකසෙල": 9127,
      "එකවනනැය": 9128,
      "##කාමර": 9129,
      "##දරන": 9130,
      "##දරතා": 9131,
      "##ංගො": 9132,
      "##ංගාර": 9133,
      "##ංගලය": 9134,
      "කොෂ": 9135,
      "කොඩ": 9136,
      "කොතක": 9137,
      "කොමර": 9138,
      "කොරා": 9139,
      "කොචච": 9140,
      "කොරයක": 9141,
      "කොලලක": 9142,
      "කොනක": 9143,
      "කොනස": 9144,
      "කොතතම": 9145,
      "කොදෙව": 9146,
      "සටාර": 9147,
      "සටවන": 9148,
      "සටයත": 9149,
      "සටමෙන": 9150,
      "සටගෙන": 9151,
      "සටොන": 9152,
      "සටවමට": 9153,
      "සටෙට": 9154,
      "සටොකස": 9155,
      "##ාදට": 9156,
      "##ාදයෙ": 9157,
      "තබබොව": 9158,
      "තරව": 9159,
      "තරතව": 9160,
      "තරමට": 9161,
      "තරයට": 9162,
      "තරවල": 9163,
      "තරගත": 9164,
      "තරකයෙ": 9165,
      "තරකො": 9166,
      "තරෛභාෂා": 9167,
      "වශවසනයතවය": 9168,
      "හොර": 9169,
      "හොමා": 9170,
      "හොවාර": 9171,
      "##තයාන": 9172,
      "##මනට": 9173,
      "##මනත": 9174,
      "##දයානයෙ": 9175,
      "පොම": 9176,
      "පොර": 9177,
      "පොතක": 9178,
      "පොකණ": 9179,
      "පොටෑ": 9180,
      "##දාටත": 9181,
      "වරදය": 9182,
      "වරාජ": 9183,
      "වරණයක": 9184,
      "වරණක": 9185,
      "වරජනය": 9186,
      "වරදක": 9187,
      "වරවංශ": 9188,
      "වරපරස": 9189,
      "##ෙරය": 9190,
      "##ෙරලය": 9191,
      "##වෙම": 9192,
      "##වෙගය": 9193,
      "##වෙටව": 9194,
      "නොන": 9195,
      "නොගෙන": 9196,
      "නොහර": 9197,
      "නොටට": 9198,
      "නොසල": 9199,
      "නොකරම": 9200,
      "නොරො": 9201,
      "නොවෙය": 9202,
      "නොගනනා": 9203,
      "නොවෙද": 9204,
      "නොකරමට": 9205,
      "නොසටන": 9206,
      "නොපෙන": 9207,
      "නොකෙර": 9208,
      "නොටටවක": 9209,
      "නොකෙරණ": 9210,
      "නොබෙල": 9211,
      "##කාරතවයක": 9212,
      "##කාරයතාව": 9213,
      "ශරමකයන": 9214,
      "##ලලන": 9215,
      "ගැනවය": 9216,
      "##තතෙක": 9217,
      "##තතනට": 9218,
      "##ොරාව": 9219,
      "පදව": 9220,
      "පදං": 9221,
      "පදකකම": 9222,
      "පදමනාදන": 9223,
      "බලර": 9224,
      "බලබ": 9225,
      "බලතල": 9226,
      "බලකරමන": 9227,
      "බලකාය": 9228,
      "බලැසකට": 9229,
      "බලශකතය": 9230,
      "බලොබෆ": 9231,
      "බලැනකට": 9232,
      "##පරා": 9233,
      "##පරණය": 9234,
      "##පරසක": 9235,
      "##පරදෙශ": 9236,
      "##පරෙම": 9237,
      "##පරතශයාව": 9238,
      "##ාමව": 9239,
      "##ාමයක": 9240,
      "##ාමානය": 9241,
      "වයහ": 9242,
      "වයළ": 9243,
      "වයඹ": 9244,
      "වයලන": 9245,
      "වයහැක": 9246,
      "වයොව": 9247,
      "වයතප": 9248,
      "සදවමට": 9249,
      "සදකල": 9250,
      "මලෙ": 9251,
      "මලතව": 9252,
      "මලාක": 9253,
      "මලසථානයක": 9254,
      "මලසථානයෙ": 9255,
      "වැඩක": 9256,
      "වැඩයෙනම": 9257,
      "වැඩවමත": 9258,
      "කරයද": 9259,
      "කරයාවක": 9260,
      "ලබත": 9261,
      "##මෙට": 9262,
      "##මෙයක": 9263,
      "දෙල": 9264,
      "දෙත": 9265,
      "දෙයට": 9266,
      "දෙදර": 9267,
      "දෙවෙන": 9268,
      "දෙපා": 9269,
      "දෙපල": 9270,
      "දෙවාල": 9271,
      "දෙපැ": 9272,
      "දෙගණයක": 9273,
      "දෙඅංශ": 9274,
      "දෙවරක": 9275,
      "දෙපරසක": 9276,
      "පසට": 9277,
      "පසවය": 9278,
      "පසවෙන": 9279,
      "පසසෙ": 9280,
      "පසදෙන": 9281,
      "පසවැන": 9282,
      "පසතොල": 9283,
      "කරනනන": 9284,
      "කරනනනට": 9285,
      "යනග": 9286,
      "යනවා": 9287,
      "##යතසස": 9288,
      "##ගලර": 9289,
      "##ගලයන": 9290,
      "##ගලගං": 9291,
      "##ාජර": 9292,
      "සෙමෙන": 9293,
      "සෙංක": 9294,
      "සෙලසයස": 9295,
      "හාසය": 9296,
      "වෙනකර": 9297,
      "වෙනනෙ": 9298,
      "වෙනකොට": 9299,
      "##ලයො": 9300,
      "සැද": 9301,
      "සැප": 9302,
      "සැමට": 9303,
      "සැදම": 9304,
      "සැදෙ": 9305,
      "සැණන": 9306,
      "සැබැවන": 9307,
      "සැපයන": 9308,
      "සැබවන": 9309,
      "අවවල": 9310,
      "අවහර": 9311,
      "අවකාශ": 9312,
      "ජනක": 9313,
      "ජනකව": 9314,
      "උපයා": 9315,
      "උපසම": 9316,
      "උපායක": 9317,
      "උපවාසය": 9318,
      "උපකරමය": 9319,
      "උපකලපත": 9320,
      "භාවය": 9321,
      "භාවනා": 9322,
      "භාවනාව": 9323,
      "දකය": 9324,
      "දකෙන": 9325,
      "දකවනනෙ": 9326,
      "අමලය": 9327,
      "අමමා": 9328,
      "අමපාර": 9329,
      "අමරස": 9330,
      "අමතතන": 9331,
      "අමබලන": 9332,
      "##සනට": 9333,
      "##සනධයෙ": 9334,
      "##ගමනයට": 9335,
      "අදටත": 9336,
      "අදභත": 9337,
      "අධකව": 9338,
      "අධෂඨ": 9339,
      "අධවෘදධ": 9340,
      "මහතාව": 9341,
      "ලබාගැනමෙ": 9342,
      "පවසම": 9343,
      "පවසත": 9344,
      "පවසෙන": 9345,
      "පවසනන": 9346,
      "අතෙ": 9347,
      "අතකන": 9348,
      "අතහැරමෙ": 9349,
      "පරතමත": 9350,
      "පරතගමනය": 9351,
      "පරතෂඨ": 9352,
      "පරතපාදන": 9353,
      "පරතමාව": 9354,
      "පරතචකර": 9355,
      "##ෙෂවරන": 9356,
      "වටද": 9357,
      "වටත": 9358,
      "වටයෙ": 9359,
      "වටමන": 9360,
      "වටලා": 9361,
      "වටටම": 9362,
      "##හරත": 9363,
      "##හරණය": 9364,
      "##හරාජ": 9365,
      "ලැම": 9366,
      "ලැගම": 9367,
      "##ලකම": 9368,
      "##ලකඹර": 9369,
      "##වකාලන": 9370,
      "##වකකාල": 9371,
      "පදගලයක": 9372,
      "පදගලකව": 9373,
      "##ාසට": 9374,
      "##ාසෙනෙකා": 9375,
      "##නනෙතත": 9376,
      "හෙයන": 9377,
      "හෙලා": 9378,
      "හෙජන": 9379,
      "හෙමනත": 9380,
      "##වමම": 9381,
      "##ාධක": 9382,
      "##ාධාර": 9383,
      "##වැද": 9384,
      "##වැත": 9385,
      "##වැටම": 9386,
      "##වැනනා": 9387,
      "පාරෙ": 9388,
      "පාරට": 9389,
      "පාරවල": 9390,
      "මහෙෂ": 9391,
      "මහෙල": 9392,
      "මහනාහම": 9393,
      "හැරය": 9394,
      "අපප": 9395,
      "අපසර": 9396,
      "අපොස": 9397,
      "අපනයන": 9398,
      "අපහසය": 9399,
      "##සතානයෙ": 9400,
      "1900": 9401,
      "ඉනමෙ": 9402,
      "ඉනොකා": 9403,
      "මැත": 9404,
      "මැගන": 9405,
      "මැසස": 9406,
      "මැෂන": 9407,
      "මැදරය": 9408,
      "මැඩල": 9409,
      "මැලයම": 9410,
      "මැරල": 9411,
      "මැරෙන": 9412,
      "##ලනම": 9413,
      "##ලනඩ": 9414,
      "නැමත": 9415,
      "නැවෙන": 9416,
      "නැමැ": 9417,
      "දරව": 9418,
      "දරත": 9419,
      "දරටත": 9420,
      "දරවඩ": 9421,
      "දරවනගෙ": 9422,
      "දරලභ": 9423,
      "දරොණ": 9424,
      "මනරම": 9425,
      "මනමැ": 9426,
      "මනසස": 9427,
      "මනසකන": 9428,
      "ගොලා": 9429,
      "ගොලයට": 9430,
      "ගොඨාට": 9431,
      "##ෙයාන": 9432,
      "දනවා": 9433,
      "දනකට": 9434,
      "ඔබටම": 9435,
      "ඔබබෙන": 9436,
      "ඔබතමා": 9437,
      "##තාවයකට": 9438,
      "##තාවලට": 9439,
      "අවසරය": 9440,
      "අවසසාවෙ": 9441,
      "පෙටරල": 9442,
      "පෙණහල": 9443,
      "##තවරයෙක": 9444,
      "හමපා": 9445,
      "හමයො": 9446,
      "##anberries": 9447,
      "නමැ": 9448,
      "ජාතයක": 9449,
      "ජාතයට": 9450,
      "##ටටඊ": 9451,
      "සයො": 9452,
      "සයපරස": 9453,
      "සයඹලා": 9454,
      "සථතක": 9455,
      "අඩය": 9456,
      "අඩාල": 9457,
      "##තකයන": 9458,
      "කාලවලද": 9459,
      "කැදව": 9460,
      "කැසබෑ": 9461,
      "නයරොන": 9462,
      "නයොජන": 9463,
      "රාජකරණ": 9464,
      "රාජවංශය": 9465,
      "රාජශාහ": 9466,
      "ඔහව": 9467,
      "නරඹ": 9468,
      "නරණය": 9469,
      "නරපනය": 9470,
      "නරාවරණය": 9471,
      "නරභතකම": 9472,
      "##මණක": 9473,
      "##oted": 9474,
      "##ern": 9475,
      "##err": 9476,
      "##erap": 9477,
      "##ertion": 9478,
      "##ොනටෙ": 9479,
      "##ino": 9480,
      "##inc": 9481,
      "##ජනටන": 9482,
      "පරදෙශයෙන": 9483,
      "පරදෙශයකට": 9484,
      "ගතයක": 9485,
      "ගතෙල": 9486,
      "ගෙනා": 9487,
      "ගෙනයන": 9488,
      "ගෙනවම": 9489,
      "ගෙනැවත": 9490,
      "ගෙනාවා": 9491,
      "වලස": 9492,
      "වලො": 9493,
      "වලෙන": 9494,
      "වලගය": 9495,
      "වලැදම": 9496,
      "වැනදාය": 9497,
      "වැනදඹ": 9498,
      "එමල": 9499,
      "සරර": 9500,
      "සරවන": 9501,
      "සරංග": 9502,
      "සරසා": 9503,
      "සරකෂත": 9504,
      "සරකඳ": 9505,
      "සරකෂතතාව": 9506,
      "සරවකාලන": 9507,
      "දෙනනෙ": 9508,
      "දෙනාට": 9509,
      "වදයක": 9510,
      "වදහල": 9511,
      "වදවතන": 9512,
      "වදහලප": 9513,
      "කටවාපටය": 9514,
      "පහව": 9515,
      "පහල": 9516,
      "පහටම": 9517,
      "ලැබවා": 9518,
      "ලැබමෙන": 9519,
      "ලැබමකට": 9520,
      "මතෙන": 9521,
      "මතයක": 9522,
      "මතොටම": 9523,
      "කොටසෙ": 9524,
      "ගැබ": 9525,
      "ගැසම": 9526,
      "බැම": 9527,
      "බැඳන": 9528,
      "බැබළ": 9529,
      "සවාරය": 9530,
      "සවබල": 9531,
      "සවදෙනා": 9532,
      "සවඩනය": 9533,
      "සවෛර": 9534,
      "පතතව": 9535,
      "පතෙක": 9536,
      "පතකරම": 9537,
      "quic": 9538,
      "##ංශයට": 9539,
      "##පාදනයන": 9540,
      "අනතරට": 9541,
      "අනතරවය": 9542,
      "ආරදරතා": 9543,
      "ආරජනටන": 9544,
      "පටම": 9545,
      "පටල": 9546,
      "පටතව": 9547,
      "පටවන": 9548,
      "පටවෙ": 9549,
      "පටගත": 9550,
      "පටකොට": 9551,
      "වශෙෂය": 9552,
      "වශෙෂණ": 9553,
      "වශෙෂවල": 9554,
      "වශෙෂතවය": 9555,
      "වශෙෂවලට": 9556,
      "පොලමක": 9557,
      "සොයන": 9558,
      "සොඩා": 9559,
      "සොයමන": 9560,
      "සොඳමන": 9561,
      "##මයලා": 9562,
      "අයගෙ": 9563,
      "අයපඑල": 9564,
      "##හැදල": 9565,
      "කරයාමාර": 9566,
      "කරයාකලා": 9567,
      "නවයක": 9568,
      "නවකරණය": 9569,
      "නවොත": 9570,
      "නවෙසවලට": 9571,
      "මාරගො": 9572,
      "මාරෂල": 9573,
      "##ාගාරයක": 9574,
      "හරගෙ": 9575,
      "පවතක": 9576,
      "පවතනා": 9577,
      "බරසලය": 9578,
      "ගණයෙ": 9579,
      "ගණමක": 9580,
      "ගණමෙ": 9581,
      "ගණරතන": 9582,
      "ගණවංශ": 9583,
      "ගණාකාර": 9584,
      "දැහැම": 9585,
      "දැලවම": 9586,
      "වමබට": 9587,
      "##කමාල": 9588,
      "##aron": 9589,
      "##arat": 9590,
      "##arks": 9591,
      "බලපාය": 9592,
      "බලපැවැතව": 9593,
      "##සලදායක": 9594,
      "පෙරසම": 9595,
      "පෙරදග": 9596,
      "පෙරළම": 9597,
      "රජට": 9598,
      "රජයන": 9599,
      "රජවෙ": 9600,
      "රජකම": 9601,
      "රජයනට": 9602,
      "රජවරන": 9603,
      "රජරට": 9604,
      "ඉනදයාවක": 9605,
      "භාෂණ": 9606,
      "රැද": 9607,
      "රැජන": 9608,
      "දැනමට": 9609,
      "දැනණා": 9610,
      "##ornia": 9611,
      "වශයෙනද": 9612,
      "ගනනට": 9613,
      "ගනනකන": 9614,
      "ගනනනට": 9615,
      "නෂෙ": 9616,
      "නෂකාස": 9617,
      "වසරජන": 9618,
      "##onn": 9619,
      "##ona": 9620,
      "ලංකාවෙහ": 9621,
      "කාංසා": 9622,
      "කාකෂකය": 9623,
      "වාරක": 9624,
      "වාරයෙද": 9625,
      "වාරමාරග": 9626,
      "වාරෂකව": 9627,
      "##ගොලල": 9628,
      "##ගොලලෙ": 9629,
      "##සෙට": 9630,
      "##සෙවා": 9631,
      "##alid": 9632,
      "##alian": 9633,
      "##alier": 9634,
      "වැදමට": 9635,
      "දකවාම": 9636,
      "සාමහක": 9637,
      "##ලපෙන": 9638,
      "පරධානතම": 9639,
      "පරකාශයන": 9640,
      "පරකාශනයෙ": 9641,
      "දෙශපරෙම": 9642,
      "ආසදනය": 9643,
      "තනෙ": 9644,
      "තනෙන": 9645,
      "තනවෙන": 9646,
      "තනකම": 9647,
      "තනපඩ": 9648,
      "##ඳනට": 9649,
      "තරගවලට": 9650,
      "නෂපාදත": 9651,
      "නෂපාදකයෙක": 9652,
      "මරදය": 9653,
      "මරකල": 9654,
      "මරදාන": 9655,
      "පරමාණයට": 9656,
      "අමාතයංශයෙ": 9657,
      "පෙනම": 9658,
      "පෙනවම": 9659,
[...]
