[PAD]
[UNK]
[CLS]
[SEP]
[MASK]
!
"
#
$
%
&
'
(
)
*
+
,
-
.
/
0
1
2
3
4
5
6
7
8
9
:
;
<
=
>
?
@
[
]
^
_
`
a
b
c
d
e
f
g
h
i
j
k
l
m
n
o
p
q
r
s
t
u
v
w
x
y
z
{
|
}
~
°
²
µ
·
ɑ
ə
ɾ
ʈ
ʋ
ʒ
ʰ
ː
ت
ج
ر
ق
م
ه
و
ی
ං
ඃ
අ
ආ
ඇ
ඈ
ඉ
ඊ
උ
ඌ
ඍ
එ
ඒ
ඓ
ඔ
ඕ
ඖ
ක
ඛ
ග
ඝ
ඞ
ඟ
ච
ඡ
ජ
ඤ
ඥ
ට
ඨ
ඩ
ඪ
ණ
ඬ
ත
ථ
ද
ධ
න
ඳ
ප
ඵ
බ
භ
ම
ඹ
ය
ර
ල
ව
ශ
ෂ
ස
හ
ළ
ෆ
ා
ැ
ෑ
ෘ
ෙ
ෛ
ෟ
ෲ
ᄅ
ᄇ
ᄉ
ᄋ
ᄒ
ᅡ
ᅣ
ᅩ
ᅪ
ᆨ
ᆫ
ᆷ
ᆼ
–
—
‘
’
“
”
•
…
⅓
−
√
博
咸
唐
山
新
書
爐
阮
香
🇦
🇧
🇨
🇩
🇪
🇫
🇬
🇭
🇮
🇯
🇰
🇱
🇲
🇳
🇴
🇵
🇶
🇷
🇸
🇹
🇺
🇽
🇿
🌲
🌳
##ය
##ක
##ෙ
##ා
##ට
##ෑ
##ස
##ම
##හ
##ව
##ග
##ඳ
##i
##n
##e
##ල
##න
##ෂ
##ණ
##ද
##භ
##ත
##ඛ
##ඩ
##ං
##ර
##ථ
##m
##a
##g
##s
##ැ
##ප
##ජ
##ෘ
##ධ
##h
##u
##r
##7
##6
##5
##v
##ඨ
##ශ
##t
##2
##o
##k
##p
##l
##ළ
##බ
##ඹ
##9
##4
##3
##ඟ
##ෆ
##ඥ
##d
##ච
##c
##y
##0
##x
##b
##අ
##1
##🌲
##j
##ඡ
##ෟ
##🇷
##f
##ෛ
##z
##ඵ
##w
##🇪
##🇹
##ඬ
##ඕ
##8
##ඝ
##ඪ
##ඓ
##²
##q
##ඇ
##🇶
##🇿
##°
##🇩
##ඤ
##ඞ
##එ
##🇺
##🇬
##🇳
##උ
##🇴
##ඊ
##ආ
##م
##ر
##ی
##⅓
##🇰
##ə
##ʈ
##ඃ
##ᅣ
##ᆼ
##ᄅ
##ᅩ
##ː
##ʰ
##ɑ
##🇫
##ඔ
##√
##🇭
##ᅪ
##ᆫ
##ᄒ
##ᅡ
##ᆷ
##🇲
##ඒ
##ෲ
##🇽
##ʒ
##ʋ
##ɾ
##🇱
##ᆨ
##ᄉ
##ඉ
##ج
##ق
##و
##🇦
##🇵
##🇸
##ො
##ෙන
කර
##ාව
##තර
##ාර
##st
in
සම
පර
##නන
inst
##යක
##යෙ
##ාත
##ාන
සහ
##යෙන
##තව
වස
කරම
##හත
##බන
##යන
##යා
ඇත
##ැන
##බනධ
##කාව
සමබනධ
##වා
##කර
##නය
##පය
##ැක
සමබනධයෙන
##වන
##ාල
පහත
වසතර
##හා
මෙ
##ාතෘ
මාතෘ
සපය
මාතෘකාව
සපයනන
##ණය
වෙ
##මට
##වත
##ගෙ
##මක
වන
වැ
සඳ
##වස
##වර
##ෙක
සං
බව
##නා
අතර
##ෙස
##කෂ
##පත
##යට
සඳහා
කළ
##වල
අන
##රම
හැක
##තා
පළ
පැ
එක
##ෙශ
##කා
##දර
##ංග
කො
සට
##ාද
තබ
තර
වශ
##ණඩ
හො
##තය
##මන
##දය
කරන
පො
##දා
වර
##ෙර
##වෙ
නො
##වය
##කාර
ශර
##ලල
ගැන
කරමට
##තත
##ොර
පද
බල
##පර
ලෙස
##ාම
වය
සද
##මත
මල
##හන
වැඩ
##ගත
##ාය
කරය
ලබ
##මෙ
දෙ
##ානය
පස
කරනන
යන
##යත
##ගල
##ාජ
සෙ
හා
වෙන
##සක
##ොග
ලං
##දෙශ
##සය
##ලය
තබෙ
සැ
අව
මෙම
##ාවක
ජන
උප
##මෙන
භාව
##ගෙන
දක
අම
20
##සන
##ගම
##දන
අද
අධ
මහත
ලබා
එය
පවස
අත
##කට
පරත
##ෙෂ
වට
##හර
ලැ
##ලක
##වක
පදගල
##හස
##ාස
##රය
##නනෙ
හෙ
##වම
##ාධ
වසන
මහතා
##ොක
##වැ
පාර
##වට
##ශය
මහ
හැ
අප
##සත
19
ඉන
මැ
##ලන
නැ
දර
මන
ගො
##ාරය
##බඳ
##ys
##ෙය
දන
ඔබ
sys
##සා
##තාව
අවස
##ගන
පෙ
##මා
පවසය
ඔවන
##ලා
##තවර
හැකය
හම
##ඩා
##an
නම
##ගය
##ාතමක
##යෙක
ජාත
##ටට
සය
සමඟ
පළබඳ
සථ
ලද
අඩ
##තක
කාල
##ාක
##වධ
කැ
නය
රාජ
##ාවෙ
ලංකා
##ගර
ඔහ
ඇතළ
##තම
නර
##කත
##මණ
##ot
##er
##ොන
##තවය
##වෙන
##in
##සට
##කයන
##ජන
##ොහ
භාවතා
යො
පරදෙශ
ගත
##ෙද
ගෙන
වල
වැන
##සර
එම
සර
දෙන
වද
කට
පහ
ලැබ
කණඩ
##ෙහ
කණඩාය
මත
කොට
##ධාන
ගැ
බැ
සව
##නම
පත
##සම
qu
##ායක
##දධ
##ංශ
##ොධ
##පාද
ගැනමට
##කරණ
අනතර
quot
එහ
ආර
තළ
##කරණය
පට
##හාර
වශෙෂ
##ාප
##ෘත
පොල
##ෑම
සො
##මය
අය
##හැ
කරයා
##ාලන
##නද
##ාතය
නව
මාර
##ාග
හර
##ණයක
පවත
බර
##සථ
වරග
ගණ
දැ
පරකා
වම
##කම
##ලෙ
##ar
බලප
##ටත
##සල
##තන
##පයක
පෙර
රජ
ඉනදය
නරම
##යෙද
භා
රැ
##ඛය
##නාධ
තොර
දැන
##or
වශයෙන
ගනන
නෂ
වසර
##on
ලංකාව
කා
ලොක
වයා
නරමා
දතත
වාර
සභ
##ගො
##සෙ
##al
වැද
ජාතක
දකවා
කටයත
##ංක
ජනාධ
වනනෙ
සාම
##ොහො
##ලප
පරධාන
ගැනම
පරකාශ
දෙශ
කරමෙ
ආස
තන
##ඳන
එකසත
තරග
නෂපාද
මර
##යය
පරමා
අමාතය
අනව
ඒවා
පෙන
පකෂ
මට
වවධ
##ටම
ආරම
##ලමෙන
##දල
##දෙන
##ැය
##යකට
පාරලමෙන
ආරමභ
##වලට
හෙතව
කහ
කෙර
තෙ
##at
බවට
අවශය
201
ගමන
දෙක
යත
ඉලල
කල
##ධාර
ඔවනගෙ
ඇතළත
ඉදර
නත
බොහො
රට
##ic
##කන
##බර
කරකට
කරමන
සත
##ටර
##en
##ධන
##අඩ
පොහ
මැතවර
තවත
පන
##හල
##පාර
අභ
ගර
ජය
නමත
වෛ
##කය
අපර
නල
සන
##ලම
##ණක
##ාවන
පළම
සොයා
##ොල
කෙ
නද
##ංගවට
අතඅඩ
පදගලයන
##දම
##කරම
කණඩායම
දය
මගන
##ගැන
නරමාණය
##හළ
##චාරය
කළෙය
සටන
දකණ
රොග
මෙය
වෙළ
අතඅඩංගවට
අර
ඇය
##us
10
මෙන
වදය
##දරවය
කහපයක
ආණඩ
ආකාර
දැක
මාන
##සව
##ac
##ශර
##ොජ
සථාන
උත
ගන
මම
සල
සවය
##මැ
##es
පවතන
පොහොර
ඉත
වග
##නට
##ළඹ
වෙත
පැවැ
සෞ
##ාධය
ජවත
නසා
##ඩන
පරව
නදහස
මා
වව
##භොග
##රස
##කෂණ
##වලන
ආසාද
අල
කාර
ගෙ
මහා
වමට
පාරභොග
සෞඛය
හට
##ෙල
##ෂය
සංවධ
තරඟ
##පට
##පද
පැමණ
වෙනස
අවසථ
ජනාධපත
ඉගෙන
සා
##සස
##දනය
##තවල
භාවත
දම
වඩා
##වමට
##භාව
පරා
අනෙක
සවයං
ඉහළ
චන
##ොද
සමපර
පාරලමෙනත
ලංග
සනන
##ශන
##ොට
උපකාර
වැදගත
පාස
##ෂණය
##ධය
##ධනය
##යකන
බවය
##රමණ
වරොධ
කරයාතමක
තොරතර
නායක
පා
ලක
ලබන
##ථක
##පකෂ
##ානත
සඳහන
සැලක
මනතර
පරදෙශයෙ
පොලස
හෙතවෙන
ආයත
තව
තත
##ැම
200
පහට
ආහාර
සැක
හඳ
##ඳම
##වාද
##කරවන
මෙහ
##ෙකෂ
ඔබට
මාරග
ඉවත
දව
පමණ
##ed
##ලයෙ
##ානයෙ
##වරයා
ගැට
වෛදය
යෙද
##චාර
සමාජ
පරද
ඔබෙ
පැවැතව
පාල
වඩ
##ෂණ
තරණය
වශාල
ලැය
රාජය
ආරකෂ
සාමානය
මැතවරණ
එර
මටට
##ලෙක
##රො
##තරය
##තරක
සමහර
වදයා
කරයාකාර
ලංකාවෙ
දග
##මර
##රද
##th
##00
කරඩ
සමග
##කරන
මලදරවය
සෙව
භාෂ
වෙළඳ
හඳනා
කෙස
කාරය
මාධය
සෑම
##මාර
##මනා
##il
##om
කොළඹ
පොලසය
ලංගක
නගර
බෙ
වදෙශ
##කස
##වතව
##පා
සමා
වෙය
පළාත
කොම
##පන
පැවස
කඩ
දස
බෙර
මණඩ
වච
##හැක
##is
##නගෙ
##ාවට
පැහැ
සැල
හරහා
වාරතා
ආසාදත
ඉතා
උද
ජල
යටත
##ාහ
##සතව
සහත
කරමෙන
අවසන
ඔහගෙ
නෂපාදන
කව
බවත
වක
##යො
##වඩ
##පාලන
##වාස
##වාහන
වෙබ
පොද
පදගලයෙක
##ලනත
නැත
බරත
භාණඩ
සභා
පය
මගෙ
මහන
යතය
##et
##el
කරණ
පැවත
වෙනත
මහද
පළබඳව
කොටස
බරතානය
අයත
අංශ
ඇල
ඉඩ
තම
නකත
පල
මය
ලා
වාක
##ෙම
##බල
##බැ
##ාවර
පරස
##යෙහ
කරමය
නොහැක
නැවත
එරෙහ
දපත
ශාක
##ri
සමත
##යනට
##කෂණය
සදව
වෙනවෙන
සැපය
පරතඵ
කාලය
යොම
දෙනෙක
ගණන
හටප
පතව
##කල
##වැන
##ංශය
##පතවර
කරඩා
පරසර
##දාළ
අදහස
නයොජ
ගනනා
th
සාර
සපර
##ion
##භාග
##ශනය
පරහාර
##නනා
නලධාර
ලැයසතව
කඩා
නවස
වාය
##නෙ
##පාල
##යනතර
##වරත
වඩාත
පයවර
ඝාත
ජාල
මාස
##ලයක
##රා
##වරද
##දරටත
පදධ
පදනම
සෙවා
හැර
ඉතාල
අදාළ
මධය
##පො
පරම
##කරය
කළමනා
නොමැ
වලට
දෙශපාලන
##දෙනෙක
පාරභොගක
පැහැදල
ඉලෙක
කය
තමන
යම
##කාන
##පල
##ඟන
##යකෂ
##තවයක
කරයාව
දෙපාර
පසව
පරතකාර
නයම
ඉදරපත
සංවධානය
පාසල
ඉලෙකටර
කස
තා
පවතව
මදල
රා
##තමෙන
##ධානය
සංගම
##ාදෙශ
ලබාද
##ගරහ
##හැර
කාබන
වයාපාර
දයණ
සමපරණ
දෙපාරතමෙන
යනන
ශකත
##යම
##ැල
##ජෙ
##ජා
මෙර
වැට
සංසක
තබා
තරණ
රාජපකෂ
යොදා
මානසක
බස
මො
රෙ
සාද
හද
##ගාර
##it
##hin
##බද
පරසක
##වෙදන
නොවන
හැඟ
##සාහ
පෙළ
සථර
උතසාහ
කෙසෙ
දෙපාරතමෙනතව
ආක
උදා
එලල
කෂ
කමක
ගල
##යොග
##හම
##ගොර
##ur
##ොම
වශව
පසගය
ජනතාව
අපගෙ
##anth
පරමාණ
පාලනය
ඉලෙකටරොන
අස
ඒකා
යා
රථ
සවා
##ec
##ලෙෂ
##am
##චත
##ොත
##තතෙ
##ාමය
මලක
අපෙකෂ
ජාතයනතර
සයලම
දැඩ
පරවෙශ
ඇලගොර
එරෙහව
ඇලගොරතම
16
18
කෘ
යද
යදධ
##ාට
##ාංග
ඇතත
##නායක
එකක
එකදන
කොවඩ
දෙවන
##සයාන
හෙත
ගොඩන
හැකයාව
වසරෙ
##acanth
##භාවය
ආයතන
##acanthus
17
rhin
අලෙ
තල
මාල
වයෙ
##කළ
##රඹ
##ෘද
##චඡ
##ොව
සමපත
##නයට
නොව
කරනනෙ
අවසාන
හමදා
ඉනදයාවෙ
තවදරටත
වාකය
the
rhinacanthus
අවරද
චොද
රප
ලකෂ
##ෙට
##සෙන
##සමක
##හනය
##ෂට
##ංච
##as
##තවෙ
එකත
තබෙන
##සටර
##සටහන
පහණ
ජනාධපතවර
දෙකක
පනත
යටතෙ
මහනද
සැපයම
චොදනා
11
an
ආශර
ඉලක
චතර
නෙ
බහ
රැක
ලෙක
##යයන
##දැක
##ැත
##ජත
##ෘතත
සමම
සමාන
පරශන
##වරධන
පැතර
වරධනය
##වෙය
අධයා
අපට
දරවය
පෙරමණ
ඉලලම
##ගැනම
ආකාරය
ආසාදතයන
කසල
රය
ශෂය
සාක
සකස
##ay
##ඹර
##ොස
##යාගෙ
තබණ
වශලෙෂ
සෙවක
ජනපද
උපද
අධයයන
මහණ
බැවන
##ෘතතය
බලපතර
දසතරක
අලෙව
12
කෙන
කලා
ගය
තැන
නස
පවල
මස
මතර
වලන
##ටල
##බදධ
පරකෂණ
##වරන
සංඛය
සංචාර
තරගය
වශවාස
හොඳ
##සකම
අමතර
මනසන
රජය
##ගොඩ
තෙරම
බෙදා
සමාගම
පරතඵල
නොමැත
මෙරට
උදාහර
සාකචඡ
කතා
හඳන
##කව
##ජනා
##le
##බොධ
සමසත
වනා
##ංගල
සටහන
##හනසෙ
යනතර
අතදැක
කාලයක
යොජනා
ආරථක
##සථාන
නෂපාදනය
##ation
මානව
ඉතහා
භාවතයෙන
අනෙකත
දවයන
පදධත
කමකද
උපදෙස
ඇම
තැ
දෙස
ධන
නවැ
ඵල
රන
ලෙ
වා
සෙන
හමක
##වනන
##වෙක
##පස
##නනය
##යාට
කළෙ
##ණඩාර
මලය
අනතරජ
දැනම
පකෂය
පැවසය
ලෙකම
එළ
එංග
කන
පහර
සළ
සාප
##ෙත
##පළ
ඇතැය
ඇතැම
##වාල
වැස
සටයෙ
##දාය
වරතම
අධක
පරතපත
##තාවය
අඩව
වදල
ඉලලා
ජයගරහ
සාකෂ
කරයාකාරකම
සැලසම
වකණ
කෂෙ
ඒකාබදධ
is
අගය
උතර
ඒක
ඕන
දො
දනා
නශ
නතය
පහස
බණඩාර
මෘද
යළ
වෘතතය
සතය
ළඟ
##කයෙ
##සං
##ලට
##භය
##ොච
##ාවෙන
සමමත
##ාතයා
##ණයට
වැරද
##වසථ
අනර
##ංගරස
හොඳම
##වෙදනය
ගැනමෙ
වැඩසටහන
වෙනවට
අවම
අමාතයා
##ගමනය
අධකරණය
##සායන
##and
අඩංග
##ing
දෙනන
වයාප
##ගොස
පාරභොගකයන
මෙහෙය
සාමානයයෙන
සභාපත
ලාංක
ඝාතනය
ආකෘත
ගොඩනැ
හමකම
අරමණ
ඉට
එනම
ඖෂ
ගම
ජලය
පාලන
බා
රොහ
රසායන
##වමෙ
##ig
##දෙ
##රක
##ශොධ
සමප
සහතක
වනදනය
වැළ
සටය
##දයණ
##දාස
මලා
වැඩදයණ
202
හෙට
මහජන
පෞ
ඔවනට
##ලාභ
සයල
බලපෑම
තරගාව
ඉගෙනම
සාහත
තතතව
##ාදෙශය
කාබනක
චතරපට
නවැරද
15
අගම
ආද
කමට
දමට
නතර
නයට
රත
සසන
##හය
##ගණ
##ලොක
##තාවක
##ශකත
##os
සමාග
පරවැ
පරවාහන
##යෙකට
වෙල
##වරධනය
##නාගාර
##පරය
පසා
ජනතා
කැප
වශෙෂයෙන
අයර
දැම
කෙරෙහ
ආරකෂක
භාෂා
මණඩලය
වචන
කළමනාකරණය
පවතවා
සංසකෘ
ඉලකක
අමතරව
ඖෂධ
25
ne
st
අග
ආලොක
එල
කයා
ජෛ
තද
නා
නඩ
බඳ
බන
මැන
රස
සප
සතව
සතන
##භව
##භාවක
##re
##ශල
සමාව
පරකෂ
කරමයක
##යනගෙ
වෙද
වෙතත
##මකට
දෙය
සෙවය
හැඳන
මැද
ලැබෙ
බැංක
ලොකයෙ
වාරතාව
ආසනන
මෙනම
කාරයා
ආයතනය
මයගොස
සාදනන
ආශරත
කෂෙතර
cr
on
of
ආවරත
ඉර
එයට
කාන
ඡාය
බද
බො
ලය
වධ
වහනසෙ
##ෞ
##වද
##ගයෙ
##බස
##ානම
පළල
කොරො
පොජ
වයවසථ
##ාජය
හෙළ
199
194
ගොස
සථරය
රැස
මරණ
රටවල
පනර
අභයොග
ආණඩව
##ැමබර
2005
හැඟම
එංගලනත
ඡායාර
කොරොනා
අලල
ඇමර
ඊයෙ
ඡනද
නෑ
පතර
මළ
යාම
රො
වාස
වපකෂ
වභාග
සතවල
##වමක
##ගනනා
##em
##ණා
##රණ
##පනය
##ජය
##un
##ol
වසා
මෙයට
සංගත
##දායක
##වෙද
බලය
බලශකත
දෙදෙනෙක
පරතලාභ
##ගරාම
නරත
කණඩායමෙ
දැනට
කාණඩ
පරමාණය
2015
##ගැනමට
සනනාම
පමණක
ගැටල
යෙදම
මටටම
and
සාකචඡා
අනතරජාල
ඕනෑම
බාහර
බනධ
26
30
31
com
ph
අගන
ඇරඹ
කථ
කාම
කමාර
දශ
දෂණය
නපද
භෞ
මදා
යට
වහ
සෘ
සතර
##කතය
##කාලන
##ලත
##දගල
##පක
##ul
##චච
පරාදෙශය
සහභාග
සංහල
සංශොධ
සටම
පොත
##දෙශය
අවධානය
වටා
198
බලපතරය
කාච
නරමාණ
සභාව
මහාචාරය
සමපරෙෂ
සවාධන
ඇතතෙ
##පළවෙ
මලාශර
පෞදගල
14
ඇඟ
එන
කමන
ගතත
දනය
නයා
භාර
භකෂ
මෛ
මඟන
හාන
##කයෙක
##ෑන
##ගතය
##ගණක
##නයෙ
##තතය
##රාල
##ථය
##ජනය
##ඨා
##ch
##ber
සමන
පරවා
##කරමට
වනොද
සංචාරය
පළතර
##ෙරණ
ශරෙ
අවබොධ
ජනපත
වටනා
ගොන
ගොඩ
දනයෙ
පෙත
හමවෙ
##inf
ලැබෙන
ගැඹර
අයවැ
රජයෙ
සාමාජ
අපරාධ
මෙනන
වදයාව
ගැටළ
නයොජනය
සාරථක
නලධාරන
පරමඛ
ඉතහාසය
ඵලදාය
නශචත
ඡායාරප
බනධනාගාර
මෛතර
80
ඇන
උසස
එසෙ
ජෙන
තහ
තෙක
දාහ
නාවක
පඩ
බට
බදධ
භම
යැය
රපය
වමෙන
සකන
##කක
##ෙලය
##සාර
##id
##ෂඨ
##ඛන
##ඩර
##රයක
##ap
##පැ
##පාත
##og
##තරම
##ානායක
##තවයෙන
##යනහ
මෙවා
වෙග
සංකරණ
අතරම
පැල
සදවන
පසෙ
##සයම
අතට
පදගලක
##රයාන
197
දනද
##anu
කාලන
නයොග
වශෙෂඥ
තොරා
මරට
පෙනවා
කෙරෙ
අපරකාන
දමරය
සැලකය
තතතවය
##ish
##බැඳ
##වරතනය
උදාහරණයක
ධනාතමක
භෞතක
අංග
අතය
අහම
ආදර
ආතතය
ඊට
උණ
කප
ධවර
නවක
නාමය
පාක
පනද
බංගල
ලොව
වෂ
වත
සලල
හත
හවම
##ටන
##සරම
##මබර
##වාර
##වශය
##ian
##ලයට
##නයන
##දව
##ඛණඩ
##ag
##බාධ
පරභ
පරථ
වසඳ
##කරයා
වනදන
##වරයක
අතරතර
##ෙසට
පළවන
පැය
එකම
##ලලක
##ොරො
බලපර
බලාප
ජනම
භාවතය
හැසරම
196
195
ඉනධන
ගොලය
පෙජෙ
සරසෙන
සවඳ
පටන
##ාපනය
ඉනදයාව
ලොකඩ
දෙශය
ඒවායෙ
පකෂයෙ
නතඥ
##icinf
මැතවරණය
වදයාවෙ
ගනමන
සලවා
සලකා
සැකකර
පලබඳ
ලැයසතවක
කසද
සංගමය
ශකතමත
##සටරෙලය
අධයාපන
අලෙවකරණ
කෙනෙක
අතදැකම
බණඩාරනායක
අමාතයාංශය
අගමැත
සංසකෘතක
ආවරතතා
පෞදගලක
අතයවශය
හවමාර
පෙජෙං
##icinfo
for
fil
අගො
අඛණඩ
ආචාරය
ඉසල
ඉංගරස
එවැන
කම
කණ
කත
ගෘ
ඩෙ
තමා
දෂ
දෘ
දලල
පෘ
බය
මදර
වඳ
වාත
වහාර
සවර
සාධ
ෆර
##යාව
##කයක
##කයා
##ායන
##ාපත
##නෙක
##දක
##ශයක
##ter
##ඤඤ
##ාවැක
##ාරයක
පරණ
පරාව
##නනට
##නනද
සමබනධතා
##වනට
සංක
සංඛ
අනාවැක
එකනෙක
බලා
දෙයක
උපකරණ
##ගමව
අධයකෂ
මනස
ගොඨා
කැඳ
ඔහට
##ers
කණඩායමක
අනතරකරයා
තනතර
පරමාණක
##දෙනා
කෙරණ
කෙරෙන
රටෙ
අභයා
කෙට
වදයාතමක
ආණඩකරම
වවෘත
කාරයකෂ
තරඟාව
අවසථාව
පරාණ
වෙළඳාම
##මාරග
##යොජන
නයටර
cricinfo
පොජජ
ගතතෙය
මෛතරපාල
තහවර
සලලර
13
27
fr
wi
අයෙක
ඇතව
ඇමත
කටට
ගනද
දළ
ධර
පාන
පාප
බොග
රඳ
වෘතත
සලක
සපා
##කඩ
##ටය
##ංජන
##රවර
##lo
##ොප
##ාරථ
සහය
සහාය
##යෙනම
##කාවක
මෙවල
##වරයෙක
##කෂත
##කාංග
කොප
සටමට
නොත
මලද
##යතාව
උපාය
හැඩ
අපහස
ඉනදන
හමද
සයවස
##තමය
පහළ
ගැටම
සවභාවක
රැසක
##ort
තනක
පරමාණයක
පාරලමෙනතව
ඉලලමක
පදගලයනට
වෙළෙ
සලසය
සංවධාන
ඉගෙනමෙ
පාඨ
භාෂාව
මහදෙ
ගණනාවක
වශලෙෂණය
සංඛයාව
තැබ
පරතපතත
මෘදකාංග
වයාපෘත
රසායනක
new
සංඛයා
000
ar
ch
ma
අනා
ආය
ආසයාන
ඉතර
උදය
උතතෙ
කඳ
චර
චාර
ටෙසට
තහන
තවාල
දායක
නාම
පණ
බම
බොල
බබස
යැ
වණ
වළ
ශාර
ශකතය
සවල
සබැඳ
##කොට
##ෙප
##ෑට
##හොත
##වමන
##ගැ
##iv
##නයක
##av
##ධර
##ut
##pt
##බෑ
පරහ
##ානතර
##ානතය
##තවාද
##කාවෙ
##වාය
සංය
අනගමනය
වයස
සැස
දකනට
අධකාර
අධකරණ
පවසනනෙ
මහතාගෙ
##ලනතය
වදලය
කණඩායමට
කොටසක
බැල
වශෙෂත
පරකාශය
##ard
ඉනදයාන
රැගෙන
##ent
සනධාන
සථානයක
වවද
අවසථා
චනදර
සනනවෙදන
ලකණ
මාරගයෙ
කරඩකයන
සෙවාවක
කාරයයන
සැලැ
පදනමව
හදස
වකණම
ළඟා
##සංහ
ගොඩනැග
සමපනන
සාහතය
පරවැස
අගනවර
ශරෙණ
රපයල
පරථම
film
අගොසත
සපාඤඤ
ශාරරක
cb
pr
අගරාම
ආකර
ඉද
උපත
ඛණඩ
ගවන
තතව
තෙර
පැන
බොර
බාධ
මග
මද
ලඟ
##කණ
##ගමක
##ගරය
##ලනය
##රතන
##ථනය
##ැටල
##පප
##ht
##බා
##ොනය
කරත
පරශ
පරානත
##ාලා
වෙඩ
වෙමන
##මකන
සංවරධනය
##කෂෙප
##වලද
පැද
තරණයක
හොඳන
වරෂ
වරණ
##වෙග
නොවැ
ශරර
ලෙසන
සදධ
සදකරන
දෙව
අවද
උපදෙශ
පරතකෂෙප
මහතාට
මනද
ජාතනගෙ
ඇතළව
##සටන
පරදෙශයෙද
පතකර
එහද
කරයාමාරග
##සථානය
බලපෑ
රැසව
තොරව
ලංකාවට
2018
##කයො
ආසාදනය
මාරගයක
හඳනාගත
සපරශ
මධයම
රාතර
කෘෂ
දවයනෙ
අනරාධ
ජෛව
##වදයා
සමනවත
අයවැය
උණසම
##ොරොතත
බලාපොරොතත
ජනමාධය
ගොඨාභය
ගනදෙන
වෙළෙඳ
06
05
24
en
lan
අඟ
අංක
ඇගය
එයන
කයය
ඝන
ජව
ජරම
ජලා
ජොන
ඩොල
තතවය
දමන
දනනෙ
නළ
බළ
භට
මව
මතක
යතර
වමෙ
වංච
ශත
සනා
හෙර
##සසෙ
##මාන
##හසක
##ගණය
##ia
##ist
##ev
##ෂන
##රන
##රණය
##රසය
##ab
##ධරම
##ub
##op
##oc
##බම
##ොය
##ාවත
පරජ
පරගත
පරසථ
පරජා
පරගණක
කරමක
##යාම
##වනගෙ
වැල
සංසථ
##නාහර
අතරදන
##රමත
පැටට
##ාදය
තබය
කරනවා
නොවෙ
##ොරක
වයදම
සදවය
ලබය
සැපත
ජනග
උපාංග
අමෙර
පදගලයා
පාරශ
192
දරසථ
මනො
##තාවයක
කාලගණ
කැමත
නයමත
##කයනට
පරදෙශය
වලද
අනතරව
මාරත
##සලම
දැනවත
වයාපත
පරකාශයක
පරකාශයට
අමාතයවරයා
වවධතවය
තෙල
වෛරස
පැවැතවණ
වචලය
වකලප
අංශයෙ
##ාවරණය
නයොජත
පරහාරයක
තාකෂණය
සංගමයෙ
සංසකෘත
බසනාහර
වශවවදයා
කෘතම
රපවාහන
ජනාධපතවරයා
රැකයා
අධයාපනය
දසතරකකයෙ
පවලෙ
වනාඩ
සාපප
සාපෙකෂ
සටයෙය
වරතමානයෙ
one
පැලෑට
නයටරජන
අගරාමාතය
නොවැමබර
22
28
39
dec
per
tr
un
ආධාර
ඇඳ
ඇගෙ
එනන
කෑ
කානත
ගයෙ
ගවෙ
ජනනය
තරම
පවර
පලප
බෙක
මොර
මොන
මසලම
රච
රකෂත
ලප
ලකෂණ
වගෙ
වකරම
සෑ
සස
හය
හස
හං
##ටක
##ෑසන
##සප
##මළ
##හණ
##ගස
##eb
##ලඩ
##නතර
##දද
##තහා
##තොට
##ජව
##ජර
##um
##tt
##ka
##ks
##ාරම
පරයෙ
පරොක
පරාජය
පරවරතනය
##ානක
වසතව
වසසය
වනසර
##වරණය
##වරනගෙ
සංකර
සංකල
එකතව
වශෂට
##ලලෙ
##ලලට
බලනන
සදවම
සැම
උපරම
##ගෙනහර
අමලා
##හසථ
නැගෙනහර
දරඝ
##තවරයා
සථාවර
කැල
නරප
නරදෙශ
නරකෂණය
##ind
වලංග
සරසව
පහක
ලැබණ
තළන
මාරගය
වරගයෙ
රැඳ
සභාවෙ
##සවෙක
##ොජනය
පැවැත
පරවෘතත
මාංශ
සවයංකරය
පාසැල
පහටා
පැවැතවමට
වදයාල
සෙවාවන
හඳනාගෙන
කාරයභ
නගරයෙ
උදෑසන
වාකයය
පරසරය
වායගො
ඉතාලයෙ
කරයාවලය
තාකෂණ
රාශයක
සථරයෙ
##ොමබ
කසලාන
සංචාරක
හඳනවා
වරතමාන
දොෂ
මෙහෙයම
ලාංකක
සංශොධනය
සමපරෙෂණය
පරවාහනය
කපපාද
බංගලාදෙශ
බලපරදෙශය
ගෘහසථ
කාරයකෂම
උතතෙජනය
තහනම
බොලගොඩ
සැපතැමබර
##තහාසක
29
23
41
ii
අහ
ඇස
ඉකම
ඓතහාසක
ඔලම
කැන
කපා
ගඟ
ගතව
ජප
නවෙදන
නගරය
පවා
මඟ
යහ
රණ
ශබද
සක
සඟ
සතරය
හඟ
හඬ
##ාංශ
##ාණක
##ටස
##ෑමට
##සමෙ
##නක
##ණන
##ණාතමක
##දමට
##රච
##රොන
##ැස
##ෆර
##ඥයන
##0ක
සමාල
පරෂ
පරච
පරොට
පරයොජන
කරමානත
##වාදය
මෙවැන
වෙර
වෙගය
වනදා
වනවට
අනභව
##ංගම
සදානම
මලයන
යනවෙන
වෙනසකම
අවධාර
පදගලයෙකට
හෙවත
##ාධපත
දරශන
මනසා
##ant
##තකාලන
කැට
කැමර
නරව
##ොනටම
##වෙනනෙ
##ෙහෙ
පටත
බරපත
##ලෙඛන
##සෙකර
පරධානතවයෙන
මරා
පෙනනම
2013
නතපත
##end
100
උතස
උතසව
වගවෙ
ජවතය
කාරක
අවසථාවක
##තවලට
සනනවෙදනය
නායකයෙක
සැලකෙ
තතතවයක
පැවැතවෙන
ලැයසත
ආරකෂාව
දගටම
කෙසෙද
කඩදාස
කවද
කවොනටම
##බැවන
පරතඵලයක
නවසක
කළමනාකරණ
තමනට
නයමතව
ජනතාවට
පරවෙශය
ඇලගොරතමයක
පෙරමණෙ
අධයයනය
සමසතයක
වනාශ
සාකෂාත
##ොචනය
අධකරණයට
පාරභොගකයනට
##ight
තරගාවලයෙ
මැනය
ලයනන
වධායක
අලලස
##ember
වනදනයෙ
from
වළක
ශරෙණගත
ලඟව
december
කානතාවක
ඔලමපක
02
21
cal
gpt
sri
අයට
ආශ
ඕසටරෙලය
කංක
කසයම
ගබ
ජයක
තාර
තාය
තොග
දඹ
දකෂ
දෙරණ
දරමත
ධාව
නමන
පැක
බෙල
මංග
යය
යථ
යකත
යොරක
ලහල
වජය
ශලප
සොර
සරය
සජත
ළම
##යනන
##ාකර
##හට
##හද
##ey
##ෂක
##භත
##තල
##ථන
##ැද
##පයන
##ov
##od
##ki
##බට
##yy
##ff
##ොඩ
##ොයන
##තරාත
සමදර
සමභාව
පරාග
පරශනය
##ානතරක
වසඳම
##වරවෙ
අතරන
##ෙසතරාත
අනපළවෙ
පළවෙ
කොරයාන
නොල
නොකළ
දෙවල
අවට
ජනපරය
දකවන
අධකෂණය
##රයාව
මහෙසතරාත
හැට
193
නැරඹ
දරක
ගොදර
හමව
සයලල
කැමැ
යොජන
එමඟන
සරටට
##ංශයෙ
එහෙත
පටපත
අයතය
අයදම
##ary
පෙරහැර
වයාජ
පාරලමෙනතවෙ
දෙකම
ජයවරධන
අපරාණක
කෞ
වවෙක
අවසථාවන
පාසක
2004
පාලක
කොමෂන
කඩල
නැතනම
සාරාංශ
පරහාරයෙන
නවසලනත
රෙඛ
හැඟමක
යාමට
##ාටය
කසලතා
රයදර
ජනපදයෙ
රනල
ජයගරහණය
ලාංකකයන
වැළැක
සමාගමක
පවතවාගෙන
නාඬ
බඳවා
ඇමරකාන
නපදවන
සාමාජකයන
දාහකය
සකනධ
ඩෙංග
සාධක
තරඟාවලය
රඳවා
පරහාරය
lanka
හෙරොයන
##සපෙට
සංකරමණ
වෙරළ
කංකණා
ධාවනය
සමභාවතාව
2ක
45
ai
cl
ib
red
sh
ආපස
ආබාධ
ඇට
ඇප
ඇයට
ඉහත
එබැවන
ඔක
කලප
ගාල
ජංගම
තදෙනෙක
දා
දෑ
දහ
දත
දඩ
දොර
දයත
දසන
දමා
ධරම
නවන
නවත
නවර
පාව
බාර
බදර
බහල
මඩ
මනා
යාව
යරො
ලපයක
වනන
වමක
වයට
වෂය
ශශනය
සවන
සකරය
හතර
##කලප
##ෙදය
##ටා
##ෑස
##ගමන
##ir
##if
##eal
##ලව
##ෂා
##දග
##භා
##ඩස
##රව
##ැබ
##පෙන
##පයෙ
##ජතා
##ra
##ශච
##ශෙෂ
##20
##ළය
##බදය
##jay
##ඬවම
##qu
##ාවය
ind
සමාර
පරාය
පරයත
පරෙම
පරවරධනය
##යකම
සහන
##බනතොට
##ාලාව
සපයය
##වතය
##වසම
##වරණ
සංසර
සංවරධන
අනමැ
අනාවරණය
පළබද
එකව
එකඟ
##දරය
##ාදා
##ණඩව
වරා
වරද
##ෙරා
නොකරන
කරමටත
##තතෙන
සදහා
##මතක
වැඩපළවෙ
##මෙද
##සයාව
##ාවකට
ජනර
ජනරාල
අදත
අධර
පරතචාර
##ාසයෙ
මහාව
මහාන
දරන
දරණ
දරවන
ඔබගෙ
අවසානයෙ
හැකයාවක
හමකර
හමබනතොට
සයැටල
ලදදෙ
නයෂට
රාජධාන
රාජධානය
මතප
සවභාවය
##පාදන
වශෙෂාංග
දැනෙන
ඒවාට
පකෂපාත
අවශයතා
ඉදරයට
අපරෙල
සනදර
කෙටම
ආකාරයට
දැකවය
වගව
ජවතයෙ
අලත
අලතන
අවසථාවෙ
ඉහළම
වරොධය
නායකතවය
ලකව
තවමත
ආරකෂා
මටටමෙ
වෙළඳස
මණඩලයෙ
පරසද
නයොජය
වඩාතම
ඉතාලය
##පොළ
පරමාණවත
##ect
අපෙකෂක
සමමාන
සමමානය
සෙවකයන
දෙසට
දෙසැමබර
සළඟ
ජයගරහණයක
isl
පහසවෙන
2020
අයරන
පරකෂණයක
අනතරජාලය
භකෂන
ජෙනරාල
බටහර
දනදසන
පාකසත
වතමන
ඉසලාම
පෘථ
හමදාව
සංයජතා
සැලැසමක
භටයන
වංචා
පරජානන
බෙකජෙ
වකරමසංහ
පරොකථනය
අවධාරණය
තායව
ibm
වයටනා
පරායොග
7ක
danu
ex
night
sc
wor
අනය
අරම
අකා
අතත
ආදා
ඉස
උළ
එද
ඔව
ඔකත
කයන
කතාව
ගස
ගමනා
තයෙන
තබන
තාප
තතවයක
දට
දප
දඬවම
පෙශ
පාද
පතත
පඩන
බත
බාල
බලල
බඳන
මොක
යග
යගයෙ
රහත
රංග
රතන
රසයාන
වවත
වවෙ
වපල
හන
##කො
##කමක
##ෙමන
##ෙදා
##සතර
##මනය
##ගතව
##im
##නස
##තනය
##තෙක
##se
##up
##uc
##ළම
##බක
##බජ
##බාහ
##චනය
##ෟදධ
##ඝො
##ආර
කරගත
කරසට
##stur
සමහා
සමමෙ
සමගන
සමකරණ
පරන
පරවර
##යෙල
##තවයෙ
##බනක
##බනට
##යාසර
සමබනධව
##වනසර
වනානතර
වැරම
සංචත
අනසම
##දරශනය
කොළ
කොංගරස
පොෂණය
පොෂණ
වරසෙකර
නොම
##කාරය
ශරෙෂ
බලධාර
සදකළ
ලබනනෙ
දෙදෙන
දෙමළ
මෙමගන
ජනවාර
##හසපත
හැරම
අපෙ
නැග
ගොවනට
සථානය
කාලයෙ
කැබනට
නරභත
පරදෙශවල
කටය
ලැබය
බැර
සවභාව
##පාදනය
පටව
සොල
හරන
බරහසපත
වරගකරණය
ගණනය
ගණාංග
දැර
බලපාන
පරකාශක
තනවන
හෙතවක
2012
රටක
සතට
සතකාර
##enc
වෛරසය
අරාව
දැකගත
මාටට
වවනය
අලං
ගෙම
##පටය
##පටන
සැකස
වශාලතම
මටටමන
##ලෙකම
කරයාකාරතවය
කරඩකයො
බෞදධ
කොමසම
පැවසවෙ
දසානායක
බෙරය
උදව
උදඝො
##ett
පදධතය
ලබාදම
යදධය
මාලට
මාලාවක
හමදාපත
ලකෂය
මනසනට
හඳනවන
අතදැකමක
ඉතහාස
වාසය
අඩවයක
වදලබල
තරගාවලය
සාහතයය
පරකෂා
කානතා
වයවසථාව
එංගලනතයෙ
සනනාමයක
phish
පඩනය
වෂබජ
පරභොජනය
දෂකර
මදරණය
ෆරැන
wiki
පාපනද
මෙවලම
සයවසෙ
mastur
ආයධ
උදයාන
පාරශවය
කාරයභාරයක
බරපතල
##endar
ලැයසතගත
යාවතකාලන
අනමැතය
තායවානය
පරායොගක
danujay
අකාබනක
ආදායම
සමහාණඩව
ශරෙෂඨ
masturb
by
ca
gu
mal
to
zeal
අසල
අවාස
ආලෙ
ඉංජන
උස
උඩ
උරම
එදන
ඔෆ
කලන
ගායන
ගෑස
චො
ජාව
ජයෙ
ඩො
ණය
තය
තඹ
දල
දෛ
පදය
පතවය
බෙද
භකත
භාග
මෑ
මාය
මොහො
මංගල
රධර
ලයන
ලහර
වාරය
වාතය
ශා
ශල
ශානත
සකර
සවස
සපත
සතා
හල
හණ
##හැන
##ගාම
##ex
##ලස
##ලයන
##ලෙස
##ෂල
##භවය
##තයක
##ංස
##au
##ad
##ැලල
##පොල
##ජනනය
##ෘතය
##ld
##බාන
##චන
##උකාලන
##ොනන
##ොසථ
##ෙනනෙ
##ාරතන
inter
පරය
පරමත
සහයොග
##තවත
වසංග
කරමෙද
ඇතල
##වාසය
##කරවෙක
##ාලක
මෙජර
වනො
සංස
බවක
##කෂණක
කළා
පළගත
පැර
එකට
කොටට
සටනන
තරගම
තරසත
##දයාතමක
පොසපෙට
ශරතා
පදන
##පරදායක
ලෙසය
වයහය
සදස
සදකර
මලධරම
වැඩදර
කරයාවන
දෙහ
##සයඩ
සැබෑ
උපන
උපොසථ
අමල
අමදරවය
පවසන
මහලෙකම
මැය
මැස
මැණක
නැං
අඩවෙන
##තකම
කැපටන
රාජයය
නරක
නරොධ
සරත
දෙනා
වදෙස
පහසකම
ලැබම
ගැලප
බැඳ
බැඳම
සවාර
සවශෙෂ
අනතරගත
අනතරකන
ආරවල
සොයනන
වමර
වමසම
වමසමක
වසරෙහ
වයායාම
සාමපරදායක
දෙශගණය
තරගයෙ
මරණය
ආරමභක
2019
##ical
සනසන
නදසන
වදයත
දැකය
සථානයෙ
සථානයට
පරවණ
මාළ
භාවතයෙ
ඉහළට
වැදගතකම
සැලකෙන
පහටවා
##වාදයක
##කරවනට
සමාජය
වඩයො
වදයාලයෙ
පළාතෙ
භාණඩයක
ගණනක
නලධාරයෙක
ලැයසතවෙ
නවසෙ
හැරමට
නයමතය
රෙග
##ity
රථවාහන
අපෙකෂත
වශලෙෂණ
තැනපත
උදාහරණ
##ational
වාහන
පරතපතතය
ගොඩනැගම
රොහල
සටයද
2021
වෙලාවක
අයරලනත
දැමමට
අගවනසර
ආලොකය
නඩව
රසවත
සපයන
කාරයාල
1947
පනරජනනය
දැනටමත
කාමරය
සෘජ
නරමාණාතමක
ඇනඋකාලන
එසෙම
සකනධය
අභයාස
000ක
films
ඉදකරම
බාධා
පරශලක
පරානතයෙ
අනරාධපර
ඩොලර
දනනෙය
පරසථාර
වශවවදයාල
එනනත
පලපනය
මොනවාද
නරපණය
නවෙදනයක
නරවදය
වළකවා
calendar
සංකරමණකයන
ගාලල
බහලව
මහානාග
මතපැන
පෘථවය
එදජා
danujaya
ශරෙෂඨාධ
masturbation
zealand
ජයෙෂඨ
තයණ
නරොධායන
07
03
00
4ක
as
htt
it
janu
min
or
sel
අබ
අකාර
ආසන
ආපන
ආගමක
ඉක
උල
උනනද
එව
ඔසටරෙලය
ඔසසෙ
කලක
කාසයෙ
ඛන
චනය
ඩය
ඩජ
තයා
තාවක
තවක
තනද
දනන
දවස
දෂණ
නවා
නවෙදනය
නාටය
පයන
පපර
පෘත
බජ
බැක
යර
යාප
යාපනය
යකඩ
රව
රවන
රටට
රහණ
ලන
ලො
ලයා
ලොර
වජ
වවා
ශකර
ශාස
සරම
සසවෙක
හෘද
ළමන
ෆය
ෆන
##ාණ
##ටෙ
##වංශ
##ගා
##ඳර
##දහන
##දමෙ
##ඩම
##ඩල
##ඩලයෙ
##රයෙ
##mian
##si
##ැෆ
##ැලක
##ෘපත
##rat
##ray
##ow
##lor
##ඥානක
##82
##ොමට
##ොබර
##ෙනන
##ාවල
##තරා
##තරණ
සමහ
සමතව
පරබල
පරදරශනය
##ාතක
##ානමක
වසතවෙ
කරමයෙන
කරමවෙද
##යනත
##යනගෙන
##වාසන
##වාහනය
වෙලක
වෙලා
##වතන
##වතත
වනශච
##ෙකා
සංග
සංවෙදනය
අතරදහන
##කෂයට
කළෙම
##රමෙ
##රමණය
##තාගාර
පැරණ
එකකට
##දරශන
සටමෙ
තබම
තරංග
පොළ
වරගය
නොකර
නොවම
ගැනමෙන
##පරස
සදධය
වැඩම
වැඩදරටත
##සකල
##සයාවෙ
##ලයය
##ලයම
අවශ
අවධාන
ජනයා
උපටා
දකවමන
අතන
අතපත
පරතද
ලැව
##ාසටක
##වටම
හැවරද
ඉනම
ඉනද
දරවල
මනොව
දනක
දනයක
අවසානය
##ගනමන
පෙළඹ
##තවරෂ
හමවමට
නමල
අඩවය
ගෙනහැර
මතදරවය
හරතාගාර
ගණාතමක
##arb
බලපා
පෙරළ
පෙරෙරා
ලොකය
වාරතාවක
සභාප
##ලපෙ
තෙවන
අභයනතර
ගරහ
ගරතව
සනහ
කෙළ
අරගල
10ක
මෙනඩලයෙ
ආණඩකාර
ආණඩවක
දැකව
වගකව
ජවතකෂයට
මාතර
මහාධ
සංවධානයෙ
පැමණයෙ
පාංශ
සැලකලලට
මනතරවරන
සැකසම
යෙදමක
මැතවරණයෙහ
කරඩක
භාෂාවක
ලංගකව
කොමසමෙ
මණඩල
වචනය
මහනවර
##ets
බරතානයයෙ
පලාසටක
ලාභ
පරසදධ
නැවතත
සැපයමට
කයනන
යමෙක
කරයාවලන
කසළ
තාකෂණක
පවතවන
වයාපාරක
අසතය
සවාභාවක
##amic
ආයතනයක
වාකයයක
රපවාහනය
පැතරම
තබණෙ
දසතරකක
මතරන
ඇමෙර
ලෙඛ
ලෙඛන
සළං
අමාතයාංශ
වයාපාරය
ගමම
රොහලෙ
තතතවයෙ
ජෛන
වෙදකා
හැඳනවෙ
බැංකව
කානතාව
වධමත
රැසවම
පනරාවර
සමපරෙෂණ
ඇඟල
අවබොධයක
වටනාකම
##සාරස
ආදරය
දෘශය
සංකෙත
එකනෙකා
කැඳවම
අභයාච
මෙවලමක
ඉනදනසයාන
පාරලමෙනතවට
array
චරයා
චාරකාවක
##තවාදන
ගොඩනැගමෙ
සදධයක
අවදානම
බලපෑමක
රාතරයෙ
බළලා
permian
ගයෙය
ගවෙෂණය
පරයෙෂණ
කපපාදවක
##ැසසට
නතපතා
උතසහ
ගබඩා
තොගයක
දරකථන
කෞත
මනාප
වමකත
සමාරට
පරෙමදාස
පකෂපාතතවය
කෙටමපත
islamic
වයටනාමය
world
ඔකතොබර
බලධාරන
වවනයාව
ඉංජනෙර
එදනෙදා
ඩොමන
http
january
ඩජටල
මෙනඩලයෙව
35
55
500
65
90
91
be
ben
con
cov
em
fer
gr
gre
mo
my
net
re
web
අට
අළ
අසන
අහස
අසම
ආගම
ආනයන
ආවරණය
ඇද
ඇඳම
ඉනන
ඉහල
උෂණ
එස
එළඹ
ඔකස
කසම
කායක
කෘත
කනද
ගජ
ගාන
ගාස
ගතතෙ
චකත
ඡන
ජා
ටක
තවර
තමය
තදෙනා
තසසෙ
දමෙන
දහස
දනනා
ධාවන
නට
නෛ
නමක
නතවර
නතමය
පෑ
පම
පහන
පානය
බමත
බෙහෙ
භරමණය
මං
මධ
මයක
මහර
මශර
යමක
යෑමට
රද
රොම
රමාන
වතර
වයන
වලක
වගන
වහළ
වාහ
වනනට
ශවෙන
සොන
හෂ
හසම
ළමා
ෆො
ෆොන
ෆැසසට
##කෙර
##ාංක
##ටව
##ටොර
##මම
##හෙ
##හෙන
##වනනෙ
##වහනසෙ
##ගාරය
##ies
##ee
##ණම
##දාද
##තයෙ
##තයට
##තගමව
##ංහ
##රාම
##ථකය
##ain
##පතව
##පරම
##පදය
##පාක
##ජම
##ෘදධ
##65
##ශරය
##ශාලා
##ox
##ke
##ll
##lish
##බළ
##චයෙ
##be
##ba
##10
##fer
##ෛරය
##එස
##ොපත
කරෙ
කරා
කරවන
සමළ
සමපාදන
සමභවය
පරකට
පරංශ
පරචාර
##ාතන
සහකර
##තවන
##තවයන
##කාවන
##කරමය
මෙක
මෙසෙ
වෙහ
වෙතන
වැව
##වරය
සංගරාම
##කෂක
කළහ
කළාය
##වලල
එකල
##කාශ
කොනද
##ාදන
වශවාසය
##දායතාව
වරජන
##ලලය
##තතක
##තතම
පදාරථ
##හනතාව
වැඩපර
පසවන
පසවරවෙ
වෙනන
##සකට
සැමර
අවධ
අවඥානක
ජනපදය
අමරවර
ලබාගත
පවසා
අතසන
පරතචාරය
වටටොර
##වකහ
පදගලාර
##රයාවෙ
##වැතව
පාරසර
හැද
ඉනවෙන
නැහැ
දරට
දරවෙක
ගොව
නමතතෙන
##ටටවක
සමඟන
කාලසටහන
රාජත
නරපන
නරනතර
##int
##කයනගෙ
##ජනක
වලතගමව
සරස
සරව
සරද
වදයට
කොටා
ගැසට
බැහැර
සවං
සවදෙශ
සවදෙනෙක
තළට
##ාපො
##ාගැන
පවතපත
දැරය
##ari
##arl
රැගත
ගනනක
නරමාංශ
වැදගතය
පරකාශනය
කහප
දෙකකට
ඉලලය
බොහොම
##ens
පොහො
අභරච
අපරකාව
අපරකා
සනධානය
සොයාගැනම
කෙත
##ගැනමෙ
රොගන
රොගයා
අරථ
අරධ
කහපයකට
කහපයකන
ආණඩවෙ
ආකාරයකන
##ොජනා
සෞඛයය
තරඟය
තරඟකාර
භාවතයට
චනයෙ
වරොධතා
තවද
පහටවන
ආරකෂත
එරට
සෙවයට
වෙළඳපො
##ill
කොමසාරස
ඉතාම
නෂපාදනයෙ
පොදජන
##යෙහද
පරසරයක
පරහාරයට
##පාලනය
ඝාතන
මාසයෙ
##රාගල
මධයසථානය
##පොසට
නොමැතව
කරයාවලයක
රාහල
ලබාදෙන
ලබාදමට
සමපරණයෙනම
##ජාණන
මෙරටට
වැටප
තරණාතමක
යොදාගනනා
සාදන
ආකෘතය
පසගයදා
පරමාණවක
අපෙකෂා
පහණව
නෙළම
පරශනයක
සකසනන
කලාපය
සංඛයාවක
හොඳය
සටහනක
##සථානයක
තැප
ඵලදායතාව
අනතරජාතක
වකණන
දොං
ආකෘතයක
##ign
මහජනතාව
තතතවයට
අගමැ
කමටවෙ
සසනට
වශෙෂයෙනම
සංසකෘතය
සපයා
මැදහත
කාරයාලය
ඉරදන
බොවන
##und
කථා
දශක
යටතව
සංශොධන
නයාමනය
හානයක
පෙතසමක
අපරාධයක
භමයක
වෙගවත
නයොගයක
ධවරයන
පනදවට
වසඳමට
ඉසලාමය
කණග
පෘෂඨ
සංකලප
සලකණ
##lob
කොපමණ
අනාගතය
පණස
##ive
##ivers
සැසඳ
බැලමට
තතවයන
තතවයකට
කෘෂකරම
ජනමාධයවෙදන
වෙළෙඳපල
ඇගයම
යතරපැ
පරගතයක
ජනගහනය
අමෙරකාන
univers
රචනා
වගෙම
හංගෙ
වායගොලය
අහොස
කැනඩ
සමාලොචනය
පරොටොක
පරයොජනවත
උතසවයක
ජයකොඩ
බෙලහනතාව
නොලැබ
නැරඹමට
යොජනාව
රෙඛා
බදරජාණන
රාජධානයෙ
උළෙල
පතතලම
කරසටල
සමමෙලනය
අනසමරණය
නොමලෙ
සොලදාද
චොදන
දෛනක
ශාඛ
org
නවාඩ
පරතදානය
කැඳවමකර
කෞතකා
covid
ගානධ
ඡනදය
නෛතක
නතවරොධ
බෙහෙවන
රමානඩ
ශවෙනදර
පාරසරක
ඉනවෙනටර
09
3ක
49
40
5ක
8ක
at
ad
bl
dd
fin
go
he
ip
mm
mat
mac
nba
pub
ret
sp
ser
vett
yyy
අඬ
අවන
ආදය
ආදෙශ
ඇඹ
ඇලෙක
ඇපල
ඇවද
ඊළ
උලල
එජ
එවට
එතරම
කෑම
කපයක
කථක
කතාවක
කසවෙක
ගලක
ගතක
චස
චම
ජෙ
ජොස
ජවාල
ටය
ටන
ටර
තඩ
තදන
තෘපත
දහම
ධෛරය
නාස
නවාස
පදර
පයාසර
බෑ
බෙන
බොක
භගම
මණ
මකර
මදන
මොහ
මගමව
යධ
යතව
යවන
යගල
යොග
රඟ
රෙද
ලණ
ලත
ලොහ
වකර
වහා
වපත
වභව
ශතක
ශතවරෂ
සදර
සදා
සනායක
සජව
හවල
හනද
හතරක
හතවත
හලපෙ
##කෙ
##කලා
##ෙණය
##ාබ
##ාකාර
##ටයෙ
##සො
##සමට
##සලය
##සරය
##සෙකා
##හසය
##වළ
##වයන
##ගසන
##ගණයක
##national
##ලමත
##ණජ
##ණයෙද
##දයා
##තංග
##තසස
##ඩව
##ංඝ
##රට
##රයෙන
##ml
##පම
##ෘතව
##hy
##ron
##rap
##29
##ket
##ped
##ළණ
##ළොස
##බවෙ
##ෆලඩ
##ඝරා
##ොං
##ොදර
කරගෙන
කරලා
සමයෙ
සමමන
සමගම
සමබා
පරතව
පරපර
පරෙකෂ
##යකෂණය
##ානෙ
##ානකල
සහල
සහනාධ
සහොදර
##තවයට
##වාලය
##කරමෙ
##ාලම
මෙයන
මෙවර
මාතෘකාවක
වැර
වැලක
සඳදා
##වරම
සංර
සංසන
සංවෙද
සංරච
සංවාදයක
අනප
අනපාත
අනවරතනය
##තාප
පළගන
පැතල
එකවන
##දරව
##දරාජය
කොන
##ාදනය
##ාදෙණය
තරක
තරයෙ
තරමක
තරකණ
වශරා
වශරාම
##ණඩය
පොරොන
පොදරාජය
##දාම
වරට
වරාය
වරදධ
වරධන
නොවය
ශරතාව
##ලලා
##ලලම
ගැනමත
##තතන
පදම
පදංච
බලයක
බලවෙග
##පරාපත
##ාමාලන
වයඝරා
සදසකම
සදකරමට
##මතාව
මලට
දෙමා
දෙදෙනා
##ගලාස
සෙවන
සෙදම
වෙනවා
වෙනසක
සැඟ
සැසය
ජනයාගෙ
උපාධ
අදහසක
අධයකෂණය
මහතමය
අතහට
පරතසථ
වටම
වසනධ
##වැනන
පාරජම
191
මැඩ
##ලනයෙ
නැටම
දරවා
##anc
සමඟම
කාලගණය
නයැ
නයමය
##ොනයා
##ink
යොද
යොධ
එමගන
සරල
සරපාල
ලැබමට
මතපට
කොටඨ
ගැහැ
බැස
බැලම
සවවන
සවඩන
පතන
අනතරවලන
ආරාධ
ආරථකය
පටෙල
අයසස
කරයාශල
හරස
##සථානයෙ
වමල
වමොචනය
##art
පෙරාදෙණය
රජගෙ
ඉනදයාවට
තොරනන
දැනගත
##ork
##ord
වසරෙද
##සෙල
##all
තනතව
තරගයක
පෙනවමට
ආරමභය
තෙම
තෙඳන
2010
2011
බොහොවට
##ice
##ich
සතතය
පොහොය
මැතවරණයට
##හලොක
ගරෙ
ගරන
ගරහලොක
සොයාගත
සොයාගෙන
රොගය
අරබද
අරථය
ඇයව
ඇයගෙ
##ack
සලසන
වගකම
##නටෙන
මාටන
ගෙදර
හටගෙන
පැමණෙන
වෙනසවම
සාගර
දමප
වරොධතාව
නායකයා
සැලකලල
පොලසපත
පොලසයට
සැකකරවන
##වරයාගෙ
යෙදමට
රාජයයක
රාජයයෙ
මලදරවයවල
සෙවාව
වෙළඳපල
වදෙශය
කොමපොසට
යටතට
කවචයෙ
දපතමත
##riev
සාරවත
මාසයෙද
හැරණ
අදාළව
##පොෂණ
කයලා
පරතකාරය
සමපරණයෙන
තබාගෙන
යොදාගන
මොසතර
රෙඛය
රෙගලාස
##ite
සථරයට
##ure
ජනතාවගෙ
ඒකාධ
රථයක
##ames
අපෙකෂකයා
යදද
යදධයට
ඇතතනනෙ
ගොඩනගා
ආයතනයෙ
වාකයයෙ
දසතරකකය
කෙනදර
කලාප
සංචාරයක
වශවාසයන
සාකචඡාවක
සෙනාරතන
ඇතැමවට
ජයගරහණ
උතරෙ
යළත
##ොචන
තතතවයන
තතතවයකට
නවැරදව
ආදාන
ආදානය
කමටව
සමාගමට
පරවැය
දැමම
එලවා
නඩතත
වාරතාවෙ
පොජජෙ
වාසසථාන
වපකෂයෙ
වභාගයට
ගැටලව
comm
phot
කථානායක
දශම
සෘණාතමක
##ull
නයාය
අවබොධය
ගොනකර
අයවැයක
ඇනඩ
වෙගයෙන
1977
කාලනව
අංගයක
නාමයොජනා
බලපරදෙශ
1960
සැකකරවෙක
කෙනෙකට
අඛණඩව
ඩෙවඩ
තමාට
වාතත
පරාවදයා
අධයකෂක
with
කටටල
කටටලයක
පාපවහනසෙ
රඳා
##low
නොතබ
පරතපතතයක
අනාගත
සංයතය
චනදරකා
පරවැසභාවය
ආකරෂණය
ඛණඩය
බොරැලල
උපදෙශන
මනදැය
පතකරවා
ගනදෙනකරවන
අඟහර
ඇගයමට
ජලාප
ජොනසන
දමනද
##able
පරජාත
සංසථාව
සංසථාවෙ
වචලයයක
සාපෙකෂව
අගරාමාතයවරයා
පවරා
වසතවක
සංකලපය
සැමවටම
කැලෆ
ඉකමනන
ජපානය
යහපත
සඟරා
පරචලත
පරොටන
ඕසටරෙලයාව
දඹලල
පැකට
යථාරථ
සොරකම
පටපතක
රයදරන
නවතම
මඩකලප
index
වරායෙ
වැඩපළවෙලක
මහාවංශය
වෙළඳසැලක
scor
ඔවහ
බතතර
බලලන
රතනපර
වපලව
කොංගරසයෙ
දෙදෙනක
සතකාරක
අලංකාර
මායම
මොහොතක
ශලපය
සකරාදා
සපතත
##ලෙසයාව
international
තරගමාල
මැසසන
වමරශනය
නදසනක
ශරෙෂඨාධකරණය
අකාරයකෂ
ආපනශාලා
ඛනජ
තයාග
පෘතගස
ශාසතර
වනශචය
ගරතවාකර
ගජරා
ෆොනසෙකා
##lished
කොනදෙස
පදගලාරොපත
තැපැල
යතරපැද
published
retriev
vettel
yyyy
අඬනනෙ
ඇලෙකස
ඊළඟ
උලලංඝ
එජාප
ජවාලාමාලන
ටනබර
භගමණය
සමබාබවෙ
පරතවපාක
තරකණාම
වශරාමක
පොරොනද
අතහටවන
පාරජමබල
මඩකලපව
retrieved
04
01
1ක
3x
47
52
50
75
87
al
bo
dr
darb
es
e0
ge
ic
op
osi
pi
rom
sup
vi
yo
අක
අතව
අගර
අජත
අමතක
අඳර
අලයම
ආයොජන
ඇබ
ඈෂල
ඉම
ඉවස
ඉවතව
උන
උපය
උණඩ
උරා
එත
ඒමට
ඔසට
කතර
කයක
කැක
කඩන
කමර
කනටෙන
ගඩ
ගණය
ගතය
ගදය
ගලය
ගසා
චත
චාල
චරය
චලනය
ඡෙද
ජවන
ජොර
ජවතව
ටෑ
ටොප
ටොමට
ඩර
තෙන
තතය
තලන
තසර
තසස
තොට
දයෙ
දටර
ධම
නාය
නතන
පං
පතා
පලල
පලා
පලෙ
පපෙන
බෲ
බෙස
බටර
බොමබ
යාන
යහළ
යානතර
රළ
රතර
රොද
ලහ
ලසන
ලගයෙ
වභ
වනය
වවන
වලා
වමය
වොල
වජත
වභා
ශාල
ශරම
ශබදය
ශාලාව
සොහ
ෆෙ
ෆෙස
##යාවෙ
##කද
##ෙමය
##ාකරණය
##මබ
##මණය
##මතය
##මහන
##වණ
##වහන
##වමෙන
##වංශය
##ගයන
##ගමෙ
##ඳා
##ඳනම
##iz
##ial
##iod
##na
##ෂණයක
##දස
##දෙය
##දැය
##භරණ
##තයන
##ඩය
##ංකර
##රල
##රප
##ae
##son
##පණ
##පඩ
##පාස
##පසව
##ජයක
##ශයන
##ton
##ok
##ost
##off
##ound
##por
##les
##ළැ
##බාර
##බොර
##බලය
##බලා
##බොමබ
##4ක
##චය
##චනයට
##jri
##ft
##ward
##86
##එල
##ොලන
##ොජන
##ෙනම
##ෙනදර
කරණය
##තරයක
##තරණය
##ාරා
ins
සමය
සමාවක
සමතවය
සමයෙද
සමබර
සමාවන
සමරවර
පරතය
පරාස
පරචාරය
පරභව
පරානතය
පරයනත
##යකත
සහතව
සහායක
වසස
වසතන
##යාය
##යාද
ඇතනම
##වාගමක
##ාලකව
මෙස
මෙසය
මෙටස
වෙම
වෙසෙන
වැලම
##වසර
සංයත
සංදෙශය
අතරෙක
##කෂය
කළතර
අනද
අනතය
##රමන
පළබොධ
පැණ
පැතත
පැමණය
##කාචාරය
කොරයාවෙ
##ාදායක
තබනන
තරථ
තරබාර
පොසල
වරගෙ
වරෂය
##වෙහ
##වෙදය
නොඩ
නොගත
නොපැ
නොගැ
##කාරයෙන
ශරන
ශරලන
පදයක
බලයන
බලවත
බලොග
ලෙසට
ලෙසද
සදවෙන
මලකට
වැඩවමක
ලබමන
දෙයය
දෙවැන
පසෙහ
පසළොස
කරනනට
කරනනැය
සෙවම
වෙනදා
##ොගර
ජනශර
දකන
අමර
##ගමගෙ
අදාල
අදවතය
ලබාගැනම
අතහැර
අතශයන
අතබොමබ
පරතසං
පරතශොධ
ලැබන
පදගලකරණය
##වමය
##ාධපතවර
##ොකස
##ොකසයඩ
##වැව
##වැල
හැදන
අපදරවය
ඉනපසව
මැට
මැරතන
මැතනය
මැලෙසයාව
##ලනද
නැඟ
නැළැ
ගොවන
##ysh
##ෙයයන
ඔබබට
පෙම
##ang
##ans
ජාතන
ජාතකයන
##ටටව
කැඩ
නයජ
නයැද
නරතව
නරාකරණය
##erg
පරදෙශයක
පරදෙශවාසන
සරවාගමක
වදහා
කටනායක
##ෙහම
කොටයා
##නමතත
ගැනමටත
ආරොප
පටර
පටප
##හැම
##හැලල
##හැරමෙ
මාරක
##ාගාරය
හරත
බරඳ
බරන
වරගකරණ
දැව
දැවැන
දැරයක
##ara
පෙරවරවෙ
රජයක
නරමාතෘ
නෂකරය
කාංස
කාකෂක
සාමය
දෙශගණක
තරගයෙන
මරදන
අමාතයංශය
අනවශය
ඒවායන
පෙනෙ
පෙනෙන
පකෂයක
පකෂයට
මටර
තෙමා
අවශයය
2017
2014
ගමනක
ගමනානත
දෙකකන
කලහ
කලබල
රටා
මැතවරණයක
අභය
අභව
අභපර
ගරෑන
සනල
පළමව
පදගලයනගෙ
දයර
දයාන
##ගැනවම
ආකාරයෙ
දැකමට
දැකවෙ
දැකවම
දැකවෙනනෙ
උතපාදනය
වගා
වගමන
ජවතයට
වවහොත
භාවතයන
දමනන
ඉහළන
වරොධතාවයක
පාහෙ
සැලකලමත
පොලසයෙ
2009
2001
මෙහද
මාරගගත
ඉවතට
දවතව
ගැටමක
වෛදයවරන
පරදාන
පැවැතවම
රාජයයන
මැතවරණයෙන
සමහරක
වදයාඥයන
කරයාකාරකමක
දගකාලන
කරඩකයෙක
මලදරවයයක
##ily
නගරයක
නගරයට
පැහැර
වාරතාකර
පදගලයෙකගෙ
භාණඩය
කරණාකර
අයතම
පලතර
##බැහ
##rist
යොමව
සපරැටල
පයවරක
ජාලයක
හැරෙන
මධයසථාන
පරමාද
පැහැදලව
කයවය
කයවනන
පාසලට
කසවක
වැටල
වැටලම
මොටර
රෙඩ
හදෙක
පෙළක
උතසාහය
උතසාහයක
දෙපාරතමෙනතවට
ඉලෙකටරොනක
##තතෙගම
කෘතරම
යදධයෙද
177
178
අවරදදක
##ass
ජනාධපතවරන
ආශරෙයයන
නෞ
දරවයයන
ශෂයයන
බලපතරයක
කලාපයෙ
තැනැ
පවලක
මෙරටන
පදධතයක
පදධතයෙ
ඇමොනයා
ලෙකමවරයා
එළය
එළවළ
එළමහන
කනසස
පහරද
වැසයන
අඩවයෙ
දනාගත
වැඩසටහනක
##ando
මෙහෙයමක
ගමහ
ගමමාන
සමපව
වැළක
මලාශරය
පෞර
සසනගෙ
##oss
ඉලකකයක
nees
වෙදකාවක
හැඳනවය
ආසනනයෙ
කෂෙතරයක
කෂෙතරවල
කානද
බදද
වයවසථාවෙ
1994
යාමෙ
වපකෂය
කථකාචාරය
දශකය
මදාහැර
යටපත
1989
සවාධනව
ඇඟවම
##ෑනක
පෙතසම
සාරථකතවය
බදධය
භමකාව
##කකලය
##ඩරජන
මෙවාට
තොරාගත
බංගලාදෙශය
##age
1956
1950
නතඥවරයක
කතල
ගෘහ
තමාගෙ
දෂත
වහාරසථාන
ෆරෑනක
පරාවදයාතමක
##erson
තනතරට
කාරයකෂමතාව
තරඟාවලයෙ
අවසථාවල
පරාණවත
වෘතතකයන
සලකන
ඉනදනසයාව
ඉනදනසයාවෙ
රැසකට
පාඨය
වයාපෘතයෙ
christ
පණවඩ
සවලපයක
අධකාරය
බැලමෙ
සනධානයෙ
ආකරශනය
තෙරමක
මදලක
වරෂයෙ
ශරරයෙ
සදධයට
රැසවමක
ජරමනය
ජලාශය
ඩොලෆ
නළවා
බළලන
මතකයන
##හසකට
පරසථාරයක
ජනගහන
අමෙරකාවෙ
මනොභාවය
සංසකෘතයක
සාපෙකෂතාව
period
හයඩරජන
සංකලපයක
සැමරම
සරසවයෙ
වායගොලයට
බංගලාදෙශයෙ
කාරයකෂමව
iii
ගතවන
රණවක
සකසා
සමාලොචන
පරෂයන
පරචණඩ
කැටයම
කැමරා
ඕසටරෙලයාවෙ
මංගලය
ශලපන
අනපළවෙල
හැටයට
කැමැතත
සාරාංශයක
වැළැකවම
නාඬප
නාඬාපො
කලපනා
දතතවල
පාවාද
යරොපා
පරයතනයන
සංසරගයෙ
ජනරජය
ජනරාලවරයා
අධරාජය
පරතචාරයක
නයෂටය
වෙළඳසැල
පාකසතාන
පාකසතානයෙ
ඉසමත
තයෙනව
වවෙචන
කටයතවල
##ences
උදඝොෂණ
wikiped
පරයදරශන
සහයොගය
පදනමක
බැඳමකර
නරවදයතාවය
ඉකමන
උනනදවක
එවකට
ඩයොකසයඩ
පපරණ
වවාහ
ෆනකස
කරමවෙදයක
සභාපතවරයා
සනහව
මහාධකරණය
ගමමරස
පනරාවරතන
අභයාචනාධ
refer
යමකස
හෂම
වෙහෙස
සැමරමට
බොහොමයක
වෙළඳපොලෙ
හංගෙරයාන
පරොටොකොල
ශාඛාව
කෞතකාගාරය
final
ඇඹලප
වහාම
##raphy
සමමනතරණ
සහනාධාර
සංසනදනය
සංරචක
ගරෙගර
ගරනථ
දමපානය
නොතබණ
පරජාතනතර
කැලෆොනය
අකාරයකෂම
උලලංඝණය
darbysh
ඇබබැහ
කතරගම
කඩනමන
දටරටෙ
වභාගය
සොහොන
ෆෙසබක
ජනශරැ
පරතසංස
ගරෑනඩ
wikipedia
references
08
2f
32
38
300
57
60
600
71
am
ast
bi
bal
but
bull
cor
cat
de
des
dev
fant
har
hind
ill
karl
le
lt
list
mets
pm
pa
pl
pac
sm
sub
table
von
ww
xml
zh
අණ
අශ
අහත
අදය
අසර
අකරණ
අසථ
අංශය
අනනය
අටක
ආන
ආතත
ආතම
ආවෙන
ආංජන
ආතමය
ආවෙග
ආගමන
ඇව
ඇණ
ඇෆ
ඈත
ඉනනෙ
ඉසර
උර
උගර
උචච
ඌයෙල
ඍණාතමක
එදා
එමෙන
එවක
එපා
ඒජන
ඔට
ඔම
ඕවර
කවන
කවර
කවය
කලල
කසා
කාවය
කවසම
ඛණජ
ගා
ගවස
ගංග
ගෙර
ගනනෙ
ගවසම
ගවයන
චාන
චකර
චෙක
චතත
චකරය
ඡා
ජම
ජනා
ජයත
ජලයෙ
ඥාන
ටකට
තෑ
තාන
තාම
තදෙන
තකක
තෙහෙ
දද
දාර
දවල
දවය
දරය
දසා
දගන
දහනය
දොස
දයාසර
දවමය
ධානය
නාර
නාන
නකා
නවය
නදන
නනද
නසකල
පක
පව
පඨ
පඩා
පතරය
පඟන
පජය
පෑන
බඩ
බැන
බදය
බසන
බනද
බොට
බයො
භාජ
භමය
භගො
භරමණ
මනන
මාත
මතව
මයන
මයා
මැක
මාද
මගම
මාප
මඛය
යෙ
යල
යඨ
යවර
යනා
යමන
යනනෙ
යෑම
යානතරක
රඩ
රං
රශ
රබ
රාම
රහස
රොස
රොරො
ලග
ලවා
වවර
වකා
වපර
වමත
වචාර
වදාළ
වජෙ
වවාය
වවනගෙ
වාදනය
ශදධ
ශාලා
සඵ
සඝ
සාන
සැන
සෙර
සබඳ
සජන
සොහො
හෙන
හාර
හපත
ෙබක
##යයා
##යශල
##කකාර
##කෙරණ
##ෙව
##ටඩ
##සමන
##සොන
##මහත
##මතා
##මතත
##හක
##හමෙ
##වාත
##වාන
##ගසක
##ie
##ik
##ier
##nando
##ලර
##ලෆ
##ලමට
##ලොම
##නදා
##ණයෙ
##දො
##දාන
##දොය
##භක
##තැ
##ඩනය
##ථමක
##ai
##aj
##ැට
##ැමන
##පෙ
##පයෙන
##පදා
##පපර
##ජරවර
##hn
##ust
##7°
##va
##ver
##ශලෙෂ
##tion
##ous
##ole
##obe
##බත
##බඹ
##බෙන
##බාද
##බාය
##බෑම
##බොල
##97
##45
##3ක
##ෆට
##ෆො
##ඥා
##db
##14
##ෟරව
##wh
##85
##එන
##ොළ
##ොලක
##ොලෙ
##ෙනස
##ෙනයම
කරස
කරළ
කරදර
කරලල
කරගැනම
කරගනමන
##ාවෛ
##තරාතමක
##තරකන
##ාරඩ
##ාරමක
සමබාධ
සමරන
සමෘදධ
පරප
පරබනධ
පරතවර
පරමය
පරමාර
පරපාලන
පරංශය
පරවරධන
පරංශයෙ
පරාතන
පරපාලනය
##නනෙක
##ාතම
##ානද
සහද
සහපත
සහකාර
සහනයක
වසම
කරමලෙඛන
කරමාංක
කරමවෙදය
##හතකාරයෙන
##යනො
සමබනධතාවය
සමබනධතාවයක
##වාදා
##කරයෙ
##කරමන
##කරොන
##වනවා
##ාලය
මෙවන
මෙමෙ
මෙතෙක
මෙජරවර
වෙෙදය
##වතැන
වනයා
වනහම
##වරනට
##වරයෙකට
සංගරහ
සංගතය
##නාය
##ෙසා
කළයත
අනත
අනකරණය
හැකකෙ
පළකා
පළගැන
පළගැනම
පළබඹ
පැස
පැත
පැළ
පැතක
##කාස
##දරශ
##දරාගැන
##ංගවෙ
කොල
කොබ
කොලල
කොරොන
කොදොය
සටමන
සටනනෙ
සටයාය
තබමය
තරල
තරසතව
තරසාර
වශවය
හොංක
##මනද
කරනයෙ
පොකර
පොසටර
##දානනද
වරක
වරහත
##වෙගයෙ
නොට
නොද
නොර
නොයෙක
නොදෙන
##කාරව
ශරල
ශරතයක
ගැනෙ
ගැනමක
ගැනමය
කරමටය
##ොරොත
බලන
බලයෙ
බලයට
බලහතකාරයෙන
##පරද
සදානමක
මලන
මලනම
මලාරම
වැඩවම
වැඩහට
ලබනනා
දෙම
දෙවත
දෙවසථ
පසකාලන
කරනනෙද
##යතන
##යතානතරක
##ාජයය
සෙම
සෙබළ
වෙනව
##සයස
තබෙද
සැතක
සැහැලල
අවංක
අවධය
##ාවකන
උපකරම
උපාධය
දකවය
දකවනන
##දනයක
අධකය
ලබාගෙන
ලබාගැනමට
අතල
අතථය
අතමහත
පරතපොෂණ
පරතලොම
වටය
වටහා
වටෙක
##ලකන
පදගලයාගෙ
පදගලයාට
හෙල
වසනම
##වැට
මහල
මහවැල
හැම
හැටන
හැඳනම
ඉනපස
මැදර
මැගසන
නැගම
නැවම
දරශ
දරාපත
මනෂය
ගොණ
ගොතම
ගොලයක
ගොලෆ
දනවල
දනකම
දනයෙද
දනයකන
අවසර
##තවරන
##තවරයාගෙ
හමයන
හමවක
හමවම
හමවට
හමවෙය
නමද
නමැත
නමයශල
##ගයවනන
##යෙකගෙ
ජාතවාදය
##ටටය
##තකයෙ
කාලංග
කාලයෙද
කාලගණයක
කැසස
කැවලල
රාජකාර
රාජයතානතරක
##ගරාහ
##තමනය
නරවාය
##සටක
වැනදා
සරකරවන
දෙනක
වදවත
ලැබවෙ
කණඩායමකට
මතධාර
බැහැ
පතල
##සමමා
##කරණයෙ
තළද
පටපා
පටහය
වශෙෂයක
සොබාද
අයතව
කරයාකරවන
නවහන
මාරවම
හරාම
පවතය
බරලන
වරගයක
ගණම
ගණත
ගණතමය
දැලෙ
##arc
පෙරවර
රජයට
භාගය
##ore
##ory
වසරකට
##one
##ons
සභාවට
වැදදො
පරකාශන
දෙශනා
දෙශගණ
දෙශපරය
තනකන
තනතරක
තරගයට
තරගයෙද
නෂපාදකයන
නෂපාදනාගාර
මරදනය
අමාතයවර
අමාතයංශ
අනවාරය
ආරමභකයන
කෙරෙය
තෙත
තෙතමනය
##ate
##atus
දෙකෙහම
කලද
කලාව
ඉදරපට
නතපතවර
රටාව
##ics
##icial
සතල
සතයෙ
සතතව
##ene
පනවල
ගරක
ගරල
ගරැෆ
ජයරතන
අපරකාවෙ
සනානය
සනමා
සනතකයෙ
##ාවනට
පළමවන
සොයාබැ
කෙතය
කෙබල
අතඅඩංගවෙ
##කරමණය
##කරමබාහ
දයණය
##ගැනමක
දකණෙ
දකණට
රොගනගෙ
වෙළද
අරජන
ආණඩවට
ආකාරයක
ආකාරයෙන
ආකාරයය
දැකම
දැකවමට
##ace
##acse
උතතර
පොහොරක
පොහොරවල
වගසන
වගාවන
වවෘතව
අලයා
අලගයවනන
කාරමක
ගෙවම
ගෞරව
තරඟයෙ
##පදංච
පැමණල
පැමණමට
පැමණමෙන
පරාථමක
සනනදධ
වරොධව
වරොධයක
පාකෂ
පාඩම
පාණඩය
මනතරවරයෙක
200ක
2006
පහටවමට
##කරවනගෙන
මාරගයෙන
##edy
යෙදවම
සමාජයට
රාජයයෙන
මටටමට
##රොසො
වදයාලයක
##000
කරඩාව
මලදරවයය
භාෂාවෙන
කාරයය
කාරයයක
##omb
බෙකර
බෙදය
කොමසමට
කඩනම
බෙරයෙ
බෙරවල
මණඩලයට
වචතර
ආසාදතයෙක
ජලජ
නෂපාදනයක
නැතැය
මහනදානනද
පැවතය
අංශක
ඉඩක
ඉඩකඩ
ශාකවලට
##ries
සමතල
පරතඵලය
දෙනෙකගෙන
ගණනවල
පතවන
කරඩාංග
සපරාලම
නලධාරනට
නවසට
ඝාතනයට
මධයයෙ
පරමපර
දෙශපාලනක
කයනනෙ
ලබාදන
වයාපාරයක
වයාපාරවලට
වැටෙන
තරණයන
මොචනය
හදකලා
##බදයක
උතසාහයන
පරමාණයෙ
අසබ
සවාම
##ecard
##ame
##ොතල
ඇලගොරතමයෙ
180
යදධයෙ
යදධයෙන
මාලාව
මාලයක
මාලදව
නොවනන
ලකෂයය
##ෙටා
##ෙටො
##ash
##asy
##තවෙමන
තබෙනවා
තබෙනනෙ
ජනාධපතවරණය
ඉලකකම
ඉලකකය
නෙදර
නෙපාල
බහව
බහතරයක
සමමඛ
සමානව
ශෂයාව
ශෂයතව
තබණා
වශලෙෂණයක
සෙවකයා
සෙවකයනගෙ
බලපතරයෙ
නසාවෙන
මතරශල
##ations
කමකදැය
ඇමොනය
ඇමතවරයා
තැට
ලෙබල
සෙනට
සෙනසර
එංගලනතය
කනයා
පහරදන
කෂෙතරය
උතරන
ඒකකයක
ඕනෑ
වෘතතයමය
සතයම
ආකෘතයෙන
අරමණන
ජලයාන
රොහලට
වැළඳ
වැළල
##දාසවාදය
2022
චතරපටය
චතරපටයක
150
කමටවක
සමාගමෙ
සමාගමකට
පරවැටම
වෙලාවට
කැපවම
250
අගයක
තදබදයක
නාඩ
නාසය
සපගසක
වෙදකාව
වෙදකම
හැඳනවෙන
හැඳනවෙනනෙ
බදලල
බොසටන
##ානමපය
වයවසථාදායක
හෙළදරව
1997
1996
අභයොගය
අලලය
ඇමරකාව
ඇමරකාවෙ
පතරකා
යාමෙන
##olog
කාණඩයක
කාණඩයෙ
php
ඇරඹෙන
කාමරයක
කාමරයෙ
මදාහර
වහාරය
සෘතව
සතරන
කාචය
කාචයෙ
එනජන
නයායක
භකෂක
හානකර
##berries
පරවාහය
ගොඩබම
සාරථකව
පරමඛතවය
දාහක
පඩාවට
##ඩරල
##ogle
සංකරණයෙ
1979
1970
පාකසථාන
හතනනෙ
පරභෙද
වසඳා
බලාපොරොත
1969
කෙනෙකගෙ
කෙනෙකටම
හවමාරව
පෙජෙංහ
form
දෘෂට
වඳදරාගැන
සවරපය
පරාවදය
එකනෙකට
කැඳවය
වදයාතමකව
පොජජෙන
ඇතවන
ධරැ
ධරයට
පානදර
වෘතතයක
වෘතතයට
සලකනන
##යතාවය
හමදාවට
සංවධානාතමක
පාඨල
වයාපෘතයක
සංඛයාලෙඛන
art
උදයොග
චරත
බමතව
යැව
##ents
සැලැසම
සාහතයයක
පරවැසයනට
සපාඤඤය
print
ආකරමණ
පරශසත
පැදවම
ශරරයට
දෙවපරය
දෙවානමපය
අවදානමක
මනදගාම
වෙළෙඳපොළ
අඟර
අංකය
සනාය
සනාථ
##oph
අතරදනව
පාරශව
වචලයයන
නයොජතයන
නයොජතයෙක
සංසකෘතන
සංසකෘතයෙ
trans
ආධාරක
මොනරාගල
හයවන
හංසා
දරඝතම
සවයංකරයව
කාරයභාරය
තාකෂණයෙ
ඇසමට
ඉකමවා
ජපානයෙ
යහපාලන
රණවර
සඟවා
හඟය
හඟයක
හඬක
##ෆරඩ
කැමරාවන
නරවචනය
ආශවාස
ගබඩ
දකෂතා
යථා
වජයවරධන
වජයබාහ
සරයස
සරයයා
ළමයන
පළවෙත
කැමැතතෙන
වවෙකයක
අවසථාවනහද
clit
shot
ඔකෙය
ඔකමා
දෑත
යරොපය
##කලපනය
##ෂාඩ
##que
පරයතම
එකඟතාව
වරායට
වරදකාර
අධරාජයය
දැනෙනනට
සනදරතවය
##ected
දනදසනෙ
අරමදල
ගමනාගමනය
ගමනාගමන
දටවෙය
මොකකට
රංගන
වපලවය
##ආරචච
පරනැම
පරනානද
කොළොනන
සවභාවධරම
බරහසපතනදා
ගෙමබා
ඉතහාසඥයන
ආයධයකන
ආලෙපත
ජාවාරම
භාගයෙද
ශානතකරම
සවසතරාතමක
හලාවත
හණසමමා
##ලයනස
##පොලවල
##ොනනරව
වනොදාසවාදය
සංසකරණය
පැරසෙල
පැරෙටො
මලධරමය
නැංවමට
ගැලපෙන
වමසමකද
සනසනව
පරවණතා
danujayaoff
අබෙස
උලමන
ඔසටරෙලයාවෙ
තාවකාලක
තාවකාලකව
තවකක
දනනවා
දවසක
යාපා
රහණගෙ
ලනඩන
ලයාපදංච
වජතවාදන
සංගකකාර
සංගපපර
අවධානයෙන
ලැවගන
මනොවදයාතමක
මනොවශලෙෂ
බලපානනෙ
කෙළවර
ඇමෙරකා
ලෙඛනගත
ඩොමනකන
fernando
netw
ඇදහය
උෂණතවය
ඔකසජන
කනදෙ
ගාසත
චකතසක
මධෂ
මයකරොසො
ෆැසසටවාද
පරචාරක
##ensis
කණගාටය
##lobal
කැනඩාවෙ
සොලදාදවන
චොදනාවක
blas
google
math
තෘපතය
ධෛරයය
පදරපප
බොකකට
වපතට
පරතසථාපනය
ගැහැණ
තෙඳනාන
අඟහරවාදා
ජලාපවහන
යථාරථවාද
scorecard
තරගමාලාවෙ
තරකණාමලය
piacse
උපයොග
ගඩොල
චතතවෙ
ටෑං
රොදයක
ලසනත
වලාකළ
ෆෙඩරල
වැලමඩ
අනදැන
අමරාවත
පටපසන
දැවැනතම
කාංසාව
අභපරෙරණ
වැටලමක
ෆරෑනකලන
ඩොලෆනස
සාපෙකෂතාවාදය
periodic
අභයාචනාධකරණය
වෙහෙසක
ඇඹලපටය
ගරෑනඩපාස
fantasy
zhu
අහතකර
ආවෙනක
ඇෆගන
ඔමකරොන
ඡායා
ජයතලක
තෑග
තානාපත
තකකාල
නසකලංක
බදයදන
භාජනය
මයනමාර
යඨාල
යවරජ
රංජත
රොරොයයා
සබඳතා
සොහොය
හපතලෙ
ෙබකං
සමබාධක
සමෘදධමත
පරතවරදධ
පරමයර
පරමාරථය
පැතකඩ
කොරොනාවෛ
තරසතවාදය
හොංකොං
මලාරමභය
හැඳනමපත
මාලදවයන
ඇමොනයම
සපගසකනද
danujayaofficial
මයකරොසොෆට
piacsek
2වන
34
33
46
43
40ක
56
54
53
582
72
93
award
b7
bey
co
cc
can
car
col
cid
clow
cdb
di
dur
dir
dash
el
ed
ec
fe
fu
fle
foc
ga
hi
ha
hom
hum
if
jal
james
ka
kh
klob
mon
mil
mis
met
manu
mich
na
ol
pə
par
pas
pos
rv
rel
sq
sec
sau
sox
t20
us
ur
val
vir
we
wh
wil
york
අකර
අවල
අවය
අමත
අගත
අකරම
අකණ
ආරය
ආවරණ
ආසයාව
ආගමෙ
ආපදා
ඇර
ඇසත
ඇතවය
ඇසල
ඇදම
ඇඩම
ඉඳ
ඉවර
ඉංග
ඉතය
ඉකත
ඊශර
උදධ
උඳන
ඌව
ඍණ
ඍජව
එඩ
එප
එෆ
එනෙ
එතෙක
ඒඑල
ඔන
ඔර
ඔයන
ඔරො
ඔසටර
ඔපප
ඔලව
කං
කවා
කෙක
කතක
කකල
කංච
කලයය
ගහ
ගං
ගවා
ගණයක
චංච
චපප
චාලක
ජවලන
ජෙම
ජවනගෙ
ඥාතන
ටැ
ටෙක
ටයට
ටරම
ටොක
ටොන
ටරො
ටොම
ඩමබ
තට
තස
තණ
තලල
තාක
තණක
තොම
තැත
තානතරක
දවා
දගෙ
දමය
දඹර
දවරම
ධාවක
නඟ
නමා
නාට
නකොට
නතවලට
පශ
පනන
පයා
පහා
පෙෂ
පතක
පංච
පලලෙ
පශච
ඵලක
බාන
බයෙන
බසර
බසව
බටල
බඩල
බදාම
බොතල
භය
භෙද
මථ
මයට
මරම
මතය
මොග
මාධ
මාලන
මයය
මකළ
මකණ
මාවත
යක
යවා
යකර
යදා
යගය
යොන
යකතය
රක
රග
රතව
රබන
රයන
රසක
රවම
රංජන
ලපය
ලෙය
ලොජ
ලවමට
ලකෂණය
වඥ
වදන
වකට
වංශය
වගරහ
වෑන
ව20
වතකම
වලලය
වානෙ
වයකත
ශශන
ශෂණය
ශෂණ
ෂොල
සෙස
සවෙ
සගර
සසල
සබර
සඩන
සපන
සබස
සොකස
හැන
හරය
හසත
හසර
හාවර
ළණ
ෆල
ෆැන
ෆලඩ
##යංග
##යමන
##යෑමට
##කඳ
##කාල
##කමෙන
##කසන
##කකම
##ෙඩ
##ෙකර
##ෙලෙ
##ාගත
##ාසකම
##ෑමෙන
##සාන
##සාද
##සදධ
##සබෑ
##සපරස
##මඩ
##මතව
##මාලාව
##හලල
##හයම
##වො
##වයට
##වමත
##වවද
##වකාශ
##ගක
##ගහ
##ගං
##ගනන
##ගයක
##ඳනන
##ඳපොලවල
##io
##ix
##ius
##ne
##ns
##ලයෙන
##ලාල
##ලතා
##ලයෙද
##ලතාවය
##නාවක
##නයෙද
##ෂකයන
##ණයන
##ණරාගල
##දලක
##දෂණය
##දහසකට
##භෙද
##තප
##තමා
##තැබ
##ඩට
##ඩඩ
##ඩයාව
##රත
##රෙන
##රාන
##my
##mb
##man
##ming
##gu
##gor
##gun
##site
##ැවත
##ැදම
##ැලලෙ
##පාව
##පාන
##පෙර
##පහස
##ජෙහ
##ධයෙ
##ධරය
##rt
##vent
##ශා
##ශයෙ
##ශයා
##ශංක
##ශචත
##oist
##pn
##ps
##pr
##put
##lc
##ly
##බැක
##බවන
##බෙර
##බලන
##බහල
##ඹක
##ඹා
##40
##4°
##32
##3°
##ඟයට
##ෆය
##ෆෙට
##චල
##ca
##ybe
##bwh
##1ක
##12
##19
##11
##ze
##එළය
##ොපය
##ොලය
##ොෆර
##ෙනත
##ෙනවා
කරක
කරල
කරප
කරවල
##ාවා
##ාවො
##ාවාස
##ාරක
##ාරථක
input
සමෙ
සමකරණය
සමපාදනය
සමෙනත
පරතර
පරමන
පරකාර
පරාම
පරාජ
පරකෂණය
පරබොධ
පරගතය
##නනන
##යකරණය
##ාතත
##ානෂක
සහම
සහයක
සහනය
සහසර
##තවම
##තවරය
වසමත
වසමෙ
වසඟයට
කරමත
කරමවල
කරමයය
කරමානතය
##යාස
##යාගොඩ
ඇතලත
ඇතලලම
ඇතැමන
##ැනක
##ැනස
##ැනඩර
සමබනධය
සමබනධක
සමබනධත
සමබනධයක
##වාදන
##කරො
##කරගත
##කරසට
##කරගැනමට
##නයය
##වනතව
වසතරය
##හාඩ
මෙල
මෙලෙස
මෙවාත
මාතෘකා
වෙවා
වෙදන
##මටර
##මටගොඩ
##වතාන
##වතසතර
##මකාම
වනද
වනයෙ
වනතෙක
වැවෙ
වැසස
සඳට
##වසන
##වරඩ
##වරධ
##ෙකට
සංහ
සංච
සංකෂ
සංයොග
සංගණ
සංවරධ
බවද
##පතය
##යටද
සඳහාද
කළහොත
අනතත
අනමත
අනලා
අනකම
අනොනය
අනවසර
හැකව
හැකනම
පළස
පළකරන
පැදම
පැරස
එකතරා
##කාය
##කාම
##කාමන
කොක
කොස
කොහ
කොර
කොවල
සටරො
තරවක
තරාස
තරජන
තරපද
තරජනය
හොඃ
හොරණ
හොටඩ
##මනස
කරනල
පොළඹ
පොෂය
පොතවල
පොෂක
පොසපරස
##දාංශ
වරය
වරන
##වෙල
##වෙමන
##වෙතත
##වෙලා
##වෙලට
නොස
නොප
නොසට
නොදම
නොකරය
නොගැනම
##කාරමක
ශරරය
ශරතාවය
ශරාණ
ගැනවම
ගැනවමට
##තතල
##තතාව
බලට
බලයෙන
බලගත
බලවෙගයෙ
වයසෙ
සදධාන
සදකරම
සදදක
සදකෙර
මලම
වැඩණ
වැඩවන
වැඩවය
වැඩකරන
වැඩමළ
වැඩපරම
##ගතාව
##ගතයන
කරයාවට
##මෙෂ
දෙමන
දෙවය
දෙහය
දෙවාලය
දෙමටගොඩ
පසවර
පසබට
යනතරය
සෙපාල
වෙනම
##සකන
##ලයගොඩ
සැර
සැළ
සැරස
අවප
අවයක
ජනවා
ජනබලය
ජනාවාස
උපකරණය
උපකලපනය
අමම
අමතා
අමානෂක
20ය
අදහසය
අධයන
අධවෙග
පවසනනය
අතකර
පරතමා
##ෙෂා
##වකගෙ
හෙලක
හෙලස
වසනත
##ොකො
##වැලල
##වැතම
##වැඩයාව
පාරක
##ශයාව
මහම
මහයංග
හැසර
අපව
ඉනදර
මැකරො
නැට
නැතව
නැඹර
නැදද
දරශනය
දරනනා
දරවනට
දරගැනවම
මනම
මනදා
ගොවා
ගොවතැන
##ෙයාර
##ෙයබාන
දනට
දනෙෂ
දනවනන
දනවලද
ඔබව
අවසසන
පෙල
පෙබර
පෙටටය
##තවරයක
හමවන
හමයනට
##ane
නමවා
සයයට
සථාපනය
සථාපත
අඩවම
අඩංගවට
කාලයත
කාලසම
කැකර
කැණම
කැමතය
නයැල
රාජා
රාජව
රාජකය
රාජවංශ
##ාවෙද
ඔහගෙන
නරකෂණ
නරෙනදර
##ott
##ero
##erc
##ering
##ine
##සටල
යොනය
යොදන
පරදෙශයට
ගතතා
##ෙදනය
ගෙනවා
වලසන
වලාස
සරණ
සරැක
සරසත
සරණා
සරතල
දෙනනය
දෙනකට
කටාර
මතට
මතසය
මතභෙද
කොටව
කොටඨා
ගැස
ගැල
ගැහැන
බැලය
බැසල
සවද
සවපහස
##නමය
පතකරන
පතකරමට
අනතරදායක
ආරකෂණ
පටක
පටවක
පටපස
පටහැන
පොලම
සොස
සොදන
සොදස
##මයම
අයස
අයව
අයැද
##ාගාර
හරෂණ
හරහැර
පවතනනෙ
බරයන
බරසල
වරගයා
ගණවරධන
දැය
දැරම
දැමණ
##කමොල
##ලෙඛ
##arn
##ark
රජව
රජවර
ඉනදයාවෙන
රැළ
රැවට
රැහැන
වශයෙනම
ගනනැය
වසරක
වසරවා
##ong
##ond
කාඩ
කාළ
වයාකල
වාරණ
සභක
සභාවක
##ale
වැදදන
ජාතකයෙක
සාමපල
පරධානයා
පරකාශනයක
දෙශපාල
දෙශපාලනය
තනව
තනකට
නෂපාදතය
මරාද
අමාතයවරන
පෙනවන
පෙනමක
පෙනවය
මටරයක
මටයාගොඩ
##දෙනන
හෙතවන
##ature
අවශයද
2016
දෙකෙ
යතද
කලොමට
ඉදරයෙන
නතගත
රටවලට
##ick
සතපය
##ටරල
##ටරො
##ටරයක
##ටරයා
##enn
##ධනහලල
පනතර
පනවා
පනකඩ
අභබ
අභාව
අභලෙඛන
ගරෑම
ජයගැනමට
ජයගරාහ
අපරස
සොයාගනනා
##ොලාන
දයවැඩයාව
රොගයක
අරබදය
අරාබ
##usic
1000
ආණඩවෙන
දැකවෙන
##acam
සථානවල
ගනධ
ගනධනහලල
##මැද
##ess
වගාව
වෙතට
ජවතයක
පරවතර
ආසාදන
අලගැ
හටගත
##ෙලට
තරඟයක
පැමණම
පැමණලලක
ජනාධපතධර
ඉගෙනමට
සාමකාම
භාවතයක
පරාකරමබාහ
ලංගම
සනනද
වැදගතම
පාසලෙ
නායකයන
පාඩ
මනතරවරයා
පොලසපතවර
ආහාරයකට
මෙහෙමය
##ෙකෂත
මාරගයට
ඉවතලන
දවයනට
වෛදයවරයා
වෛදයවරයක
යෙදෙන
යෙදමෙන
සමාජයෙ
පරදානය
පැවැතවමෙ
පාලම
තරණයට
මැතවරණයෙ
මැතවරණයෙද
මටටකකලය
වදයාඥ
වදයාලය
වදයාගාර
කරඩාවක
කරඩාවෙ
කරඩකයා
සෙවයෙ
සෙවාවෙ
වෙළඳපොළ
කෙසෙල
කාරයයට
කාරයබහල
මාධයයක
##මනාදන
කොළඹට
නගරයෙද
නගරාධපත
නගරාධපතවර
කොමසමක
පැවසවෙය
පැවසවාය
කඩවතසතර
කඩොලාන
දසවන
මණඩය
උදගතව
උදෙසා
ජලතාප
කවයක
කවආර
බවතය
වකල
වෙබඅඩ
##ලනතයෙ
කරණාව
කරණාට
පැවතන
පැවතණ
අයතන
අංශයට
මයගය
මයසර
##බැඳම
නොහැකය
නැවතම
ශාකය
ශාකයට
සමතලත
දෙනෙකට
##කලපත
පරසරයට
this
සාරව
සපරශය
පරහාරයකන
නලධාරනගෙ
නලධාරයෙකට
ලැයසතවට
නවසලනතය
වායදෂණය
ජාලයෙ
ජාලකරණ
මාසයෙහද
මධයසථ
මධයසාර
##පොසපෙට
පරමාව
කළමනාකර
නොමැතකම
කයවම
කයවමෙ
තමනව
තමනගෙ
කරයාවලයෙ
පරතකාරයෙ
නයමයන
පාසලවල
පවතවනන
මදලට
රාශ
##ගරහණය
වයාපාරයෙ
යනනය
යනනෙන
ශකතයක
##යමස
වැටණ
වැටමෙන
වැටහණ
තරණයෙක
යොදාගෙන
මොඩ
මොළ
මොණරාගල
සාදා
කෙසෙවවද
කෙසෙවෙතත
දෙපාරතමෙනතවෙ
එලලව
කෂරප
##urr
##ures
##urch
ජනතාවගෙන
පරමාණයෙන
අසාද
අසවැනන
අසාරථක
යාතර
රථය
රථයට
මලකාලන
දැඩව
පරවෙශයක
16ක
160
187
186
185
හැකයාවය
තලද
තලාන
තලෙයබාන
අවසානයෙද
ලකෂමන
ලකෂණයක
එකතැන
පහණකර
ජනාධපතවරයාගෙ
ජනාධපතවරණයෙද
110
1111
ang
රැකවරණය
රැකවරණ
රැකබලා
සමමතය
සමමතවාද
පරශනවලට
වරධනයට
ශෂයයෙක
තබණද
අධයයනයන
අධයයනයට
12ක
කෙනදරය
කලාතරකන
තැනක
තැනට
නසාය
මසොලන
මතරා
සංඛයාතමක
සංචාරකයනගෙ
වශවාසයක
වශවාසයට
බෙදාගත
උදාහරණය
හඳනවාද
යනතරයක
යනතරයෙන
ආරථකයට
ඇමසන
දෙසන
වාඩ
##වනනැය
එළයට
පහරදම
පහරදමට
පහරදමෙ
##පළෙ
සාකෂය
කරයාකාරකමවල
ඒකාබදධතාවය
iso
ඒකකය
දොෂය
දොමනස
දනාගැනමට
නශශංක
නතයානකල
බණඩාරගම
ගැනමෙද
මෙහෙයවන
ඉටස
රොහණ
##දෙව
##දෙණය
සහතකය
සහතකයක
සටයහ
2023
##තාවකට
වෙලඳපොලවල
කැපම
252
starb
starl
ආලොකයට
ආලොකමත
තදස
තදබදය
නඩවක
බඳත
රසවෙලට
සතනගෙන
##rev
පරකෂාව
බැංකවට
ඉරඟ
ඉරාන
ඉරදා
බදාදා
බොටට
ලයනනෙ
වහනසෙගෙ
වයවසථා
1999
1993
1946
1943
1940
ඇමරකා
පතරයක
පතරොම
යාමෙද
රොදය
රොඩර
වාසයක
##ණාභරණ
##unt
බලයලත
දෙදෙනෙකට
කණඩායමෙහ
කාණඩය
ගැටලවක
බාහරතා
බාහරතාවයක
comp
comedy
අගනදග
ඇරඹෙ
ඇරඹම
ඇරඹෙය
කාමර
නපදවය
වහද
වහදෙ
සෘණ
සතරයක
##ula
##චචට
1986
1984
1983
කාචයන
කාචයනහ
මහාචාරයවරයා
140
ගතතෙම
නයාමන
හානයට
##ෑනස
ශරෙණය
ගොනවලට
ගොඩබෑම
ලැබෙනනෙ
සාමාජකයා
සාමාජකයනට
අපරාධකරවන
බනධනාගාරයෙ
##ide
##ography
##තරමලල
සංකරණතවය
අංගනයෙ
අහමඩ
ආදරශ
නවකොමබ
පනදව
පනදවාර
හතකර
##ages
##agna
##බාධත
වසඳය
වසඳමක
අතරතරද
1965
1964
1954
ලොකඩවන
පලබඳව
ශකතමතම
හවමාරවක
ආචාරයවරනගෙ
කමකර
කමපන
කතොලක
දෘශයා
දලලයෙ
බයර
බයසකල
මදරණ
වඳනන
වඳමට
වඳමන
වාතව
සවරපයෙන
සවරණාභරණ
සාධාර
සාධනය
##දකවන
පරණාමය
සංකෙ
එකනෙකාට
මනසෙක
##දෙනාගෙ
පරාණයෙ
franc
කටටලය
දළදා
නොතස
හැඩයෙන
හැඩැත
හැඩගැ
හැඩගස
##ortal
පාරලමෙනතවෙද
සංවධානයක
තැබය
තැබමට
තැබමකන
අනාගමක
ආයොජනය
ඉතරකරමෙ
චාරකා
දායකතවයක
නාමල
යැවම
වණෙම
සැසයක
අධකරණයෙන
වකණමකරවන
ගොඩනැගමට
ගොඩනැගලල
පරථමයෙන
ඉදකර
ඉදකරන
ඛණඩයෙ
ඛණඩනය
තෙරප
මදදර
සංවරධනයට
පැදවමෙ
වරණවත
උපදෙශක
උපදෙශනය
කරයාමාරගයක
රැසවමෙ
කෘෂකාරමක
ජෛවමතක
eng
end
අඟල
ජවපෙ
ජරමන
ජරමනයෙ
නළධාර
මවපයන
සනාම
සනාසෙන
හෙරත
##abs
##ocybe
පරජාව
පරගණකයක
තබයද
අමෙරකාව
1923
දරසථව
වයාපතය
වෛරසයක
වෛරසයෙන
වශවවදයාලය
ගවෙෂණ
බෙකජෙහ
සෑදම
සෑදමට
හසාන
##ගසවැව
පරයෙෂ
පරොකථන
දරඝකාලන
සථාවරභාව
නරපණ
##indu
ලැබණෙ
තාකෂණයන
දොෂයක
අහඹ
ඉකමව
කැනම
ගඟෙ
ගඟට
ජපාන
නවෙදනයෙ
යහපැ
රණතංග
සකසන
හඬන
දරශනයක
##antic
කැමරාව
පටතට
උතසවය
කෙසෙදැය
කවදාද
##ighting
ආශාව
තාරකක
දඹල
දකෂතාවය
මංගලයය
සොරබොර
පරාගණය
1935
යොජනාවට
සරටටවක
අයදමපත
අයදමකරවන
වැළැකවමෙ
වෙරළට
clar
ඔකසයඩ
තදෙනෙකට
දාහත
දහමට
දහමෙ
දඩය
දොරට
දොරවල
ධරමපරය
නවතා
නවරඑළය
පාවා
බදරදන
ශශනයට
##iflor
##භාෂා
සමාරක
වැඩපළවෙල
ජනරජයක
සයැටලහ
නයෂටක
අලතගමගෙ
අවසථාවෙද
අපෙකෂකයාට
සළඟෙ
island
වයටනාම
අනයම
අරමදලක
උළෙලෙ
දපතවල
පාදක
පඩනයකට
බතතරමලල
මොකද
රතනවලල
වවෙචනයට
##කොණ
##ucks
කරසටොෆර
සමකරණයක
සමකරණයෙ
පරවරතක
සංචතයට
අනසමරණ
දෙදෙනාම
බැරසටර
දැරමට
සැකසමට
උදඝොෂණයක
ඉතහාසයෙ
ෆරැනසස
guacam
ආලෙපන
කලනොච
ගායනය
ජාවාරමක
තඹතතෙගම
දලර
බෙදනන
මෑත
මෑතක
මෑතකාලන
ලයනල
පරමතන
වසංගත
වසංගතය
වනොදාංශ
සංසදධ
කොටටෙ
කොටටාව
උපනදනයක
නැංවය
බැඳණ
වමරශන
වසරෙහද
වාහනවල
ශරෙෂඨාධකරණ
තවකකව
නාටයයක
බැකටරයා
යරයා
ලනකන
ලොරයක
##rator
##ows
සමහයක
පොළොනනරව
අවශයතාවය
පෙළඹවම
ගණාතමකභාවය
ගරහණය
මාතරාව
පැමණයෙය
ලෙඛනය
අමාතයාංශයෙන
ගමමානයෙ
කානතාවන
සංකෙතාතමක
අභයාචනා
උතසහයක
මෙනඩලයෙවගෙ
6510
benoist
cont
emily
grand
website
අළත
අසනප
අහසෙ
අසමාන
ආනයනයට
ඉනනවා
එළඹෙන
ධාවනයෙ
නටාල
පෑලයගොඩ
පමමක
බමතන
වාහකයන
කරෙඩට
සමළව
සහකරගෙ
මෙකසක
සංගරාමයෙන
අවධමත
වටටොරව
##වැතවමට
හැදෑ
කාලසටහනට
නරනතරයෙන
සරසවය
පොහොසත
පොහොටට
අපරකාණ
කෙතකරණ
අරධදව
##igner
අගමැතවරයාගෙ
යටතවජත
කණගාට
පෘෂඨයන
සැසඳය
කෘෂකරමානතය
universe
university
කැනඩාව
බෙලහනතාවට
උළෙලෙද
සොලදාදවනගෙ
adobe
machin
series
අවනශචත
ඇපලො
ඇවදමට
කථකයා
කථකයාගෙ
චමපක
ජොසප
නාසතය
මොහාන
යොගයතාව
රඟප
ලතනන
සදාචාර
පරෙකෂකයන
වැරදය
වැලකඩ
සංරකෂණ
අනපාතය
අනපෙකෂත
##පරාපතක
දෙමාපයන
සෙවනැල
1918
නයැලම
යොදවා
මතපටක
කොටඨාස
කොටඨාසයෙ
කරයාශලව
තෙමාවන
ඒකාධපත
වපලවයෙ
ගරතවාකරෂණය
ගරතවාකරෂණ
ගජරාට
ගජරාටයෙ
යතරපැදයක
ඇලෙකසැනඩර
5286
espn
open
romantic
vii
අකකර
උනඋ
ගතයත
චාලසටන
ජොරජ
ටොපංස
පලලව
පලෙටස
බෲනාය
බෙසබොල
යානයක
රතරන
ශාලාවක
##පඩයා
##poration
insane
පරාසයක
පරභවයක
සංයතයෙ
පැතතට
තරබාරකම
පසළොසවකහ
##ොගරෑම
පරතශොධන
නැළැවල
පෙමවත
කැඩමයම
ආරොපණය
ගමනානතයක
කලහකාර
අභයවකාශ
අභවෘතතය
පැහැරගත
හදෙකලා
නෞකාව
තැනැතතන
ගමහාන
පෞරෂය
මදාහැරමට
christoph
ජනගහනයක
පාවාදමෙ
වවෙචනාතමක
පරජාතනතරවාද
කැලෆොනයාවෙ
ජනශරැතය
පරතසංසකරණ
corporation
designer
hindi
illust
pm2
subc
www
ආංජනෙය
එමෙනම
කවනසලය
කලලයක
ගෙරෙටා
චානසල
තෙහෙටටව
දදලන
දවයමය
දොසතර
නාරලතා
නදනගත
පවතවය
පඩාකාර
බනදල
භගොලය
මනනාරම
මාතලෙ
මාදල
යනාදය
වකාශය
වපරයාස
වජෙවර
සඵලතාවය
සඝරයෙන
හෙනර
කරමාංකයෙ
වනයාසය
ශරලං
දෙවතාවය
අවංකවම
මනෂයතවයෙ
කැවලලාන
පටපාටය
සොබාදහමෙ
අයතවාසකම
භාගයවතන
නතපතවරයා
සොයාබැලමට
##aceae
උතතරතර
පාකෂකයන
වචතරවත
සමතලතය
අසබවාද
නෙදරලනතය
සෙනටමටර
පරභෙදයක
බලාපොරොතතව
පරාවදයාව
උදයොගමත
හංසාකාර
clitocybe
shotgun
පරනැමම
සවභාවධරමය
සංගපපරවෙ
network
blasket
තෙඳනානා
උපයොගතා
යඨාලතසස
beyond
clown
focac
hijri
manual
pasindu
posse
sqrt
ඇසතමෙන
ඇඩමස
ඉතයොපය
ඊශරාය
එනෙබල
ඒඑලඑස
ඔනලයන
ඔරොතත
කවාසල
ගවාකමොල
ටරොජන
ඩමබො
තටාක
තණබම
තණකොළ
තොමස
නකොටන
පහාට
පශචාත
බසරථ
බටලර
බඩලගම
මථයා
මයටාවන
මරමවට
මොගන
මකණන
යකරෙන
යදාධ
රගබ
ලොජසටක
සබසාධ
හාවරඩ
කරවලගසවැව
පරබොධමත
සංකෂපත
තරාසජනක
තරපදගල
හොටඩොග
පෙබරවාර
කාලසමාව
සරණාගතයන
මතභෙදාතමක
කලොමටර
අලගැට
1111000
starbucks
starlink
රොඩරගො
දෘශයාබාධත
හැඩගසවා
##iflorus
guacamole
වනොදාංශයක
65104°
52863°
1වන
2ය
37
3කන
4√
482
429
5කන
565
510
6ක
64
70
70ක
86
84
83
88
800
9ක
92
9c
98
997
ag
ac
ab
af
ale
aut
aff
bm
bu
br
b6
bb
big
bub
back
c²
cav
city
da
do
dj
dat
dic
dom
dis
day
dun
dav
dum
fm
fac
flor
full
found
foss
gd
gen
games
global
gps
ht
h²
hil
hel
hist
how
hero
habs
im
iee
jo
jav
jmb
ke
kg
kev
komb
lin
led
lec
lam
ltt
live
mor
may
map
mind
mart
merg
merc
mark
music
mortal
nit
nas
nov
name
nature
os
ob
po
pan
pat
pes
pri
pre
pol
pum
part
page
p32
pages
ras
run
rey
ross
raj
si
se
so
sy
set
sch
sort
soc
squ
sim
sex
sket
site
ta
tw
tor
tom
tel
tri
tim
utt
ull
vo
vau
wri
was
wind
warc
xp
අනන
අයක
අකෂ
අසත
අලන
අකම
අකල
අෂට
අටල
අයෙකට
අංජන
ආධ
ආමන
ආවෙ
ආසය
ආගන
ආනද
ආදාය
ආගමනය
ආනනද
ආභා
ආසයාවෙ
ආකාශ
ආකරමණය
ඇවත
ඇසර
ඇසම
ඇතවෙ
ඇසටර
ඇබෑ
ඇදද
ඇලලෙ
ඇදග
ඇලලම
ඇඩඩ
ඇසටල
ඈඳා
ඉහ
ඉඟ
ඉසය
ඉරය
ඉගැන
ඉසව
ඉමර
ඉරා
ඉතරම
ඉවරය
ඉගැනවම
ඊල
ඊජ
උනන
උගත
උදම
උභය
උසකට
ඌර
ඍෂ
එබ
එකර
එමන
එනනෙ
එතක
එවැනන
ඒමෙන
ඔය
ඔයා
ඔතත
ඔටට
ඔපට
ඔයාට
ඕමාර
ඕකෙ
කච
කකෂ
කයට
කවෙ
කපර
කලය
කසන
කහර
කලෙ
කතන
කෂය
කකළ
කඹර
කතවරයා
කෙහෙ
කාදන
ඛෙද
ගට
ගග
ගළ
ගයා
ගනය
ගයත
ගගල
ගසක
ගලා
ගායක
ගදම
ගණයට
ගචච
ගාරඩ
ඝො
චල
චරම
චෙර
චොක
චනද
චකන
චොල
චනයට
චලනයෙ
ඡෙදය
ජැ
ජො
ජාර
ජයා
ජවා
ජකර
ජගත
ජවම
ජොක
ජලන
ජරා
ජෑස
ජෙදා
ජැෆ
ජහාඩ
ටවන
ටකක
ටලර
ඩෂ
ඩෙන
ඩෙර
ඩොන
ඩසටන
ඩයනො
තො
තතත
තලය
තලක
තනම
තැල
තපස
තාපනය
තවරණය
තටටවක
තවාලය
දාන
දයා
දවන
දමෙ
දොහ
දනයට
දශල
දහසකට
ධල
නහ
නං
නයක
නාල
නකෂ
නතා
නාද
නදය
නදා
නයත
නවම
නධාන
නධන
නවලන
නාහ
නගමනය
නාතත
නතතල
පප
පජ
පඹ
පවක
පයය
පවලට
පථය
පජනය
බධ
බබ
බවන
බමට
බගල
බසක
බගම
බදන
බසම
බාහ
බබල
බරමන
භමත
භාරය
භානක
භතාප
මඳ
මාව
මවා
මලල
මමත
මවක
මහස
මරය
මවට
මාක
මංක
මකන
මාවන
මදම
මොද
මලලක
යව
යාල
යවල
යතම
යතතෙ
යාමය
යෙදය
රෆ
රයා
රවෙ
රවක
රවට
රාක
රොන
රසල
රටම
රකස
රපන
රචත
රහසක
රසයාව
රෂාඩ
රධරය
රඹක
ලස
ලඛ
ලයක
ලැන
ලයට
ලතය
ලහස
ලවම
ලතන
ලපන
ලාහ
ලයො
ලයනගෙ
ලපනය
ලලත
ලාරා
ලටරො
ලෑනස
වෘ
වො
වාන
වරම
වංග
වතත
වතාව
වංශ
වහල
වතතෙ
වතාවක
වණා
වවාදය
වඑස
ශෘ
ශෛ
ශාන
ශරමත
ශවසන
ෂයා
ෂලට
සග
සණ
සබ
සෆ
සබන
සකෂ
සකාර
සවක
සතම
සනම
සනද
සබා
සගයන
හෘ
හරම
හමන
හානය
හසක
හදන
හසට
හයකට
හයකන
හනගෙ
හසෙන
හංගල
හසාර
හඹා
හයමස
ළඳ
ළදර
ෆැ
ෆයන
ෆෙර
ෆරය
ෆලෙ
ෆරො
ෆයො
ෆෙලට
🇪🇬
🇳🇿
##යස
##යඩ
##යාන
##යවල
##කමට
##කවය
##කමෙ
##කතවය
##කෘත
##කයෙද
##කොත
##කයාගෙ
##ෙදන
##ාභ
##ානන
##ාගෙ
##ාමක
##ායෙල
##ාභරණ
##ටෑ
##ටෙල
##ෑමෙ
##ෑගල
##සයෙ
##සයන
##සගල
##සගෙන
##සාවෙ
##මාව
##මනන
##මැන
##මානය
##මඩා
##මාලා
##හඩ
##හයට
##හදා
##හලක
##හලප
##හමකට
##වව
##වං
##වදය
##වදල
##වොත
##වයනගෙ
##වහොත
##වෘදධ
##ගාව
##ගසා
##ගයකට
##ගනනට
##ගටෙල
##ඳමන
##ඳකම
##ip
##ib
##ior
##ner
##nal
##nia
##ei
##ef
##ear
##eas
##eets
##ලභ
##ලො
##ලාව
##ලනා
##ලවම
##ලොච
##ලසයස
##නත
##නාව
##නගෙන
##නකල
##ෂනට
##ෂකව
##ෂෙඩ
##ණාය
##ණහල
##ණෙම
##ණොත
##දඹ
##දගර
##දපක
##භාර
##භයා
##භංග
##භාරය
##භතකම
##තොල
##තෙල
##තශයාව
##ඩග
##ඩගල
##ඩයම
##ංඡ
##ංසා
##රවන
##රමට
##රාජ
##රෙද
##රනට
##රපා
##රගරහ
##රවෙද
##රැද
##රොගරෑම
##mer
##ment
##af
##az
##ser
##sen
##sort
##sist
##ැඹ
##ැඟ
##ැනන
##ැසන
##ැමය
##ැටය
##ැසකට
##ැවැතව
##ැෆරඩ
##ැරනට
##පතර
##පණය
##පගෙ
##පපත
##පෙශ
##පැය
##පනයට
##පඩස
##පචන
##පඑල
##පාගාරය
##ජස
##ජජ
##ජමෙන
##ජනයට
##ජපාන
##ෘෂය
##ෘතවලට
##ධරණ
##hr
##ho
##hand
##hav
##hop
##hall
##hai
##hone
##uw
##uch
##ram
##rog
##rari
##7කට
##6ක
##52
##5කට
##ඨයය
##ඨාට
##ශණය
##ශවක
##ශාහ
##ශකතය
##ශකයක
##ශංකර
##te
##oey
##kj
##kw
##kan
##kar
##khand
##pa
##ph
##pl
##per
##ping
##pol
##port
##pberries
##ler
##ling
##lations
##lix
##ළෙය
##බෙ
##බග
##බෆ
##බො
##බාල
##බමට
##බොක
##බොන
##බෙල
##බොව
##බණඩාර
##ඹලා
##92
##94
##93
##98
##345
##ඟා
##ෆක
##ෆොන
##ෆරන
##ඥාවක
##de
##dra
##චක
##චර
##චකර
##car
##cri
##cort
##cia
##comb
##yn
##ypt
##0ද
##xhall
##bes
##bur
##bles
##bhai
##අංශ
##for
##flix
##ෛර
##ෛභාෂා
##wed
##wim
##ඬවමක
##ඕවාද
##8ක
##qwim
##ඇල
##ඞවමක
##උල
##ری
##ʰɑ
##ොණ
##ොකා
##ොටම
##ොෂණය
##ොලලක
##ොතතම
##ොබෆ
##ෙනඩ
##ෙනදරය
##ෙනෙකා
කරඳ
කරවට
කරසත
කරපට
කරෙම
කරගැනමට
කරදද
##ාවම
##ාවච
##ාවයෙ
##ාවලය
##ාවරය
##ාවලන
##ාවතරණය
##තරණයක
##ාරාම
##ාරාමය
##ාරථය
##stem
inf
සමට
සමනය
සමදා
සමගත
සමරය
සමගය
සමසථ
සමකෂණ
සමභාවය
සමරක
සමහය
සමදායක
සමකාලන
සමාදන
සමරප
සමභාරය
පරෙන
පරාන
පරවන
පරවය
පරසත
පරවෙන
පරමැ
පරවාද
පරසයාන
පරාරථ
පරෙමය
පරාතම
පරරාජ
##නනාස
##නනැය
##යකාර
##යකරවන
##යෙය
##යෙත
##ාතලක
##ානතරය
##ානඩර
සහගත
සහයො
සහරාන
##තවට
##තවො
වසය
වසත
වසසක
කරමයෙ
කරමයට
කරමෙහ
කරමකන
කරමවලන
කරමානකල
කරමලෙඛ
##යනක
##යනද
##යනදල
##යාමට
ඇතකරන
ඇතදැය
##ැනකට
##ැනතන
##කාවල
##වාක
##වාට
##වාපටය
##කරට
##කරත
##කරනනෙ
##නයතවය
##පයරක
##ැකවම
##වනෙ
##වනත
##වනදනය
වසතරයක
මෙවාද
මෙතරම
##වතසරය
##ගෙලා
##මකයන
##මකොට
වනමය
වනැය
වැය
වැලල
වැටම
වැගටෙල
##වසනයතවය
##වරක
##වරට
##වරස
##ෙකස
##ෙකගෙ
##ෙකසට
සංඝ
සංගර
සංවාද
සංවෙදන
සංවෙග
සංදරශන
සංයකත
සංකරමණය
සංඥාවක
සංවතසරය
බවවෙය
##නාගම
##නාහම
අතරට
අතරකත
අතරමැද
##ෙසන
##ෙසවලට
##කෂණයක
##කෂකය
##කෂතතාව
##පතක
##පතන
සඳහාය
කළත
කළහැක
කළොත
කළකරමට
##වලා
##වලව
##වලත
##වලලක
##වලොක
##වලපටය
අනවර
අනගත
අනතම
අනවාද
අනාවර
අනකල
අනතවාද
අනදමට
අනතවාදන
අනපරාපතක
අනගෙලා
##රමය
##රමස
##රමකරණ
හැකද
##තාපද
පළා
පළපර
පළඳන
පළසස
පළලයක
පළයම
පළගනනා
පළගැනමට
පළයෙල
පළගැනමෙ
පළයනදල
පැට
පැතම
පැනනා
පැතතෙ
පැෆර
පැතවලට
පැටව
පැවරම
එකෙ
එකෙන
එකවර
එකවමට
එකසෙල
එකවනනැය
##කාමර
##දරන
##දරතා
##ංගො
##ංගාර
##ංගලය
කොෂ
කොඩ
කොතක
කොමර
කොරා
කොචච
කොරයක
කොලලක
කොනක
කොනස
කොතතම
කොදෙව
සටාර
සටවන
සටයත
සටමෙන
සටගෙන
සටොන
සටවමට
සටෙට
සටොකස
##ාදට
##ාදයෙ
තබබොව
තරව
තරතව
තරමට
තරයට
තරවල
තරගත
තරකයෙ
තරකො
තරෛභාෂා
වශවසනයතවය
හොර
හොමා
හොවාර
##තයාන
##මනට
##මනත
##දයානයෙ
පොම
පොර
පොතක
පොකණ
පොටෑ
##දාටත
වරදය
වරාජ
වරණයක
වරණක
වරජනය
වරදක
වරවංශ
වරපරස
##ෙරය
##ෙරලය
##වෙම
##වෙගය
##වෙටව
නොන
නොගෙන
නොහර
නොටට
නොසල
නොකරම
නොරො
නොවෙය
නොගනනා
නොවෙද
නොකරමට
නොසටන
නොපෙන
නොකෙර
නොටටවක
නොකෙරණ
නොබෙල
##කාරතවයක
##කාරයතාව
ශරමකයන
##ලලන
ගැනවය
##තතෙක
##තතනට
##ොරාව
පදව
පදං
පදකකම
පදමනාදන
බලර
බලබ
බලතල
බලකරමන
බලකාය
බලැසකට
බලශකතය
බලොබෆ
බලැනකට
##පරා
##පරණය
##පරසක
##පරදෙශ
##පරෙම
##පරතශයාව
##ාමව
##ාමයක
##ාමානය
වයහ
වයළ
වයඹ
වයලන
වයහැක
වයොව
වයතප
සදවමට
සදකල
මලෙ
මලතව
මලාක
මලසථානයක
මලසථානයෙ
වැඩක
වැඩයෙනම
වැඩවමත
කරයද
කරයාවක
ලබත
##මෙට
##මෙයක
දෙල
දෙත
දෙයට
දෙදර
දෙවෙන
දෙපා
දෙපල
දෙවාල
දෙපැ
දෙගණයක
දෙඅංශ
දෙවරක
දෙපරසක
පසට
පසවය
පසවෙන
පසසෙ
පසදෙන
පසවැන
පසතොල
කරනනන
කරනනනට
යනග
යනවා
##යතසස
##ගලර
##ගලයන
##ගලගං
##ාජර
සෙමෙන
සෙංක
සෙලසයස
හාසය
වෙනකර
වෙනනෙ
වෙනකොට
##ලයො
සැද
සැප
සැමට
සැදම
සැදෙ
සැණන
සැබැවන
සැපයන
සැබවන
අවවල
අවහර
අවකාශ
ජනක
ජනකව
උපයා
උපසම
උපායක
උපවාසය
උපකරමය
උපකලපත
භාවය
භාවනා
භාවනාව
දකය
දකෙන
දකවනනෙ
අමලය
අමමා
අමපාර
අමරස
අමතතන
අමබලන
##සනට
##සනධයෙ
##ගමනයට
අදටත
අදභත
අධකව
අධෂඨ
අධවෘදධ
මහතාව
ලබාගැනමෙ
පවසම
පවසත
පවසෙන
පවසනන
අතෙ
අතකන
අතහැරමෙ
පරතමත
පරතගමනය
පරතෂඨ
පරතපාදන
පරතමාව
පරතචකර
##ෙෂවරන
වටද
වටත
වටයෙ
වටමන
වටලා
වටටම
##හරත
##හරණය
##හරාජ
ලැම
ලැගම
##ලකම
##ලකඹර
##වකාලන
##වකකාල
පදගලයක
පදගලකව
##ාසට
##ාසෙනෙකා
##නනෙතත
හෙයන
හෙලා
හෙජන
හෙමනත
##වමම
##ාධක
##ාධාර
##වැද
##වැත
##වැටම
##වැනනා
පාරෙ
පාරට
පාරවල
මහෙෂ
මහෙල
මහනාහම
හැරය
අපප
අපසර
අපොස
අපනයන
අපහසය
##සතානයෙ
1900
ඉනමෙ
ඉනොකා
මැත
මැගන
මැසස
මැෂන
මැදරය
මැඩල
මැලයම
මැරල
මැරෙන
##ලනම
##ලනඩ
නැමත
නැවෙන
නැමැ
දරව
දරත
දරටත
දරවඩ
දරවනගෙ
දරලභ
දරොණ
මනරම
මනමැ
මනසස
මනසකන
ගොලා
ගොලයට
ගොඨාට
##ෙයාන
දනවා
දනකට
ඔබටම
ඔබබෙන
ඔබතමා
##තාවයකට
##තාවලට
අවසරය
අවසසාවෙ
පෙටරල
පෙණහල
##තවරයෙක
හමපා
හමයො
##anberries
නමැ
ජාතයක
ජාතයට
##ටටඊ
සයො
සයපරස
සයඹලා
සථතක
අඩය
අඩාල
##තකයන
කාලවලද
කැදව
කැසබෑ
නයරොන
නයොජන
රාජකරණ
රාජවංශය
රාජශාහ
ඔහව
නරඹ
නරණය
නරපනය
නරාවරණය
නරභතකම
##මණක
##oted
##ern
##err
##erap
##ertion
##ොනටෙ
##ino
##inc
##ජනටන
පරදෙශයෙන
පරදෙශයකට
ගතයක
ගතෙල
ගෙනා
ගෙනයන
ගෙනවම
ගෙනැවත
ගෙනාවා
වලස
වලො
වලෙන
වලගය
වලැදම
වැනදාය
වැනදඹ
එමල
සරර
සරවන
සරංග
සරසා
සරකෂත
සරකඳ
සරකෂතතාව
සරවකාලන
දෙනනෙ
දෙනාට
වදයක
වදහල
වදවතන
වදහලප
කටවාපටය
පහව
පහල
පහටම
ලැබවා
ලැබමෙන
ලැබමකට
මතෙන
මතයක
මතොටම
කොටසෙ
ගැබ
ගැසම
බැම
බැඳන
බැබළ
සවාරය
සවබල
සවදෙනා
සවඩනය
සවෛර
පතතව
පතෙක
පතකරම
quic
##ංශයට
##පාදනයන
අනතරට
අනතරවය
ආරදරතා
ආරජනටන
පටම
පටල
පටතව
පටවන
පටවෙ
පටගත
පටකොට
වශෙෂය
වශෙෂණ
වශෙෂවල
වශෙෂතවය
වශෙෂවලට
පොලමක
සොයන
සොඩා
සොයමන
සොඳමන
##මයලා
අයගෙ
අයපඑල
##හැදල
කරයාමාර
කරයාකලා
නවයක
නවකරණය
නවොත
නවෙසවලට
මාරගො
මාරෂල
##ාගාරයක
හරගෙ
පවතක
පවතනා
බරසලය
ගණයෙ
ගණමක
ගණමෙ
ගණරතන
ගණවංශ
ගණාකාර
දැහැම
දැලවම
වමබට
##කමාල
##aron
##arat
##arks
බලපාය
බලපැවැතව
##සලදායක
පෙරසම
පෙරදග
පෙරළම
රජට
රජයන
රජවෙ
රජකම
රජයනට
රජවරන
රජරට
ඉනදයාවක
භාෂණ
රැද
රැජන
දැනමට
දැනණා
##ornia
වශයෙනද
ගනනට
ගනනකන
ගනනනට
නෂෙ
නෂකාස
වසරජන
##onn
##ona
ලංකාවෙහ
කාංසා
කාකෂකය
වාරක
වාරයෙද
වාරමාරග
වාරෂකව
##ගොලල
##ගොලලෙ
##සෙට
##සෙවා
##alid
##alian
##alier
වැදමට
දකවාම
සාමහක
##ලපෙන
පරධානතම
පරකාශයන
පරකාශනයෙ
දෙශපරෙම
ආසදනය
තනෙ
තනෙන
තනවෙන
තනකම
තනපඩ
##ඳනට
තරගවලට
නෂපාදත
නෂපාදකයෙක
මරදය
මරකල
මරදාන
පරමාණයට
අමාතයංශයෙ
පෙනම
පෙනවම
පෙනහළ
පෙනවනන
පෙනගයන
පකෂන
පකෂයකට
මටසව
වවධතවයෙ
වවධාකාර
ආරමභයනහ
කහපය
කෙරණක
කෙරවලපටය
තෙමෙ
තෙවැන
##ated
##atist
දෙකය
දෙකටම
දෙකෙනම
ඉලලමට
කලයට
කලාය
කලකරමට
කලතැබ
කලැරනට
##ධාරයක
ඉදරයෙ
ඉදරපස
ඉදරපතව
නතයෙන
නතයට
රටවලන
##ica
##icles
##බරො
##බරයන
සතනන
සතටක
සතතවයන
##eno
##ench
##අඩච
පනාන
පනතය
පනජා
##පාරශවක
අභමත
අභයතසස
ගරභ
ගරාහ
ගරවරන
ගරවරනට
ගරවරයෙකට
ජයසර
ජයලත
ජයසංහ
ජයසෙකර
ජයශංකර
වෛර
අපරයෙල
නලයෙ
නලවරණය
සනත
සනොප
##ාවනගෙ
පළමවෙන
##ොලො
කෙමබර
කෙතයක
කණඩායමවල
දයවෙන
දයණයක
දයලම
මගනට
##ගැනමත
නරමාණයට
රොගයාගෙ
වෙළෙන
අරණ
අරත
අරහත
අරාවෙ
අරෂාඩ
අරභයා
අරවකකාල
107
101
මෙනඩස
වදයාවට
වදයාරතන
කහපයකම
ආකාරවලන
දැකවෙය
දැකවමෙ
මානාභරණ
මානවමම
##සවමට
##ොජනයට
##ොජකයෙක
සථානයකට
සථානයකන
සථානගතව
සථානාධපතවර
උතසක
ගනක
ගනගත
මමබාය
සලභ
සලෆෙට
සලරෙද
සලපයරක
##esl
##esort
වගවට
වගකවය
සෞරගරහ
ජවතයෙද
ජවතානතය
පරවෘතතය
පරවගාම
මාඝ
මාසක
මාසය
මාගම
වවයන
අලස
අලතව
කාරණයක
කාරකය
කාරණක
ගෙවත
ගෙවල
ගෙවමට
ගෙවනන
මහාදව
වමටත
හටයෙ
හටයා
##ෙලස
##ෙලකාවක
##ෂයර
සංවධායක
තරඟයට
තරඟයෙද
තරඟකරවනගෙන
තරඟමාලාව
පැමණෙ
පැමණෙත
පැමණෙනන
සායනක
දමාරය
දමරයක
දමවැට
##භාවයට
ඉහළතම
චනයෙන
චනදන
##ොදදපක
සමපරදායක
ලංගකයන
ලංගෙනදරය
සනනාමය
සනනසගල
උපකාරක
වැදගතකමක
පාසලක
පාසවරඩ
වරොධතාවය
වරොධතාවක
තොරතරක
නායකයක
නායකවරයා
නායකතවයෙන
පාට
ලකවෙ
ලකකොට
##ානතයක
##ානතයට
තවහඩ
##ැමමට
##ැමමෙ
2007
2000
පහටවය
ආහාරයක
සැකල
සැකැ
සැකයක
සැකපට
හඳනනෙතත
ඉවතකර
දවයෙන
දවගෙන
දවපාරශවක
##වරයාගෙන
ගැටමෙ
ගැටමකන
වෛදයවර
වෛදයවරයෙක
වෛදයවරනගෙ
වෛදයවරය
වෛදයවරයාගෙ
වෛදයවරනට
යෙදමෙ
යෙදෙනන
##චාරණය
සමාජයක
පරදපාගාරය
පැවැතවෙ
පැවැතවෙය
වඩස
වශාලය
වශාලතවය
ආරකෂාවක
මටටමක
මටටමෙන
##රොමඩා
කරයාකාරන
කරයාකාරතවයක
කරයාකාරතවයෙ
දගඳ
##ths
##thon
කරඩාවට
කරඩකාවන
සමගාමව
මලදරවයයෙ
සෙවමෙ
වෙළඳාමක
හඳනාගැනම
හඳනාගනනා
හඳනාගැනමට
කාරයවසම
මාධයවල
මාධයවෙද
##ilis
##ille
##ilog
ලංගකතවය
නගරවල
නගරයෙහ
බෙරමකරණ
වදෙශගත
වදෙශයනහ
##පාඩ
සමාට
කොමයන
කොමශන
කඩාම
කඩයම
දසදහසකට
මණඩලයක
##ispor
පැහැද
සැලසමක
වාරතාගත
වාරතාකරවන
උදද
උදාව
උදාවක
උදැසන
කවයෙ
කවහොත
වකවාන
භාණඩයෙ
පයවා
##eta
##elop
කරණාවෙන
කරණානායක
කරණෑගල
කරණාතලක
පැවතමය
මහදට
මහදබත
බරතානයයෙන
අයතයක
අංශයෙන
අංශයකම
ඉඩමක
තමාව
තමොත
තමලනා
පලග
ලාංඡ
ලාබාල
##බැදද
පරසනන
පරසාදට
කරමයාව
නොහැකව
නැවතමෙ
ශාකවල
ශාකවලන
සමතලා
සමතපාල
සදවමක
වෙනවෙනව
සැපයය
සැපයමෙ
ගණනකට
පතවම
පතවෙය
පරසරයෙ
think
therap
සපරසොන
සපරසදධ
සපරපොසපෙට
##ions
##ional
පරහාරයන
පරහාරයකට
පරහාරවලන
පරහාරකයා
නලධාරයා
නලධාරයාට
වායවෙ
වායවක
පයවරෙන
ඝාතනයෙ
ඝාතනයක
ජාලය
ජාලක
ජාලයකට
පදධතවල
හැරෙ
හැරන
හැරසන
අදාළතවය
මධයධරණ
##පොත
##පොතවල
##පොයනට
පරමලොච
නොමැරණ
##දෙනෙකගෙ
පාරභොගකයාගෙ
පාරභොගකයාට
කයබ
කයවමට
කයබාන
##පලස
කරයාවලයට
කරයාවලයෙද
පරතකාරයන
ඉදරපතකර
ඉලෙකටරොනය
කසඳ
තාපය
තාඕවාද
පවතවනනට
රාශය
ලබාදමෙ
දයණව
දයණවක
දෙපාරතමෙනත
ශකතන
යොදාගත
යොදාගනමන
මානසකතවය
මොසර
මොළය
මොඩය
රෙජමෙන
හදවත
හදනා
##itar
##ited
##ition
##ities
පරසකට
පරසකගෙ
පෙළෙ
පෙළෙන
පෙළපත
පෙළගැ
දෙපාරතමෙනතවක
ආකලප
එලලන
කෂදර
කෂණක
කෂරපා
ගලපර
ගලගමව
ගලොකො
##ොමබර
##anthaceae
පරමාණයන
පරමාණවල
පරමාණවෙ
පාලනයට
අසමත
අසගර
අසභය
අසාමානය
යාබද
රථයකට
සවාය
අපෙකෂාව
අපෙකෂාවන
පරවෙශමෙන
188
1865
1829
යදධයක
දෙවනව
හෙතෙම
ගොඩනඟා
ආයතනයකට
ආයතනවලට
175
173
170
1765
1793
අලෙවය
තලට
තලතා
තලංග
මාලාවෙ
##ොවච
නොවැක
නොවනනෙ
theft
අවරදද
ලකෂයක
පහණවමට
ජනාධපතවරණ
ජනාධපතවරණයට
පනතට
පනතයට
පනතකාමර
116
anns
ආශරවාදයක
චතරසර
නෙළ
නෙපචන
නෙපලස
බහකාරය
බහාලම
බහකාරයතාව
රැකයාව
රැකයාවෙ
##ජතෙල
##ෘතතයෙ
සමමහරත
සමානපාත
පෙරමණෙන
පෙරමණෙහ
කසලානයෙ
ශෂයයනට
##ayer
සෙවකයෙක
සෙවකයාගෙ
උපදවන
අධයයනයක
අධයයනයෙ
මහණට
මහණන
මහණලා
මහණදමට
අලෙවකරණය
122
120
12345
කලාට
කලාපයක
තැනම
තැනැනතන
නසාද
නසාම
නසදස
මතරයන
මතරතවය
මතරනට
##වරනගෙන
සංඛයාවකට
සංචාරයෙ
සංචාරයෙන
සංචාරයට
වශවාසයෙ
වශවාසවනතව
වශවාසභංග
හොඳටම
මනසනගෙ
##ගොඩෙත
බෙදාහැරමෙ
පරතඵලවලන
හඳනවය
හඳනවනනෙ
##කවමන
වනාශය
යනතරයට
අතදැකමට
ආරථකයෙ
ආරථකමය
ඇමයනො
නවැරැද
රනවන
රනලට
ලෙඩ
ලෙවස
ලෙමන
වායන
වාණජ
සෙනා
සෙනද
සෙනාධපත
හමකාර
##වනනන
ලෙකමවරන
එළදකවන
කනකසන
පහරක
සළතර
##වාලමෙ
වැසයනට
පරතපතතමය
අඩවයෙන
සාකෂකරවනට
කරයාකාරකමවලන
වකණමෙ
ඒකෙන
පහසව
සතයය
සතයයක
##කයෙකට
##සංහම
සමමතයන
වැරදකරවනට
අනරප
වැඩසටහනෙ
අවමංගලය
අඩංගව
දෙනනැය
පාරභොගකයනගෙ
මෙහෙයමට
මෙහෙයවය
ආකෘතයෙ
ආකෘතකරණය
ආකෘතයකන
ගොඩනැගල
ගමගෙ
පාලනයක
පාලනයෙ
බාසකට
රොහාන
##igraphy
වනදනයට
තරගාවලයක
චතරපටවල
157කට
1594
ආදයෙ
නයටරස
නයටරො
නයටරක
රතනායක
##oso
##oshop
වෙලගම
##පරයල
කැපව
කැපමෙ
අයරලනතය
අයරාවත
දැමමෙ
දැමමෙන
දැමවෙය
ඉලකකගත
2585
str
star
strat
අගළ
අගයන
ආලොකයෙ
ආලොකකරණ
එලස
එලෙස
එලටටඊ
නාගර
නාගලගං
නඩවෙ
බඳවැටම
බනධනය
මැනං
මැනවල
මැනමෙ
රසැත
සතවන
සතවයා
සතවලල
සතනත
##rea
##rew
වෙදආරචච
හැඳනවමට
මැදගොඩ
බැංකවල
බැංකවෙ
වාරතාවට
වාරතාවලට
ආසනනතම
කාරයාලයෙ
කාරයාලයක
කාරයාලයට
කෂෙතරයෙ
කෂෙතරයන
කෂෙතරයනහ
crypt
cranberries
off
ආවරතයක
කානතවො
බොංහ
ලයව
වධමතව
##බසාර
හෙළා
1998
1945
1942
1949
රැසවන
රැසකරගැනමට
මරණයෙ
පනරභවය
පනරපපත
අභයොගාතමක
එංගලනතයට
ඡායාරපයක
අලලා
අලලනන
පතරයා
පතරයට
මළඟ
මළමනන
රොඩ
රොමය
රොමෙෂ
රොපණය
රොබො
වාසට
වභාගයක
වභාගයෙ
සතවලවලන
##වමකන
##olius
සංගතඥයන
පරතලාභයක
පරතලාභදායක
කාණඩයට
පරමාණයය
සනනාමයකට
ගැටලවලට
මටටමවල
මටටමවලට
anderson
අනතරජාලයෙන
30ට
31ක
31ට
ඇරඹය
ඇරඹණ
ඇරඹනෙ
කථන
දෂණයවම
නපදවම
නපදවමට
භෞමක
යටන
යටකර
සතරවන
##චචොලෙ
සහභාගතවය
සහභාගතවයෙන
සහභාගවනනන
සංශොධත
1987
1985
1980
1981
නරමාණකරවන
මහාචාරයවරයෙක
පෞදගලකව
ඇඟවමක
ඇඟලලක
කමනතරණ
කමනතරණයක
භාරත
භාරයට
භාරතය
භකෂනට
සමනත
වනොදයෙන
වනොදජනක
අවබොධයට
ජනපතට
ජනපතගෙන
වටනාකමක
ගොඩක
ගොඩකට
සාමාජකයෙක
ගැටළව
ගැටළවක
සාරථකතවයක
පරමඛසථානය
බනධනාගාරයෙන
806ක
දාහතරක
පඩනයට
බදධක
බදධමත
බදධමය
භමකාවන
භමපරදෙශ
##apeno
මෙවායන
වෙගා
වෙගයෙනම
සංකරණයක
අතරමග
අතරමං
අතරමහණ
1972
1978
නයොගය
වශෙෂඥයො
තොරාගෙන
කෙරෙමන
අංගම
අහමවෙය
ආදරයෙ
ආදරයෙන
පාකසථානය
වෂන
වෂකම
වෂමතා
වතකරයෙ
හතෙ
හතකාම
##ianus
##agn
පරභෙදය
1967
1952
1953
1951
නතඥයෙක
සැකකරවක
අධයාපනක
බණඩාරනායකගෙ
අගමැතට
ford
අගොලය
ආචාරයවරයක
කමරය
කමපනය
කමපනයට
කමානඩර
කණෂට
කතහල
මදරවන
වාතයෙ
වාතයට
වාතාවරණය
වහාරයක
වහාරාධපත
වහාරසථානයෙ
සවරාලය
##ternal
##ඤඤා
පරණවතාන
එකනෙකන
උපකරණයක
කැඳවා
කැඳවන
අනතරකරයාකාර
කෙරෙනනෙ
අභයාසය
කෙටයෙන
වෙළඳාමෙන
නයටරෙට
පොජජට
ඇතවම
ඇතවමෙ
ඇමතගෙන
ගනදැල
දළඳකම
කොපාය
නොතබන
නොතකා
නොතබම
හැඩය
සයවසවල
සයවසෙද
පහළට
පහළම
ගැටමවලද
සවභාවකව
රැසකන
පරමාණයකට
පරමාණයකන
සංවධානයට
සංවධානවලට
ඉගෙනමෙද
පාඨයෙන
පාඨමාලා
ගණනාවකන
තැබමෙන
මෘදකාංගයක
news
newcomb
arpa
chra
church
maff
ආයරවෙද
ආයොජකයෙක
ඉතරව
කඳර
කඳවර
කඳකරයෙ
චරතාපද
චාරතර
චාරකාව
තහනමට
දායකතවය
බමසර
බමබසාර
බබසයට
යැවය
යැවමට
යැවමෙ
සබැඳය
##avik
පරහෙලකාවක
අධකාරයෙ
අධකාරයට
අධකරණයෙද
සනධානයක
සනධානයට
චනදරගරහණය
ළඟාකරගත
ගොඩනැගලලක
පරවැසයන
ශරෙණයෙ
සපාඤඤයෙ
prc
prot
presl
උපතන
උපතෙද
ගවනතොට
ගවනවදල
තතවයට
පැනව
පැනසල
බොරතෙල
බාධක
බාධාවක
මගධ
මදමට
මදලන
ලඟා
කරතනය
කරතමත
පැදයක
තරණයකට
වරෂයෙද
වරණයෙන
වරණාවල
ශරරයෙන
සදධයෙ
දෙවඟන
අවදාන
උපදෙශකයන
කරයාමාරගයකට
රැසවමට
කෘෂකරමය
අනරාධපරය
ගනදෙනකරවනට
240
241ක
langu
ඇගයමෙ
ඝනතවය
ඝනතවයන
ජරමාන
ජලාශයෙ
දමනාවක
දනනෙම
නළවෙක
භටයනගෙ
##රනහයට
##රසයො
##abh
##ocurr
##ොයඩ
පරජාවට
පරජාවනට
පරගතශල
වැලසර
වැලැකවම
සංසථාවට
අතරදනවම
පැටටට
ජනගහ
1927
1922
1929
වයාපතයක
වයාපතයත
තෙලදෙණය
වචලයයෙ
තාකෂණයට
වශවවදයාලයෙ
නොවැමබරයෙද
28ක
trench
trilog
unrev
ආධාරයෙන
ආධාරකරවන
ඇඳර
කෑවා
කෑමෙන
ගවෙෂකයන
පවරනන
පවරවක
පලපන
පලපනයෙ
මොරා
මොරන
මොරෙල
මොරටව
මොරගහ
රචකයෙක
රචඩස
රකෂතයෙ
ලපයෙ
ලපයෙන
සෑදෙන
සෑදෙ
සෑහමකට
සසදර
සසඳන
සසඳා
සසඳනන
හංස
##සපොරාව
##tten
##ksort
වනසරවරයා
වනසරවරයක
එකතවක
සථාවරව
කැලර
කැලවන
කැලසයම
සරසවයක
රැඳසටන
රැඳවයන
රැඳවයනගෙ
පරවෘතතයක
මාංශපෙශ
කසලානයට
හඳනවාදම
දොෂාභ
කපපාදවට
බංගලාදෙශයත
බොලගොඩය
290
230
41ක
414
ඇසළ
කපාගත
ගතවට
මඟහැර
ශබදවලට
පරචයන
පරයොජනවතය
කරමානතයෙ
වෙනසකමවලට
අවධාරනය
මනසාට
පටතකර
මරාගෙන
උතසනන
නායකයෙකගෙ
වනාශයට
වළකනන
calif
තාරා
තාරකාව
තාරකාවන
පැකෙ
පැකාරඩ
බෙලරස
මංගලලය
වජයදාස
ශලපයෙක
සොරාගත
ළමයෙක
ළමයනගෙන
ළමාවයෙ
##ැදදක
පරාගධනය
පරශනයට
අනපළවෙලන
අනපළවෙලට
පළවෙල
පළවෙලන
පළවෙලට
නොලැ
නොලබන
1937
1934
1933
නැරඹම
නැරඹමෙ
දරකථනය
කැමැතතක
යොජනාවක
අයදමකරවනට
ජයවරධනපර
කෞතක
අවසථාවනට
අවසථාවනහ
නවසලනතයෙ
වැළැකවය
නාඬන
සකනධයෙ
සමභාවතාවන
450
class
redh
sheets
ගාලක
දායාද
දහයක
දඩයක
දඩවම
දඩයම
දොරන
දසනක
ධරමසර
පාවාදන
බාරව
බාරයෙ
බාරයට
මඩලලක
මනාපයන
යරොපයෙ
වමකතය
සවනදම
හතරකට
##ific
##ifolius
##ealth
##ෂාකාර
##raft
##ques
indian
සංසරණය
පළබදව
එකඟවය
එකඟතාවකට
වරදකර
වැඩපළවෙළ
ජනරජ
අධරධර
මහාවංශ
නයෂටයෙ
වශෙෂාංගය
වශෙෂාංගයට
වශෙෂාංගවල
සනදරභය
ඉතාලයාන
##ector
අපෙකෂකතවය
සමමානයෙන
සළඟක
පරකෂණයකන
පෘථව
ext
external
අතතක
අතතයෙ
අතතනායක
ඔකතොමබර
කතාවෙන
තයෙනවා
තාපාංක
පාදයෙ
පතතල
පඩනයක
පඩනයකන
බලලා
යගයක
යගයට
යගයෙද
යගයකට
රංගර
රංගනය
හනජා
##imited
##ucational
සමමෙලනයෙ
පරවරාජ
පරවරථනය
වනානතරයෙන
සංචතයක
හැරමෙන
නැගමෙ
කටයතවලට
කටයතතක
බැරකම
සවභාවයක
පටවහල
සොලහයම
ගණාංගයක
ගණාංගවල
දැරයකට
බලපානවා
පරකාශකවරයා
රටකජ
##ency
අලංකාරය
ගෙමබන
සැකසමෙන
පැවසවෙම
උදවවෙන
ලකෂයයක
ලකෂයයෙ
වෂබජහරණය
දෂකරතා
ෆරැනසයම
ෆරැනචය
ෆරැනසයස
උදයානයක
පාරශවයය
guitar
male
malign
malone
touch
අවාසයක
උරමයෙ
ගායනා
ගායනයෙද
චොලනද
ජාවා
බෙදම
බෙදයකන
භාගයෙ
මායමක
මොහොත
මංගලාවතරණය
රධරයෙ
ශාසන
ශලපයක
##ලසරය
##advent
පරයොජනයට
සහයොගයෙන
වසංගතයට
ඇතලතව
වනොදයානයෙ
කොටටයක
තරගමාලාව
පදනමෙ
සදකරමෙ
මලධරමයෙ
දෙහයක
දෙහයෙ
දෙහයෙන
උපොසථයට
උපොසථාගාරය
අමදරවයයනගෙන
මැය19
නැංවම
සරතානතය
ගැලපම
ගැලපණ
බැඳය
අනතරගතයක
වමසමවලට
පරවණතාවක
පරවණයනගෙ
මාළවෙක
මාළගාව
රොහලෙන
රොහලවලට
කාරයාලවලන
සෘජවම
සෘජකොණ
අභයාසයක
පරශලකයනට
නරවදයතාව
නරොධායනය
07ක
assist
italian
selene
එවවත
ඔසටරෙලයාව
ඛනජතෙල
ඩයසපොරාව
තනදව
පයනෙ
පපරමකන
බැකප
බැකො
යරෙනස
යරෙනයම
යාපනයෙ
යාපනයෙද
රවහාර
රවනදර
රහණට
ලොරනස
ශකරාණ
සරමාර
සරමවලට
සරමාවො
සසවෙකට
ෆයල
ෆයබර
##ඳරෙ
සමහයෙ
වනශචයකාර
පැරණතම
වැඩමහල
අවශොෂණය
අවධානම
අවධානයක
ලැවොනටෙ
දරවලතා
බලපානන
පෙරළයක
ගරහයාට
ගරහණයට
කෙළනම
මහාධකරණ
කරඩකයාට
ලාභයක
ලාභදාය
යමෙකට
යමෙකගෙ
පැතරමපත
ඇමෙරකාව
ඇමෙරකාන
ලෙඛකයන
ලෙඛනයෙන
වෙදකාගත
පනරාවරතනය
දෘශයමය
සංකෙතයක
සංකෙතනය
එකනෙකාගෙන
සමාරටෆොන
ඩොමනයන
5000
6500
6540
conver
ferrari
grav
greys
great
gregor
most
moore
moons
myst
netflix
අටවන
අටවකහ
අළයම
ආනයනය
එළඹම
කනදහාර
චකතස
ජාඇල
තවරා
තවරතාවය
දහසයක
නටාපො
පෑද
පමණය
පහනම
පහනමන
මංසනධයෙ
මධයතන
මයකරොගරෑම
මහරගම
මහරකන
මශරණය
මශරණයට
රොමාන
වයනා
වලකන
වගනෙෂවරන
වාහනය
හෂස
ෆොසල
ෆොමයලා
ෆැසසටවාදන
##කෙරෙන
##ains
##aining
සමළවට
පරචාරයනට
වරජනයක
වරජනවලට
වටටොරවක
වටටොරවට
සරදාර
සරදඬවමක
සරදඞවමක
සවදෙශකයක
##ාගැනම
දැරයගෙ
කහපදෙනෙකගෙ
කෙතකරණය
වරොධතාකරවන
වෙළඳපොලක
මහජනතාවට
මහජනතාවගෙන
අගමැතවරයා
දශකයෙද
දශකයකට
යටතවජ
වෙගවතම
පෘෂඨයෙ
සංකලපයන
සැසඳමෙ
හංගෙරයාව
පරොටොකොලය
උතසවයකද
නොලැබෙ
නොලැබෙන
චොදනාව
කෞතකාගාර
නතවරොධව
ipod
iphone
matter
sparks
අවනහල
ආදෙශක
කෑමවලන
කපයකට
ගලකසස
චමභක
ජෙෆර
ටයගර
ටයලර
ටරැක
ධෛරයයෙ
බෑවම
බෙනට
මණගැ
මොහගෙ
ශතකයක
ශතකාල
සදාක
##ෘතවලන
##ොංනම
පරපරක
පරපරණ
සහලවල
සහොදරයා
වැරැදදක
සංරකෂත
අනපාතකය
වරධනයක
පදමයට
පදංචකරවන
සදසකමද
දෙමාප
වෙනසකමක
සැඟවමට
මහතමයගෙ
මැඩපැ
නයැදම
යොදවන
ආරාධනා
ආරාධනාවක
වමලවර
##ordispor
තනතවෙහ
තෙඳනානෙ
ගරහලොකයෙ
ගරහලොකයය
සාගරයෙ
වරොධතාවයෙ
කෙනදරයෙද
commun
comments
photography
photoey
photoshop
කථානායකවරයාගෙ
දශමයට
ඇනඩරොමඩා
පරාවදයාඥයන
අධයකෂකවරයක
යථාරථයක
වපලවවාද
ශරෙෂඨාධකරණයට
තයාගශල
ශාසතරපත
එජාපයෙ
472
book
escort
ici
icc
romagna
superg
superson
your
yout
අගරදගර
ඉමාම
ඉමපරයල
ඉවසමෙන
කැකළ
කමරන
කනටෙනරයක
ගලයෆො
ගසාගෙන
ගසාපො
චරයාවක
චරයාවන
ඡෙදයක
ඡෙදයෙ
ජවතවමෙ
ඩරබන
ඩරබරයන
තොටපල
තොටපළෙ
ධමමක
ධමමනද
නායය
පංත
පලලෙයාන
බෲස
බෙසමන
බොමබයක
යහළවන
රතරං
ලහොර
ලහබැඳම
වභෙදන
වොලස
##ization
##ොලනාතමක
insertion
පරභවයන
පළබොධකයන
පැණරස
තරථකයන
නොපැහැදල
නොගැලපෙ
ශරලනප
ශරලනපයෙ
දෙයයො
පසළොසවක
##ොගරැෆ
දකනඩය
අතබොමබයක
ලැබනෙ
හැදනවය
අපදරවයය
නැළැවෙනනෙ
පෙමවතය
##ange
නයජරයාන
නයජරයාව
නයැදයෙ
බරනවා
##arakhand
නරමාතෘවරය
කාකෂකයට
අභයාරාමය
ගැටමකාර
මධයසථානයට
පරමාදවම
1775
1787
නෞකාවෙ
එළමහනෙ
කනසසලල
ගමමානයක
පෞරෂ
කානදවන
කානදවක
කතලගල
අවසථාවලද
පණවඩය
බළලනට
හයඩරජනහ
අනපළවෙලෙහ
කලපනාකාරව
උදඝොෂණයෙ
කැලෆොනයාව
සොහොනකොත
පරතසංසකරණය
32bwh
300ක
57වන
astle
balkw
devoted
develop
learn
play
smart
අදයර
ආනධර
ආතතයක
ආතමයෙ
ආවෙගයන
ඇවදම
ඇණවම
ඈතට
උරෙෂා
උචචාවච
ඒජනතවරයක
ඔටවන
කවරදාටත
කාවයමය
ඛණජමය
ගාථ
ගවසමට
ගංගාරාම
ජමාත
ජමාද
ජනාකරණ
ජනානනද
ඥානසාර
තාමත
නකායෙ
නවයොරක
නනදක
පකසථාන
පඨයෙ
බඩලකඹර
මතවෙය
මැකම
රශමය
රබොක
රබඋල
රාමසාන
වචාරකයන
සැනසලදායක
සෙරකකලය
හාරනන
##iewed
##තැනන
##ඥාණය
##147°
කරසතවරෂ
කරසතයාන
කරලලෙක
පරපපාඩ
සහදපර
මෙජරවරනගෙ
පළගැනමකට
පැසෆක
පැළෑට
කොබවක
කොලලකා
නොයෙකත
දෙවසථාන
සෙමපරතශයාව
සෙබළන
අතලසර
මැදරගරය
දරශකය
දරශකයෙ
ගොණල
ගොලයකරණය
ගණතලක
අනවාරයයෙනම
තෙතබම
කලදැමමෙ
ගරලකරසට
ගරැෆක
ගරැෆකස
වගාවනහද
පරාථමකය
පරාථමකව
කරඩාංගණයෙද
නෙපාලයෙ
සෙනසරාදා
වැළඳගැනමක
1503
වයවසථාදායකය
##ological
මදාහරන
සෘතවෙහ
දාහකවලන
format
දෘෂටකො
වඳදරාගැනම
ධරැව
ධරැවය
articles
දෙවානමපයතසස
translations
ගබඩාවක
අබෙසෙකර
තවකකවක
මනොවශලෙෂණ
මනොවශලෙෂණාතමක
කෙළවරෙ
චකතසකයා
මධෂගෙ
චතතවෙගය
වලාකළගෙ
ඇෆගනසථානය
තෑගගක
සොහොයර
පරතවරදධව
කොරොනාවෛරස
කොරොනාවෛරසය
මාලදවයනෙ
341
43කට
53147°
diagn
durand
educational
fuze
fleming
gaeta
home
jalapeno
khalid
klobus
months
milne
misadvent
michel
releas
sauber
usp
url
virus
wild
අගතයක
ආරයයන
ඉඳගොලලෙ
උදධෘත
එපමණක
ඔරලයනස
ඔසටරයා
කංජපාන
කංචන
චංචොංනම
චපපගෙ
ජෙමස
ටැගලයන
ටෙකනකල
ටයටැනක
ටරමපගෙ
නාටයය
පෙෂපොෂණ
භයානක
භෙදයකන
මාධයකරවන
මයයය
මාවතෙ
ලෙයබග
වඥඥාණය
ශශනයක
සසලනය
සබරගමව
සපනදන
හැනබොක
ෆලොර
ෆැනටස
කරකොක
පරමනගෙ
සහමලනම
සහයකවරනගෙ
සහසරකයෙ
වෙදනාව
සංහයා
සංචතවල
සංගණනයට
සංවරධකයන
##පතයයෙන
අනකමපා
කොකලයො
කොහෙද
සටරොබෙර
තරවකම
වරනවර
සදධානත
වැඩමළවක
සැළක
සැරසෙය
අවපාතය
20ය20
හෙලකොප
මහයංගණය
නැටනා
දරනනාගෙ
රාජවංශයෙ
ගතතාය
වලාසතා
සරැකමෙ
සරසතලයක
කොටඨාසය
ගැලවමක
බරසලයෙ
දැමණෙ
රැළයට
කාළගණ
වැදදනගෙ
පනකඩතව
අභබවා
අභාවපරාපත
පොලසපතවරයාට
වෙළඳපොළට
කවආරපඩයා
වකලපයක
වෙබඅඩව
කරණාටක
රාශයකන
කෂරපථය
2521
තදසවකහ
ලයනනෙම
බාහරතාවයකද
compos
කමපනයෙන
සාධාරණ
සංකෙතවත
තෙරපමෙන
යහපැවැතම
clarke
වයටනාමයෙ
කලනොචචය
මෑතකද
සංසදධන
හැදෑරමට
අරධදවපයෙ
යටතවජතයක
machine
යොගයතාවයක
උනඋන
චාලසටනහ
පෙමවතයට
illustrator
subcordispor
චානසලර
focaccia
ඇසතමෙනත
ඉතයොපයාව
ඊශරායලය
ඔරොතතදමෙ
තටාකයෙ
යකරෙනය
යදාධකරණයෙ
සබසාධන
හැඩගසවාගත
4√12
565ක
5106
862
acanthaceae
alex
auto
bmw
bubbles
cavalier
doom
disord
david
flora
fossil
gdp
html
history
habsbur
ieee
john
kevin
kombat
links
leco
ltte
mergesort
nitrog
nasut
nova
point
priv
raspberries
reykj
rosso
squad
sketch
taqwim
toro
tribes
uttarakhand
ullman
vauxhall
written
windows
warcraft
අකෂර
අසතටට
අෂටක
අටලගම
ආධපතයයෙන
ආගනතක
ආනදොලනාතමක
ආභාෂය
ඇසටරාසෙනෙකා
ඇබෑරත
ඇදගනනාස
ඇඩඩාස
ඉහලන
ඉරයව
ඉගැනවමට
ඉමරාන
ඊලඟ
ඊජපතව
එකරැස
එමනසා
එතකොට
එවැනනක
ඔපටක
ඕමාරගෙ
කයටස
කපරක
කලයමෙට
කඹරපටය
කෙහෙළය
කාදනල
ඛෙදවා
ගටාර
ගගරම
ගචචන
ගාරඩයන
ඝොෂාකාර
චරමඡ
චොකලට
චනදම
ජැමෙයක
ජාරඨයය
ජයාමතක
ජකරතා
ජවමාන
ජොකොවච
ජලනල
ජරාෆ
ජැෆනා
ඩෙරෙක
තතතනාගම
දශලකෂ
නතාෂා
නධානයක
නවලනඩස
නාහම
නාතතණඩය
පයයර
බබසය
බගමාරා
බසමාරක
බාහරම
භමතෙල
මහසෙන
මරයබැදද
මාකඳරෙ
මංකොලලක
මකනසාද
මාවනැලලෙ
යවනනා
රෆායෙල
රයාජ
රවකන
රකසඩග
රඹකවැලල
ලයකයවල
ලතයර
ලාහොර
ලෑනසොල
වොෂනට
වංගව
වඑසජ
ශෘංගාර
ෂලටසගෙන
සණස
සකාරබරො
හසකෙස
ළඳකට
ෆැරනහයට
ෆරයඩ
ෆලෙමන
ෆරොයඩ
ෆයොනා
ෆෙලටමන
##ibi
##afe
##ැඟලල
##hou
##draw
##cript
##ʰɑi
කරෙමලනයෙ
සමදායන
සමරකොන
පරමැදම
පරාතමො
පරරාජසංහම
සහයොගතාව
වැලලවාය
සංවෙගයට
අනාවරණ
පළපරදද
පළඳනාවක
පැෆරල
කොමරෂල
කොරාටත
කොතතමලල
හොමාගම
හොවාරඩ
වරණකලසරය
වරපරසාද
නොසලකා
නොරොචචොලෙ
නොකෙරෙ
බලොබෆෂ
වයතපනන
දෙපලගෙ
දෙඅංශයෙනම
පසදෙනක
පසතොලයක
සෙංකඩගල
සැබැවනම
සැබවනම
අධෂඨානය
අධවෘදධය
පරතෂඨාපනය
මැගනසයම
මැසසෙකගෙ
මැඩලමට
මැරලබොන
නැමැත
මනමැරම
ගොලාකාර
අවසසාවෙලල
පෙණහලවලන
හමපාණන
සයඹලාපටය
රාජකරණා
වලැදමර
වැනදඹවකගෙ
සරකඳවර
මතොටමලල
quicksort
පටකොටව
කරයාමාරගය
කරයාකලාපය
නවොතපාදනයන
මාරගොප
බලපැවැතවෙන
භාෂණයෙ
නෂකාසනය
ආසදනයවම
පනජාබ
සනොපෙක
කෙමබරජ
වගකවයතතනට
මහාදවප
තමලනාඩ
ලාංඡනය
ලාබාලතම
therapy
සපරසොනකස
පරමලොචා
කෂරපායන
ගලොකොමා
සමානපාතක
කනකසනතරය
cryptocurr
බොංහවං
අතරමහණත
chraibi
maffei
ගවනතොටපළ
වරණාවලකෂය
language
trilogy
unreviewed
මොරගහහෙන
දොෂාභයොග
california
තාපාංකය
ෆරැනචයස
maligned
මැය1952
සෘජකොණාස
assistant
65407°
converter
gregorian
moonsighting
photoeye
superglobal
supersonics
ගලයෆොසෙට
insertionsort
balkwill
development
learning
misadventures
released
subcordispora
bubblesort
habsburg
nitrogen
reykjavik
ඇදගනනාසළ
මංකොලලකෑම
වොෂනටන
cryptocurrency
0ක
1ට
1st
1වෙන
2d
2කට
36
3කට
365
34ක
42
48
400
420
5k
51
58
5කට
50ක
520
597
585
63
68
6වන
60ක
64ක
686
76
74
73
7වන
7කන
700
74ක
745
785
7000
798
85
82
89
8වන
8wh
8bwh
95
94
9වන
982
aa
ay
ax
a²
ari
are
ake
all
apr
aero
apol
aaron
bh
b1
b²
bus
bet
bel
bri
bec
bam
bas
bol
bab
bra
buc
box
bill
ball
bae
barc
b32
bark
brev
baron
brea
cn
cs
ct
cel
cri
chin
cur
cle
cap
cog
card
cop
cir
cup
canc
cando
cities
ds
dʒ
dan
dil
del
dem
dol
dap
dog
div
dub
dow
dee
dich
denn
drew
et
ey
eb
ew
ele
ech
ever
fa
fon
fat
fus
fam
fem
fol
ful
fut
feb
fff
fir
five
f40
gt
gl
get
gun
glo
gum
god
gif
gang
gily
game
garn
hh
hr
ho
hin
hen
his
ham
has
hay
hap
hiv
hav
hard
heb
hass
hlc
health
ir
iv
ich
iup
iuc
iron
ja
jc
jac
jun
jul
jab
jord
jack
jhav
jerr
kl
kan
ker
kar
kat
kur
key
kobe
kore
kenn
kunt
lu
lo
lat
lis
las
los
lian
lag
liv
loc
leb
lka
lind
lif
luc
lau
link
llc
lula
lpl
lyn
layer
limited
mi
me
ml
mc
man
mic
med
mel
mand
mos
mish
mag
ment
moc
mod
mary
muc
mee
mill
marc
more
ni
nt
n2
nl
nd
nys
not
nor
non
nap
nett
national
now
nint
nanc
nice
nik
nott
nick
od
ox
oඔ
oth
ori
out
pe
pu
pp
pd
pc
py
pb
pot
pen
ped
pur
pul
pia
pop
poc
pad
pack
post
person
pale
penn
portal
qam
ru
ry
ran
rot
rat
rus
res
ris
rec
ros
rol
rav
roc
rox
rich
round
rous
rene
rott
raining
su
sb
sz
sw
san
sac
sil
sit
sur
sap
sav
sum
sign
sound
slc
sess
sector
safe
te
ts
tu
tv
tc
tar
ten
tac
tet
tec
tay
tre
tem
tub
tex
tens
till
tabs
ure
uva
vw
ver
vis
vul
vers
vari
vall
vice
vide
vinc
wa
wr
win
war
wel
way
want
wee
will
wall
xb
xer
xara
yn
ye
yu
yan
yel
yum
yiz
yara
yash
zac
µm
ʋə
تق
قم
هج
අඹ
අච
අවර
අපත
අදර
අගල
අකට
අසා
අතවර
අටට
අජන
අහාර
අලප
අඳන
අසව
අශර
අකරන
අකරය
අබද
අඹර
අලාභ
අචච
අසලම
අවාසන
අවතැන
අටටය
අඳනන
ආට
ආම
ආභ
ආඩ
ආඥ
ආච
ආඬ
ආවර
ආපත
ආගර
ආවාස
ආවෙය
ආබා
ආයාම
ආණම
ආසටල
ආයෙත
ආවාට
ඇහ
ඇතර
ඇකර
ඇවන
ඇලල
ඇකට
ඇමණ
ඇයය
ඇනට
ඇෂට
ඇසටන
ඇලලට
ඇනටෙන
ඇකරමන
ඇතවෙමන
ඇදරන
ඈන
ඈලල
ඈතන
ඉව
ඉෂ
ඉළ
ඉච
ඉඞ
ඉසක
ඉංශ
ඉතන
ඉලප
ඉපද
ඉපන
ඉකව
ඉදව
ඉදක
ඉවසම
ඉඳනම
ඉබෙර
ඉචචට
ඉපැය
ඉබෙ
ඊය
ඊස
ඊන
ඊටත
ඊයම
ඊසාන
උක
උයන
උගෙ
උනා
උදර
උගල
උගෙන
උසන
උගන
උතම
උසම
උරද
උචත
උවමන
උයනන
උඩස
උදරය
උසකන
ඍජ
ඍතවෙ
එට
එවන
එහා
එමට
එදර
එජන
එනනා
එජා
එවමන
එපටන
එදරව
එපරද
එගොඩෙත
ඒය
ඒම
ඒකර
ඒමෙ
ඒබර
ඒකය
ඒඑස
ඒගොලල
ඔස
ඔල
ඔඩ
ඔනන
ඔටර
ඔරස
ඔපස
ඔරල
ඕර
ඕරම
ඕසට
ඕනද
ඕනෙ
ඕසටර
ඕලඩ
ඕලනද
ඕසොන
කද
කජ
කශ
කඹ
කාව
කනන
කාත
කපත
කදර
කාය
කතවර
කෙහ
කඳන
කාවන
කදම
කසව
කකස
කවෙය
කතාවය
කලලය
කබොල
කතවරයාගෙ
කඹක
කවතාන
කතවරයක
ඛෙ
ඛාදනය
ගව
ගාර
ගයක
ගයන
ගනා
ගරම
ගොර
ගමෙ
ගසන
ගලන
ගෙය
ගඩා
ගනම
ගෑම
ගමය
ගලෙ
ගලප
ගයනත
ගළණ
ගවරස
ඝටට
ඝණක
චක
චෙ
චද
චප
චෛ
චනන
චයන
චවර
චාම
චමත
චලන
චලා
චාප
චකම
චලප
චමර
චැල
චපස
චලත
චරයාව
චලව
චමනද
චාජර
ඡව
ඡාව
ඡවත
ජැක
ජවය
ජමෙ
ජොහ
ජලෙ
ජබර
ජරස
ජෙල
ජපන
ජබල
ජාවර
ජසටන
ජරණය
ජැනස
ඥා
ඥාත
ටව
ටො
ටෙන
ටවට
ටරක
ටරයක
ටකාවක
ටෙප
ටරන
ටරව
ටැබ
ටරයෙ
ටෙනස
ටැනස
ටයමස
ටරසයො
ඩස
ඩම
ඩශ
ඩබ
ඩයා
ඩෙක
ඩවල
ඩකා
ඩංග
ඩගල
ඩොග
ඩසල
ඩකන
ඩෙල
ඩකල
ඩංගල
ඩලඩ
ඩරොන
ඩආර
ඩබාය
තෘ
තනන
තාත
තැක
තනා
තපත
තදර
තංග
තානය
තලා
තටට
තලෙ
තොල
තහළ
තකෂණ
තලයෙ
තතවයෙන
තානතර
තාලා
තයනන
තවරණ
තොලෙ
තකකම
ථප
දයක
දහත
දයන
දපය
දවත
දමක
දෙර
දමත
දවට
දොන
දවෙන
දසම
දසල
දංක
දලප
දබර
දළඹ
දසස
දබල
දයෙහ
දෂට
දාලා
දමෙද
දාතම
දංගො
ධජ
ධාත
ධවල
ධකා
ධමන
ධරය
ධමම
ධාරක
නක
නග
නඛ
නබ
නඹ
නතව
නහත
නයන
නැන
නකර
නගෙ
නෙර
නහර
නලන
නටට
නහාර
නාග
නකම
නටත
නලනත
නාවර
නයනට
නවරද
නඟන
නටන
නකණ
නගමන
නෙරා
නෘතය
නාලක
නකද
නපණ
නපරද
නකමෙන
නැනස
නපැය
නෙකසට
නවලොක
පථ
පබ
පඟ
පයක
පනය
පණය
පයට
පණඩ
පාය
පමා
පාග
පලම
පලයෙ
පවාහන
පයනට
පජා
පජත
පයාගෙ
පාවෙන
පපප
පාදය
පෑමට
පඳර
පපරම
පබළ
පපම
පපණ
පයතන
පචචට
බග
බෂ
බං
බච
බාව
බයක
බවා
බමක
බකෂ
බාද
බමන
බසය
බහස
බාස
බගන
බොන
බසට
බෙහ
බකන
බසස
බොද
බඳම
බජා
බොස
බතතය
බලලට
බංකර
බකසන
බතතල
භක
භග
භත
භනන
භමක
භොග
භගය
භෂණ
භකෂණය
භතයක
භොජනා
භොජන
භවයට
මෂ
මඛ
මජ
මෘ
මවන
මතා
මාම
මසන
මමා
මගර
මෘත
මමය
මොල
මොට
මකරන
මනනා
මසකම
මවමන
මතවාද
මණන
මතවන
මසකට
මලලා
මවනවා
මාජර
ඹෟ
යෑ
යෂ
යං
යකෂ
යවය
යොර
යදන
යටට
යතක
යකෂණ
යෙල
යකෂණය
යකල
යවනන
යෞ
යලත
යවළ
යබොර
යඑන
යෑමෙන
යවනනැය
රෑ
රෙන
රනන
රයක
රැන
රෙස
රවල
රණඩ
රතය
රවය
රමෙන
රාස
රොක
රාප
රනද
රපයක
රකන
රබර
රොල
රසව
රයො
රකඩ
රමළ
රබාන
රසයාවෙ
රහසය
රයාද
රමෙෂ
රදෙව
රකමාල
ලට
ලම
ලාන
ලකර
ලාල
ලවල
ලවය
ලොන
ලසට
ලොල
ලයෙහ
ලයම
ලසයාන
ලොස
ලොඩ
ලගා
ලතතන
ලවණ
ලසොන
ලාවා
ලකමාල
වං
වථ
වයෙන
වැක
වාල
වදර
වාද
වලල
වාම
වහන
වවක
වධාන
වාග
වයෙද
වඩන
වොට
වවාද
වධානය
වථය
වවරතනය
වඛණඩ
වමකන
වොය
වජර
වදරය
වලයම
වපරම
වපාක
වාදන
වයෙහද
වතතෙගම
වඳනට
ශහ
ශව
ශන
ශභ
ශඝ
ශාව
ශනය
ශෙෂ
ශාප
ශානක
ශනයය
ෂක
ෂර
ෂවර
ෂෙක
ෂාම
ෂටර
ෂාට
ෂමම
ෂෙයාර
ෂැනන
සජ
සධ
සෛ
සයක
සයෙ
සයන
සාල
සවත
සසක
සගම
සවට
සාරය
සලා
සවධ
සලප
සශර
සපට
සපද
සතරක
සබැ
සසමක
සයාගෙ
සබොධ
සසං
සකොට
සොරක
සෆර
සගමන
සචන
සචල
සොකො
සබැඳම
සෙකසට
හඩ
හජ
හබ
හඊ
හාව
හයක
හයන
හනා
හතා
හදා
හාම
හාය
හයත
හසන
හගන
හමා
හතක
හකම
හයය
හලම
හසමක
හලට
හෑන
හජර
හසාරස
හතවාදන
හතවන
හරමන
ළය
ළං
ළමය
ළමාර
ෆද
ෆවල
ෆලප
ෆොට
ෆෙසට
ෆහාඩ
ෆෙයාර
ෆරමස
ෙචල
바
와
햐
−1
🇦🇷
🇦🇫
🇦🇱
🇧🇷
🇧🇪
🇧🇩
🇧🇬
🇨🇿
🇨🇳
🇨🇦
🇩🇪
🇩🇿
🇩🇴
🇩🇰
🇬🇷
🇭🇷
🇭🇺
🇮🇷
🇮🇹
🇮🇶
🇮🇩
🇮🇳
🇮🇫
🇮🇸
🇯🇲
🇯🇵
🇰🇪
🇲🇽
🇳🇬
🇳🇱
🇵🇹
🇵🇰
🇵🇭
🇵🇱
🌳🌲
##යද
##යං
##යප
##යතය
##යාවක
##යොහ
##යගො
##යඩර
##යලස
##යතතක
##යරට
##කප
##කණය
##කකා
##කොර
##කමත
##කලක
##කවෙන
##කෙහ
##කමය
##කයය
##කලම
##කකල
##කතවයක
##කොව
##කයාට
##කමකට
##කමකන
##කොඩ
##කතවයට
##කඳා
##කවරයෙකට
##කැටය
##කතාවලට
##ෙෆ
##ෙයන
##ෙයා
##ෙමක
##ෙහස
##ෙවම
##ෙලා
##ෙටර
##ෙඩන
##ෙඟන
##ෙවරධන
##ෙතවාද
##ෙලලා
##ෙෆො
##ෙරමය
##ාඩ
##ාශ
##ායෙ
##ාබන
##ාහන
##ාසක
##ාගම
##ාගන
##ාටම
##ාශර
##ාකරන
##ාබාධ
##ාශරය
##ාකෂය
##ටැක
##ටවත
##ටෙස
##ටවෙ
##ටොග
##ටගම
##ටාස
##ටනට
##ටනගෙ
##ටරයාව
##ටෙරා
##ෑව
##ෑල
##ෑරම
##ෑවක
##ෑරා
##ෑටය
##ෑමකන
##ෑහෙන
##සඳ
##සද
##සභ
##සඩ
##සනා
##සෙර
##සගත
##සමෙන
##සලක
##සාස
##සමා
##සාතමක
##සයකට
##සයෙහ
##සයනගෙ
##සභා
##සකරවෙක
##සයනගෙන
##සෆලඩ
##සෆො
##සණාය
##සෙසන
##සාමයක
##මස
##මල
##මජ
##මයෙන
##මාල
##මපත
##මයට
##මලල
##මාවක
##මොන
##මගරාම
##මපොසට
##මපෙ
##මපාව
##මාදයෙ
##හනන
##හාන
##හවා
##හමක
##හවස
##හපත
##හලය
##හදන
##හෙය
##හමා
##හටම
##හොල
##හදව
##හටය
##හොය
##හංස
##හෙනනෙ
##හවතත
##හතවන
##හතවම
##හකලපත
##වච
##වතර
##වවත
##වදන
##වකට
##වගය
##වාවෙ
##වහාර
##වකරම
##වහනය
##වගණ
##වමකට
##වපක
##වොප
##වොය
##වපයන
##වකාස
##වෙරය
##ගග
##ගඟ
##ගයෙන
##ගනය
##ගනා
##ගාද
##ගලල
##ගහන
##ගොග
##ගනනෙ
##ගොන
##ගසට
##ගසව
##ගයෙහ
##ගැල
##ගහම
##ගතතෙ
##ගාට
##ගතවෙ
##ගතතෙගම
##ගාලය
##ගවාවෙ
##ඳය
##ඳණ
##ඳනා
##ඳයකට
##ii
##ij
##ith
##iet
##iam
##iand
##ire
##iol
##ient
##iev
##iov
##iens
##iatus
##ique
##iques
##ny
##nel
##nit
##ners
##nett
##ep
##eɾ
##est
##een
##eam
##eem
##einf
##ept
##eerr
##ලාත
##ලංග
##ලෙර
##ලගම
##ලොහ
##ලයකන
##ලවඩ
##ලවමෙ
##ලයෙකගෙ
##ලවනත
##නවල
##නදර
##නොක
##නශය
##නගර
##නවලට
##නෙම
##නවෙදන
##නාවෙන
##නඩර
##නහද
##නදරය
##නතයට
##නවමකට
##ෂම
##ෂධ
##ෂයෙ
##ෂලය
##ෂයෙක
##ෂයය
##ෂතයන
##ෂෙනඩ
##ණෙ
##ණව
##ණද
##ණමක
##ණජය
##ණහොත
##ණාවය
##ණොතල
##දප
##දයෙ
##දමක
##දෙස
##දමන
##දොර
##දගම
##දහස
##දලා
##දකය
##දසස
##දයනට
##දෙරණ
##දනනට
##දකවමන
##භයක
##භගෙ
##භගත
##භාය
##භභව
##භොජන
##තථ
##තතව
##තයා
##තැන
##තමට
##තතා
##තලය
##තලා
##තනයට
##තසං
##තෘපත
##තඩව
##තපම
##තැනක
##තලලන
##ඛනමතත
##ඩො
##ඩොර
##ඩවක
##ඩොක
##ඩොල
##ඩංගවට
##ඩනට
##ඩරස
##ඩපා
##ඩයො
##ඩනයට
##ඩටා
##ඩෆලඩ
##ඩෙනයම
##ංඅ
##ංසන
##ංසල
##ංඛය
##ංහැම
##ංඩංගවට
##රජ
##රයන
##රගෙ
##රසන
##රෙෂ
##රහස
##රවට
##රකරණය
##රණයක
##රපන
##රසායන
##රවමෙ
##රගාම
##රැලල
##රාවල
##රෙටර
##ථර
##ථකාර
##ථදසස
##ma
##mg
##ms
##mu
##mon
##mus
##mel
##mit
##mos
##map
##mind
##mill
##maj
##mons
##ments
##ail
##ais
##ael
##aka
##aks
##aqu
##ge
##gg
##gh
##gr
##ger
##gin
##gets
##su
##sion
##sch
##sian
##sighting
##ැව
##ැණ
##ැප
##ැවල
##ැතය
##ැවය
##ැවට
##ැසස
##ැවණ
##ැහැම
##ැවැතම
##ැඩයම
##පනන
##පවා
##පවල
##පොර
##පහර
##පලක
##පෙය
##පසට
##පොහ
##පදම
##පතරය
##පෙම
##පෙත
##පජය
##පදායක
##පාවල
##පහක
##ජක
##ජල
##ජඹ
##ජො
##ජනන
##ජාල
##ජමක
##ජකෂ
##ජයට
##ජයම
##ජජෙ
##ජරයාව
##ජලස
##ෘධ
##ධයක
##ධකාර
##ධාතමක
##ධසථාන
##ධමම
##ධසථානයක
##ධානන
##ha
##hd
##hw
##hat
##ham
##hary
##hman
##ud
##uri
##uber
##uary
##uque
##uip
##ueerr
##uha
##rot
##ral
##ric
##rus
##ris
##ret
##ring
##ricinfo
##rum
##rical
##rames
##rame
##rations
##rick
##roso
##ruary
##7ක
##74
##7වන
##6ද
##67
##5ක
##5ද
##55
##53
##51
##vin
##vic
##vසව
##vation
##vol
##vind
##viflorus
##ශක
##ශව
##ශයෙන
##ශාල
##ශයට
##ශතය
##ශවය
##ශලය
##ශානත
##ශාලාව
##tp
##tz
##tan
##tus
##tac
##til
##tle
##tre
##tra
##tical
##tive
##tps
##tvසව
##oa
##oo
##oz
##oic
##oen
##out
##oki
##ook
##oensis
##ker
##kin
##kes
##king
##key
##kup
##koff
##kner
##ple
##plor
##pox
##ples
##pass
##pmind
##ls
##lː
##lar
##led
##lit
##land
##los
##lett
##lad
##lain
##lice
##lected
##lio
##long
##laks
##ළට
##ළහ
##ළඳ
##ළන
##ළයන
##ළවා
##ළවන
##ළපත
##ළොත
##ළහට
##ළපෙන
##ළපෙම
##බය
##බව
##බයන
##බමක
##බසත
##බොහ
##බකය
##බොට
##බලනත
##බයම
##බසටර
##බෙත
##බයාවෙ
##බහක
##බලකන
##බභාය
##බඩෙනයම
##බධයක
##ඹෙ
##ඹව
##ඹඔ
##ඹනනෙ
##ඹෙනනෙ
##9ට
##99
##42
##49
##31
##392
##ඟය
##ඟම
##ඟව
##ඟර
##ඟමක
##ෆන
##ෆයා
##ෆොර
##ෆගර
##ෆැසසට
##ෆොගරැෆ
##ඥයක
##ඥපත
##ඥයෙක
##ඥයනට
##ඥයාට
##ඥාණ
##dy
##din
##dic
##den
##dol
##dul
##did
##duc
##datus
##dering
##dgets
##චයක
##චරය
##චොක
##චකයන
##චසෙ
##චකය
##චොද
##චනයෙ
##චලනය
##චතවම
##චෙරය
##චචාරණය
##co
##can
##com
##cel
##cle
##cap
##city
##cans
##conn
##cii
##cuha
##cricinfo
##clos
##cdic
##ya
##yant
##ystem
##ydol
##0ත
##xfer
##bː
##ban
##bot
##bar
##bat
##bic
##bus
##ble
##bid
##bau
##back
##brator
##bino
##bition
##bʰɑi
##blad
##අතර
##අතත
##අතතෙ
##අරඹ
##අනත
##අංඩංගවට
##1ද
##1k
##18
##jor
##jarat
##fig
##fish
##ford
##flow
##frames
##ෛය
##zen
##zki
##zona
##zhou
##zsch
##wor
##wal
##wis
##wev
##wide
##wealth
##weinf
##wlett
##🇪🇹
##ඕෆ
##ඝරය
##ඝසරය
##ඝරයන
##ඓතහාසක
##ඇලල
##ඇඳම
##ඇසෙන
##උතම
##උපක
##یم
##əʋ
##əbː
##ʈel
##ᆼᄅ
##ʰəʋ
##ᆫᄒ
##ᅡᆫ
##ᅡᆷ
##ඒප
##ඒමට
##ඒෂය
##ᆨᄉ
##ඉවර
##ویم
##ොවා
##ොවන
##ොනා
##ොවෙ
##ොවය
##ොලා
##ොටට
##ොසව
##ොඩන
##ොපට
##ොබල
##ොනයට
##ොපස
##ොපනය
##ොෂන
##ොවනගෙ
##ොබට
##ොබැක
##ොගතාව
##ොඒෂය
##ෙනජ
##ෙනමත
##ෙනහර
##ෙනෙය
##ෙනපට
##ෙනටන
##ෙනනනට
##ෙනබැක
##ෙනදයනට
කරද
කරවා
කරදය
කරවය
කරතත
කරාම
කරසය
කරදන
කරවම
කරගන
කරොන
කරතවය
කරසම
කරලම
කරණක
කරවමට
කරඳම
කරොත
කරණයට
කරගනනා
කරටය
කරලලා
කරවෙහ
කරගැනමක
කරගනන
කරවව
කරවොය
කරඇලල
කරොඒෂය
##ාවතර
##ාවයන
##ාවාද
##ාවලට
##තරව
##තරයෙ
##තරමන
##තරාම
##තරසක
##තරමෙන
##තරෙය
##තරගය
##තරැය
##තරථක
##තරවරන
##ාරල
##ාරයෙ
##ාරයෙන
##ාරයන
##ාරණය
##ාරගත
##ාරලය
##ාරවක
##ාරොප
##ාරකයො
##ාරටස
##ාරයනගෙන
##ාරතයට
##ාරලයනස
##ාරගැල
##station
##stre
##sters
##stow
int
inac
inks
invent
inte
incom
සමද
සමයක
සමාස
සමසට
සමභොග
සමරස
සමබදධ
සමගැනමට
සමාරම
සමාවකට
සමබාහ
සමගැනමෙ
සමකයෙද
සමලංග
සමරපන
පරයන
පරමට
පරවත
පරපත
පරෙෂ
පරසට
පරසම
පරසෙ
පරශර
පරොජ
පරතරය
පරකස
පරපන
පරාවර
පරපාල
පරපො
පරධානය
පරාදෙශ
පරගණ
පරලොක
පරශල
පරතවාද
පරපප
පරබා
පරාදය
පරකලප
පරවතය
පරමතක
පරතවාදන
පරෙහම
පරදරශ
පරකරමබාහ
පරකලපනය
පරශයාව
පරනමය
පරකෘත
පරමකොට
පරසනට
පරගමනයට
පරෙමක
පරධානන
පරඥපත
##නනො
##නනගන
##නනටත
##නනනගෙ
instag
##යකද
##යකතව
##යකයා
##යකගෙ
##යකදම
##ාතැන
##ාතවල
##ාතාවට
##ානං
##ානවත
##ානදර
##ානමන
##ානතන
##ානවරයෙක
##ානවතය
##ානයකරණය
##ානසෆො
සහජ
සහසන
සහවට
සහදව
සහජව
සහායෙ
##යෙනද
##තවක
##තවලන
##තවයකන
##තවයෙහ
##තවකක
##තවණයෙද
##තවචාරණය
##තවශයෙන
වසාල
වසාද
වසතත
වසපර
වසසත
වසසම
වසඩන
වසටා
වසථර
වසපහක
කරමද
කරමයන
කරමාණක
##හතකාමන
##බනො
##බනැට
##යනය
##යනතව
##යනවට
##යනවනදනය
##යාග
##යාඩ
##යායට
##යාංග
##යාගත
##යානනද
##යාකාරයෙන
##යාකාරව
##යායතන
##යාධාරයක
ඇතා
ඇතලල
ඇතලෙ
ඇතකළ
ඇතකොට
ඇතලව
ඇතතවශයෙන
##ැනවමක
##ැනවතත
##ැනෆරඩ
##කාවට
සමබනධතාව
සමබනධකරණ
සමබනධකරණය
සමබනධතාවක
සමබනධකයක
##වායෙන
##වාසත
##වාදෙන
##වාදනය
##වාලයෙ
##කරස
##කරනය
##කරගෙ
##කරමත
##කරගෙන
##කරවක
##කරලා
##කරවලට
##කරගනනා
##නයත
##නයඩ
##නයතාව
##නයොට
##වනද
##වනඩ
##වනතය
##වනදා
##වනගොඩ
##ාලට
##ාලමට
##ාලගෙ
##ාලමෙ
##ාලෛය
පහතම
පහතදැක
වසතරණ
වසතරාතමක
##හාකාර
##හාමඩ
##හාසාතමක
මෙද
මෙහා
මෙසා
මෙතන
මෙයය
මෙටර
මෙටල
මෙගොඩෙත
මෙතැනන
මෙඝසරය
මෙයාකාරයෙන
මාතෘකාවට
මාතෘකාවන
##ණයයන
වෙතය
වෙසක
වෙසන
වෙරස
වෙමනය
වෙසෙසන
##වතණ
##ගෙය
##ගෙම
##ගෙරයාව
##මකද
##මකළ
##මකතා
##මකනමතත
##මකණව
වනම
වනසන
වනයෙද
වනෙම
වනජව
වනානතරය
වනඅතර
වනාතවල
වැඳ
වැවල
වැසක
වැදන
වැවට
වැවෙද
වැරව
වැවෙහ
වැලපෙන
වැහෙනනෙ
වැජඹ
සඳය
##වසස
##වසමට
##වසායක
##වසැල
##වසෙනනෙ
##වසරයෙන
##වසඳණ
##වරං
##වරණයක
##ෙකත
##ෙකටරයක
සංකරණය
සංසල
සංජා
සංගණක
සංයොජන
සංජව
සංවාදය
සංදරශනය
සංඥා
සංදරශ
සංහරාජ
සංනවෙදන
සංතෘපත
සංධසථාන
බවෙ
බවටත
##නාට
##නාකරණය
##නාපයක
##නායකට
##නාගාරය
##නාගමෙ
##නාශකයක
##නාගාද
අතරෙ
##ෙසංහ
##කෂයකට
##පතෙන
##පතාම
##පතගම
##යටර
සඳහාම
කළද
කළමණ
කළකරණ
කළාමය
කළාට
කළකරලා
කළනාකරණය
##වලලට
අනක
අනකර
අනවත
අනදන
අනකත
අනසථ
අනදම
අනකරම
අනශර
අනබල
අනවරත
අනගරහ
අනබදධ
අනසාර
අනබැඳ
අනතයෙ
අනකරමය
අනමතය
අනාතම
අනගරාහ
අනශා
අනභභව
අනචලනය
අනයකතව
අනවසරයෙන
##රමලා
##රමොන
හැකවා
හැකවෙ
හැකකක
හැකවාක
හැකබව
##තායත
##තාංශ
පළන
පළකර
පළමන
පළගෙන
පළකළ
පළපරද
පළලකන
පළගනන
පළමකොට
පළකෙරෙන
පළවවත
පළගනය
පළඳනා
පැච
පැයට
පැයකට
පැතවල
පැරද
පැවතව
පැදව
පැදක
පැළය
පැවරණ
පැපොල
පැපවා
පැඟර
පැනනගන
එකය
එකා
එකෙක
එකවෙ
එකවය
එකවම
එකතවය
එකවෙන
එකටම
එකකන
එකසතව
එකවෙය
එකවමෙ
එකාධපත
එකවරම
එකදහසකට
##ෙශන
##ෙශණය
##ෙශවර
##ෙශකයො
##ෙශතරෙය
##කාක
##කායක
##කාකාර
##කාගොඩ
##කාභය
##කාශයක
##කාෂම
##කාධකාර
##දරයක
##දරණය
##දරොග
##දරයෙද
##දරපප
##දරාබ
##දරෘෂය
##දරතඩව
##ංගය
##ංගයන
##ංගාල
##ංගාරා
##ංගකරනය
##ංගරමලා
කොපය
කොකා
කොපර
කොකට
කොනම
කොපයක
කොවලට
කොකන
කොබර
කොණක
කොතරම
කොනතර
කොසො
කොණයෙ
කොකාවල
කොංගො
කොතැනන
කොතැනක
කොවරං
සටව
සටද
සටත
සටෙන
සටවය
සටමත
සටසන
සටවම
සටයො
සටවනන
සටවමෙ
සටරයක
සටවරයෙක
සටවනනෙ
සටවමෙන
සටයාද
සටැට
සටෙලට
සටැෆරඩ
සටෙෆ
සටඩයො
සටැනෆරඩ
##ාදසය
##ාදකන
##ාදවයට
තබයෙ
තබමන
තබනනට
තරය
තරස
තරහ
තරයන
තරවෙ
තරලය
තරොන
තරකයන
තරකය
තරථක
තරකාන
තරජනයට
වශාදය
##ණඩමන
##ණඩලක
##ණඩවක
##ණඩයයන
හොක
හොට
හොද
හොදන
හොයය
හොදම
හොරො
හොටල
හොබවන
හොලනඩ
හොයප
හොමොන
හොලවඩ
හොනඩර
හොයාගත
##තයය
##තයවරයා
##තයයනහ
##මනක
##මනයෙන
##මනසන
##මනපල
##දයාවෙ
කරනව
කරනතර
කරනවාද
පොප
පොතත
පොලන
පොටට
පොසට
පොටර
පොනට
පොයනට
පොතතෙ
පොලනතය
පොරතන
පොරන
පොෂණයක
පොෂයය
පොබයන
##දාක
වරල
වරත
වරඩ
වරශ
වරයක
වරයා
වරණය
වරංග
වරතය
වරාම
වරගත
වරටත
වරයාගෙ
වරණයට
වරකක
වරවරයක
වරතංග
වරකාගොඩ
##ෙරෙ
##ෙරෙන
##ෙරකාව
##ෙරණය
##ෙරොල
##ෙරාට
##ෙරෙනනෙ
##ෙරයාවෙ
නොයන
නොසන
නොදන
නොතක
නොවෙන
නොරස
නොවමට
නොගොස
නොදෙ
නොබැඳ
නොහොත
නොගනමන
නොසො
නොදෙය
නොරමන
නොයෑමට
නොදකවන
නොගසා
නොකයය
නොඇසෙන
නොවසඳණ
##වයය
##වයසකරවෙක
##කාරයක
##කාරයෙ
##කාරයන
##කාරතවය
##කාරකයන
##කාරතවයන
ශරයන
ශරයා
ශරගන
ශරදධ
ශරනගෙ
ශරෂක
ශරයනත
##ලලතා
##ලලමෙ
##ලලකට
##ලලෙහ
##ලලආර
ගැනග
ගැනණ
ගැනද
ගැනත
ගැනෙන
ගැනසටර
ගැනවමක
##තතෑ
##තතත
##තතටම
##ොරා
##ොරහ
##ොරන
පදවන
පදවනන
පදකක
පදවමන
පදවයට
පදාරථය
පදලයෙකගෙ
පදදරපප
බලස
බලපත
බලොක
බලගන
බලසම
බලකරය
බලකොට
බලකරමය
බලාගාර
බලමැන
බලවෙගය
බලතසං
බලගෙරයාව
බලකායක
##පරෙ
##පරොන
##පරයම
##පරචඡ
##පරතොට
##පරවහන
##පරෂයෙක
##පරභගෙ
ලෙසර
ලෙසනද
##ාමා
##ාමනය
වයල
වයසන
වයරස
වයලනය
වයරසය
වයොජනය
වයලමත
වයවසන
වයයතය
වයවහාර
වයදමන
වයවසායක
සදවෙ
සදසම
සදධන
සදවෙය
සදෙමන
සදළණ
සදකෙරණ
සදෙවම
සදහටම
සදදලා
සදානමන
##මතන
##මතමය
##මතකව
මලස
මලෙන
මලකර
මලවල
මලාස
මලෙය
මලගර
මලනද
මලවලට
මලටර
මලශර
මලබැ
මලසථානය
මලපාස
මලශාල
මලයාධාරයක
වැඩෙ
වැඩෙන
වැඩයෙන
වැඩකර
වැඩවල
වැඩසට
වැඩවලට
වැඩවලන
වැඩවමට
වැඩකරය
වැඩෙත
වැඩවමෙ
වැඩකරමට
වැඩදෙනාගෙ
වැඩකරනනෙ
##ගතයක
##ගතතා
##ායෂ
##ායමන
කරයරවර
කරයානවත
ලබෙය
ලබඩො
##මෙය
##මෙහ
##මෙදා
##මෙහම
දෙදන
දෙයකට
දෙපට
දෙගොඩ
දෙපළ
දෙවමෙ
දෙදද
දෙපරස
දෙවසර
දෙවැනනා
දෙදහස
දෙපාවල
දෙබලකන
දෙවාලයෙ
##ානයාවෙ
පසම
පසඳ
පසෙන
පසදා
පසසර
පසශන
පසකළ
පසපස
පසබෑ
පසබම
පසමබ
පසතැ
පසදෙනාගෙ
පසබමට
පසපසට
පසාරල
කරනනා
කරනනෙක
කරනනෙය
කරනනනගෙ
කරනනෙම
##යතම
##යතතව
##යතාවක
##යතනයෙ
##ගලයො
##ගලොබල
##ාජකතවයක
##ාජනගර
සෙද
සෙයා
සෙවල
සෙමන
සෙතම
සෙවමට
සෙමබර
සෙපප
සෙදමට
සෙලලම
සෙයස
සෙහොය
සෙබසත
හාබර
හාචාරය
හාඩෆලඩ
වෙනකල
වෙනකො
ලංකන
ලංකාන
##දෙශවර
##සයයකට
##ලයාන
##ලයගහ
තබෙදැය
සැදන
සැණක
සැසව
සැවාන
සැපයෙන
සැවැත
සැතපම
අවමය
අවධන
අවභාව
අවපාත
අවශයක
අවැස
අවවාදය
අවෂක
අවශෙෂ
අවටරො
අවහංස
අවළවන
අවකාශයක
අවදයාවෙ
මෙමඟන
##ාවකටම
ජනත
ජනගත
ජනෙල
ජනපතවර
ජනලෙඛන
ජනවකාස
ජනපරයම
උපල
උපනද
උපපැ
උපකයා
උපලෙඛන
උපාසක
උපමාවක
උපයනවට
භාවයක
භාවයෙ
භාවයට
##ගෙනකන
දකට
දකඛ
දකගැන
දකවැලල
දකසද
අමතය
අමහර
අමබල
අමලනය
අමතතෙක
අමබලනත
අමාරවක
අමනාපයක
20ක
203ක
##සනෙ
##සනෙන
##සනදර
##සනසල
##සනජස
##සනකලම
##සනජො
අදක
අදට
අදශ
අදහන
අදනනෙ
අදමර
අදදරන
අධො
අධපත
අධකම
අධකෂණ
අධශකත
අධෛරය
අධතාප
අධවෙගයෙ
අධනත
අධකෂණයක
අධයරට
අධාරයෙන
අධවාසත
මහතමා
මහතමයට
ලබාගනනා
ලබාගැනමත
එයය
එයාරලයනස
පවසනය
පවසමට
පවසමෙන
පවසදද
පවසෙමන
පවසමනය
පවසෙනනෙ
පවසයෙය
අතතය
අතශය
අතකම
අතහල
අතචඡ
අතලත
අතෘපත
අතහදා
අතපොතවල
අතකොර
අතථදසස
අතපජය
අතඅංඩංගවට
අතඋතම
අතයනතව
අතලලමෙ
##කටක
##කටද
##කටවන
##කටසට
##කටැඩයම
පරතසම
පරතපාද
පරතබල
පරතපො
පරතකරය
පරතබදධ
පරතකරයා
පරතගාම
පරතඥා
පරතජනන
පරතශතය
පරතයාග
##ෙෂණය
##ෙෂයාව
වටන
වටකර
වටවල
වටොර
වටපට
වටකරය
වටකොට
වටරවමෙ
##හරව
##හරවා
##හරටත
##හරලාල
##හරණයන
ලැග
ලැජජ
##ලකය
##වකනද
පදගලයෙන
පදගලයො
##හසෙ
##හසත
##ාසනන
##ාසවාදන
##ාසංසල
##රයස
##රයම
##රයසස
##රයාවට
##නනෙද
හෙටට
හෙතවය
හෙඩස
හෙමගරාම
##ාධරන
##ාධපතව
##ාධතයන
වසනතයෙ
##ොකතවෙ
##ොකකොව
##වැටයෙ
##වැසයනගෙන
පාරභොජන
පාරදරෘෂය
පාරාදසය
##වටත
##වටෙමන
මහළ
මහඟ
මහාත
මහවල
මහමය
මහදෙන
මහමැ
මහවනසර
මහවතත
මහමම
මහතවරන
හැඟන
හැමබර
හැරමත
හැගමෙ
හැවලොක
හැපෙය
හැතතෑ
අපටත
අපොහො
අපසස
අපෙම
අපගමනය
අපකරත
අපහාසාතමක
අපහරණයන
19ක
19න
19ත
190
1910
ඉනපට
ඉනෆරන
ඉනෆොගරැෆ
මැළ
මැඬ
මැයෙන
මැරය
මැරන
මැතරණ
මැරට
මැලකම
මැහමක
මැගනා
මැලෙර
මැතරමෙන
මැතවණයෙද
##ලනට
##ලනග
##ලනගෙ
##ලනාවෙ
##ලනයෙහ
නැස
නැතත
නැවක
නැමම
නැවැතව
නැමබ
නැතවෙමන
නැවැතවමට
නැෙඟන
නැවගණ
නැලවමෙ
නැංගරමලා
දරා
දරගන
දරකත
දරාප
දරගැන
දරසව
දරවමට
දරවො
දරඩඩ
දරනනන
දරෘෂය
දරාසට
මනාව
මනගෙ
මනමක
මනකෂ
මනතත
මනසට
මනමර
මනපස
මනසං
මනොච
මනහකලපත
මනවනගොඩ
මනදරයෙද
ගොමත
##ෙයයො
දනයෙන
දනයන
දනවන
දනවය
දනටත
දනකන
දනදම
දනවමට
දනජය
දනෂක
දනයෙහද
දනචරය
දනපතාම
ඔබා
ඔබෙන
ඔබඩා
ඔබාගැන
ඔබාමා
##තාවට
##තාවන
##තාවයට
##තාවයකන
##තාවයනට
##තාවනගෙන
අවසතාව
අවසතාවක
අවසාධතයන
##ගනහ
##ගනමතත
පෙයන
පෙමක
පෙරම
පෙතය
පෙපර
පෙතවල
පෙණන
පෙහෙ
පෙතතක
පෙපෙර
පෙරමය
පෙටනට
පෙදෙස
පෙදරතඩව
##මාහත
##මාතරක
##මාතරාම
ඔවනව
ඔවනගෙන
ඔවනටම
ඔවනොවනගෙ
##ලාට
##තවරණය
##තවරනට
##තවරයනගෙ
හැකයාවන
හමාල
හමවමෙ
හමයනගෙ
හමවනගෙ
හමකරවනට
##ඩාහ
##ඩාංග
##ana
##anch
##anity
##annel
##anford
නමාව
නමගය
නමවලන
##ාතමකතාවයකට
ජාතයෙ
ජාතකයනට
##ටටවය
සයම
සයළ
සයලලට
සයළම
සමඟය
පළබඳවත
පළබඳවය
සථාය
සථායක
සථාප
සථනද
සථාවරය
ලදහ
ලදවත
අඩක
අඩම
අඩකර
අඩවන
අඩකරන
අඩපණ
අඩතරමන
##තකය
##තකන
##තකෙයාර
කාලයය
කාලගණක
කාලාවත
කාලසබෑ
කාලපරචඡ
##ාකය
##ාකෑම
##වධාන
කැත
කැළ
කැබ
කැසට
කැළඹ
කැරො
කැබැ
කැටල
කැරක
කැටය
කැරට
කැළණ
කැවාලය
කැරල
කැරෙන
කැචචට
කැරැලල
නයරො
නයොම
නයජර
නයංසන
නයඟය
නයොවා
රාජයක
රාජයට
රාජසථාන
රාජෙනදර
රාජොතතම
රාජාවලය
##ාවෙම
ලංකාගමන
##ගරාධපත
##ගරවතත
##ගරසයෙ
##ගරාහන
ඔහයොහ
ඇතළවන
ඇතළවය
ඇතළවම
ඇතළතන
ඇතළතවෙ
##තමගෙ
##තමාවත
නරවත
නරපත
නරොග
නරතන
නරකය
නරාවර
නරසං
නරකතය
නරදෙශය
නරතවන
නරතවෙමන
නරණයන
නරවනදනය
නරවලව
නරොෂන
නරතරව
##කතසා
##otom
##otzsch
##eri
##ere
##erat
##erra
##erbhai
##erica
##erization
##ොනජයක
##ොනමාදයෙ
##වෙනන
##වෙනනට
##inic
##inity
##inite
##iness
##inwor
##සටා
##සටමට
##සටොට
##සටකල
##සටයද
##කයනගෙන
##ජනයනත
##ොහක
යොමා
යොනයට
යොජත
යොදව
යොමකළ
පරදෙශයන
පරදෙශයනට
ගතහ
ගතාන
ගතයන
ගතගණ
ගතකරමට
##ෙදම
##ෙදනයට
ගෙනන
ගෙනවමට
ගෙනයනන
ගෙනදගම
ගෙනඒමට
වලෆ
වලයක
වලෆර
වැනදන
වැනලා
##සරලනතයෙ
##සරවෙටව
එමර
එමබර
එමඑන
එමමැන
සරකර
සරගත
සරලන
සරරක
සරසාර
සරානතය
සරලව
සරගතව
සරකරවෙක
සරරට
සරටොග
සරධමම
සරබයාවෙ
සරාවයන
සරවසස
සරාකෑම
දෙනවා
දෙනාම
දෙනනට
දෙනවාල
වදයෙ
වදනය
වදමට
වදදම
වදලයක
වදරමස
කටත
කටයක
කටවක
කටපරාපත
කටවැව
කටපොත
කටකතාවලට
පහයක
පහකන
පහමාර
ලැබහ
ලැබමත
ලැබලා
ලැබවෙය
ලැබවාය
ලැබවහොත
##ෙහද
##ෙහකයන
කණඩායමත
මතයන
මතතා
මතගල
මතනමතත
කොටවල
කොටගල
කොටදෙන
කොටවෙය
කොටසකම
කොටහෙන
කොටදෙණය
ගැර
ගැයෙන
ගැයම
ගැසෙන
ගැලව
ගැරමෙ
ගැහෙන
ගැහවා
ගැළපෙන
ගැවසෙනනෙ
බැව
බැගන
බැටර
බැදම
බැසස
බැරව
බැපටය
බැදප
සවච
සවපන
සවශකත
සවාරයක
සවඥානක
සවපතව
සවකරමෙ
සවභාෂා
සවයනවනදනය
##නමල
පතට
පතනන
පතගෙ
පතලෙ
පතනනෙක
queen
##ායකාර
##ොධකය
ගැනමටය
ගැනමටද
අනතරක
අනතරන
අනතරවල
අනතරවලට
අනතරකරය
අනතරගතය
අනතරගරාහන
අනතරායකාර
එහම
එහෙම
එහෙට
එහෙයන
ආරයා
ආරංච
ආරපස
ආරකක
ආරොපත
ආරාබ
ආරොපනය
තළත
තළණයක
##කරණයට
පටා
පටහ
පටයෙන
පටයට
පටවල
පටවම
පටවට
පටවෙන
පටකල
පටවෙය
පටබැඳ
පටසතර
පටකෙරෙන
පටාරගැල
##හාරයෙ
වශෙෂද
වශෙෂතවයක
##ාපන
##ෘතකරණය
පොලමෙ
පොලතන
පොලොනන
පොලහෙන
පොලොනනරව
පොලපතගම
සොට
සොකට
සොලන
සොසෙ
සොබා
සොඩයම
සොමාල
##මයානකල
අයවෙ
අයතවය
අයරස
අයපස
අයැදම
අයහපත
##හැරම
##හැලලෙ
කරයාකරන
කරයාකරමට
කරයාධර
##ාලනකාරය
##නදකයන
නවනන
නවයෙ
නවවන
නවයට
නවයකට
නවගතතෙගම
නවාතැන
මාරයා
මාරවල
මාරසක
මාරවක
මාරකස
මාරපන
මාරටන
මාරකොට
මාරකො
##ාගනන
##ාගතව
##ාගරය
##ාගනනා
හරව
හරනන
හරයක
හරාන
හරවා
හරවෙ
හරවෙය
හරවැට
හරයාකාරව
හරකරගෙන
##ණයකන
##ණයකර
බරක
බරව
බරණ
බරවස
බරලනය
බරනස
බරහමා
බරඩොල
##සථනයෙ
වරගද
වරගවල
වරගයනද
ගණයෙන
ගණතය
ගණවලට
ගණටර
ගණනට
ගණයෙහ
ගණමකට
ගණනනද
ගණසෙකර
ගණතයෙ
ගණතයට
ගණකාධකාර
දැලක
දැවෙන
දැමය
දැරමෙ
දැණම
දැවලලක
දැණමක
දැවලලට
දැවටෙමන
වමස
වමසය
වමොච
වමසමෙ
වමොචන
වමසමන
වමබොට
වමොඩන
වමමකනමතත
##කමපත
##කමපාව
##ලෙඛය
##ලෙටඩ
##aro
##aric
##aren
##aruw
##සලගෙ
##සලයට
##සලෆෙට
##සලොනා
##තනස
##තනගෙන
##තනාවන
##තනතරය
පෙරය
පෙරට
පෙරහර
පෙරනයන
පෙරසමෙ
පෙරළය
පෙරසමන
පෙරලමට
පෙරසයන
පෙරෙරාට
රජද
රජත
රජයෙන
රජෙක
රජවය
රජගෙන
රජයකට
රජජර
රජවරනගෙ
රජාබ
රජතමා
##යෙදම
භාහර
රැය
රැල
රැලය
රැලයට
රැලලක
රැළය
රැජනක
රැමස
රැඟමක
තොරාගැනම
තොරාගනන
දැනෙ
දැනමක
දැනවය
දැනවම
දැනගැනම
දැනගැනමට
දැනමකන
දැනෙමන
දැනගනනට
දැනණද
##orus
##orks
##orey
##orensis
##orflow
ගනනද
ගනනවා
ගනනෙක
ගනනනගෙ
ගනනාවකටම
නෂඩ
නෂචත
නෂෙදනය
වසරට
වසරන
වසරවල
වසරකම
##onent
##onwealth
ලංකාවම
ලංකාවටය
කාණ
කාගෙ
කාළය
කාටවත
කාබොහ
ලොකලන
ලොකකන
ලොකළණ
වයාකරණ
වයාධන
වයාබාධ
වයාඝරයන
වාරයෙ
වාරකයක
වාරශක
වාරයකදම
සභාග
සභපැ
සභානායක
සභසංහ
##ගොං
##ගොඩන
##ගොතමගෙ
##සෙකරන
##alog
##alendar
##alsighting
වැදම
වැදණ
වැදලා
වැදෙමන
ජාතකයා
ජාතකයො
දකවාය
දකවා19
වනනෙම
සාමයක
සාමයෙ
සාමවරයා
සාමපදායක
සාමානයකරණය
##ලපණ
##ලපනය
පරධානතවය
ගැනමවලට
ගැනමකරවන
පරකාශත
පරකාශයෙ
පරකාශයකට
පරකාශනයට
දෙශයෙ
දෙශනය
දෙශනයක
දෙශමානය
දෙශසමා
දෙශනවලට
ආසනය
ආසවාදනය
තනට
තනත
තනදය
තනවක
තනවම
තනකරම
තනතරය
තනවැන
##ඳනගෙ
තරගයකට
තරගවලන
තරගකරවන
තරගකරන
තරගයෙහ
තරගවාර
තරගතවෙමන
තරගකාරතවය
නෂපාදනද
නෂපාදකයා
නෂපාදතයෙ
නෂපාදකයාට
මරක
මරගල
මරාප
මරණයක
මරකම
මරපද
මරපො
මරණයට
මරපොල
මරපොලවල
මරකමෙන
මරකමට
පරමාදරශ
අමාතයය
අමාතයවරයෙක
අමාතයවරනගෙ
අමාතයවරය
අමාතයංඅ
අනවාර
අනවකෂය
ඒවාය
ඒවාගෙම
පෙනමට
පෙනගෙ
පෙනනා
පෙනවාද
පෙනවමක
පෙනවමන
පෙනසටන
පෙනණම
පෙනහැලල
පෙනවනවා
පෙනවලා
පෙනඩනට
පෙනසටමට
පෙනහැලලෙ
පකෂව
පකෂයෙන
පකෂවලට
පකෂවලන
පකෂයෙහ
පකෂයාගෙ
මටක
මටන
මටොබට
වවධතවයක
වවධාංග
ආරමනක
##දෙනනට
##දෙනනෙ
##දෙනාට
ආරමභව
ආරමභයක
ආරමභයෙ
ආරමභයෙද
ආරමභයය
ආරමභවමට
හෙතවාද
හෙතවකන
හෙතවකටද
කහපොළ
කහවතත
කෙරන
කෙරනද
තෙංගාරා
##ats
##ator
##atel
##atur
##ating
##atula
##ataceae
##atfor
##atrical
##atbot
බවටය
අවශයව
ගමනෙ
ගමනට
ගමනත
ගමනකන
ගමනගනනා
ගමනානතය
දෙකෙන
දෙකෙහ
දෙකෙදම
යතාරථ
ඉලලමන
ඉලලමෙ
ඉලලකක
කලට
කලව
කලර
කලවා
කලපත
කලකට
කලාතමක
කලාවෙ
කලෙද
කලසම
කලාවන
කලකරවන
කලතංග
කලදෙය
කලොගරෑම
කලඅඩච
කලහාකාර
කලොරන
ඉදරයෙද
ඉදරදරශනය
නතයක
නතයෙ
රටන
රටද
රටෙන
රටාවක
රටෙහ
රටාවකට
රටපරා
##ication
##icul
##icag
##කනයක
##බරා
##බරට
##බරව
##බරග
##බරෙව
##බරනහද
කරකටතරගය
සතණ
සතප
සතතර
සතනා
සතමන
සතටට
සතපයක
සතයකට
සතගනනා
සතටන
සතෙකට
සතඅනත
සතයාංග
##ටරස
##enber
##ensi
##enological
##enkin
තවතදරටත
පනවන
පනමන
පනවම
පනසල
පනතවලට
පනසලක
පනසයයකට
##හලටට
##හලෙද
##හලමය
අභමානය
අභරහස
අභචොද
ගරාම
ගරසය
ගරාස
ගරොන
ගරාමය
ගරභය
ගරවරයෙක
ගරවරනගෙ
ගරසෙවා
ගරාටම
ගරසයෙහ
ගරැහැම
ජයගත
ජයරාම
ජයසරය
ජයසමන
ජයලලතා
ජයසනදර
##කයනනෙ
##කයාවන
නලෙන
නලයන
නලවරණ
නලාවරය
සනක
සනව
සනාල
සනඩා
සනධයෙ
සනටැක
සනසඳ
සනගොග
සනධසථානයක
සනරයසස
සනෙහකයන
සනහලටට
##ලමතව
##ාවනඅරඹ
##ාවනගනහ
පළමයක
පළමයට
පළමවලට
පළමවැන
පළමවැනන
පළමවරට
පළමවැනනා
සොයාගන
සොයාගැනමට
සොයාබලා
සොයාගැනමක
සොයාබලන
##ොලොජ
කෙප
කෙඩා
කෙටට
කෙතවල
කෙතරම
කෙජර
කෙතනය
කෙබලය
කෙමනද
කෙමපොසට
නදව
නදහසක
##කරමපර
කණඩායමව
කණඩායමවලට
දයාර
දයපහර
මගනගෙන
සටනක
සටනෙ
සටනට
සටනකරම
සටනවාද
සටනකද
සටනකාම
සටනකාමන
දකණෙහ
දකණතන
රොගව
රොගයට
රොගවලට
රොගයකන
රොගාබාධ
රොගකාරකයන
මෙයද
මෙයර
අරාවක
අරගෙන
අරලන
අරථක
අරාවට
අරාවෙන
අරකෂක
අරඹා
අරබධයක
අරඹනනෙ
අරවනද
අරොරා
අරාජකතවයක
අරලයගහ
##use
##ushman
10ට
1029
1098
1055
මෙනෙහ
මෙනටල
වදයාවන
වදයාවනගෙ
කහපයකද
කහපයකනම
කහපයකටම
ආණඩකරමය
ආකාරයන
ආකාරවල
ආකාරයකට
ආකාරයෙනම
දැකවමක
දැකගැනමෙ
මානලෙ
මානෙල
##සවමෙන
##achr
##acilis
##active
##ශරණය
සථානක
සථානයෙන
සථානගත
සථානවලන
සථානයෙහ
සථානාධපත
සථානයෙදම
උතතරයක
ගනත
ගනදර
ගනදරය
ගනවනනෙ
මමණය
මමතවය
සලො
සලවත
සලාම
සලසා
සලසමන
සලෆය
සලාවතර
##මැටෙස
##esh
##esign
##esca
##esianus
පවතනවා
පවතනවට
පවතනවාද
පොහොරට
පොහොරද
පොහොරකම
පොහොරවලට
වගවල
වගවක
වගවෙන
වගාදය
වගබලා
වගකමෙන
වගකයනනෙ
##නටො
##නටයස
##නටරයම
වෙතද
පැවැතම
පැවැතවය
සෞමය
සෞනදරය
ජවතයෙන
##ඩනහ
##ඩනයෙ
##ඩනයා
පරවනන
පරවහනය
පරවපරාපතක
පරවඋපක
පරවාරකයො
නදහසෙ
මාඩ
මාච
මාගෙ
මාටනගෙ
මාණඩලක
ආසාදතව
අලයෙක
අලතවල
අලයකගෙ
අලොරහ
අලමෙදා
අලතමාවත
කාරකයන
කාරණා
කාරටා
කාරණාවය
ගෙල
ගෙඩ
ගෙයක
ගෙවා
ගෙවන
ගෙවාද
ගෙවමක
ගෙවතත
ගෙජජ
ගෙටවෙ
ගෙවගය
ගෙතමට
ගෙජජෙ
ගෙබමක
මහාභාර
සෞඛයයට
සෞඛයමත
සෞඛයමය
හටවන
හටයත
හටගනනා
##ෙලයක
##ෙලයා
##ෙලෆයා
##ෂයමය
සංවධත
තරඟයෙන
තරඟයකට
තරඟවදන
##පටයෙන
##පදාව
පැමණමත
පැමණෙය
පැමණමෙද
පැමණෙමන
පැමණෙනනෙ
පැමණලලකට
වෙනසකර
ජනාධපතට
ජනාධපතතවයෙන
ඉගෙනමෙන
ඉගෙනමය
සාසනජො
##තවලද
භාවතයෙද
දමතර
දමාල
දමනා
දමරයෙන
දමවැල
දමළයන
##භාවයක
##භාවයය
##භාවයකන
පරාකරම
පරාකාරය
පරාපතය
පරාටාස
පරාඥයක
පරාකාරයෙ
අනෙකාගෙ
ඉහළනම
ඉහළයාම
ඉහළයමන
ඉහළයෑමට
චනතන
චනතනය
චනතනයට
චනඩපා
චනතාවන
සමපරදාය
ලංගය
ලංගමෙන
ලංගාශර
සනනායක
##ශනකයෙක
##ොටව
##ොටො
උපකාරයෙන
උපකාරශල
පාසාණ
පාසැලක
##ෂණයට
බවයපොල
කරයාතමකය
කරයාතමකවමට
තොරතරත
තොරතරකට
නායකතව
නායකයනට
නායකතවයක
පාළ
පාතර
පාගන
පාචනය
පාණඩයයන
ලකවනන
ලකවෙමන
ලකකරනනෙ
ලකවමකන
ලකකරමත
##ානතයෙන
සඳහනව
සැලකම
සැලකමෙ
සැලකලලක
සැලකලමතව
මනතරය
මනතරණ
මනතරවල
මනතරවරයක
මනතරවරනගෙ
මනතරයකයා
පොලසයෙන
පොලසවසමට
හෙතවෙනද
ආයතනයට
තවෂ
තවානක
තතපර
තතබෑම
තතසෙර
##ැමර
##ැමලඩ
2002
2003
2008
200කට
පහටය
පහටව
පහටන
පහටයෙ
පහටමක
පහටවම
පහටවමෙ
ආහාරද
ආහාරයට
ආහාරවල
ආහාරවලට
ආහාරවලන
සැකය
සැකෙන
සැකයට
සැකසය
සැකකරන
සැකලලෙ
සැකකාරයක
හඳමන
හඳගැනම
##කරවනගෙ
මෙහෙට
මාරගයකට
ඉවතලය
ඉවතකරමට
දවනන
දවයෙ
දවාරය
දවතවය
දවපක
දවාරයක
දවවමෙන
දවාවො
දවාරයනගෙන
පමණට
පමණන
##edes
##ලයෙය
ගැටවර
ගැටමන
ගැටමෙන
ගැටෙය
ගැටමකට
ගැටඹෙ
වෛදයවෙදය
යෙදෙ
යෙදව
යෙදණ
යෙදවන
යෙදවය
යෙදෙය
යෙදෙත
යෙදෙමන
යෙදණෙම
##චාරයෙන
##චාරයට
සමාජගත
සමාජයත
සමාජවාද
පරදවා
පැවැතවහ
පැවැතවන
පැවැතවවන
පැවැතවනෙ
පාලයෙ
පාලකයන
පාලකය
පාලකයො
වඩදය
වඩකක
වඩවනඩ
##ෂණාව
තරණයවන
වශාලතවයක
වශාලතවයෙ
වශාලතවයෙහ
රාජයයකම
ආරකෂාවට
මැතවරණවලද
එරක
එරාවර
මටටවට
මටටමකට
මටටමකන
මටටකකල
සමහරන
සමහරවට
සමහරනට
වදයාලයට
වදයාලයය
වදයායතනයෙ
කරයාකාරම
කරයාකාරකයක
කරයාකාරනයක
කරයාකාරතවයට
කරයාකාරකමකට
දගා
දගට
දගවක
දගාවම
දගකලක
##tholog
##thral
##00ක
කරඩාවෙන
කරඩකයාවන
සමගයෙන
සමගපර
##කරනයෙද
මලදරවයයනට
මලදරවයයනහ
මලදරවයපරම
සෙවණ
සෙවයක
සෙවයෙන
සෙවාවට
සෙවාවල
සෙවකාවන
භාෂාවෙ
භාෂාවට
වෙළඳපොල
වෙළඳපළෙ
හඳනාගැනමත
හඳනාගතතෙ
කෙසෙනමත
කාරයංශයෙ
කාරයංශයට
මාධයයෙ
මාධයයන
මාධයයට
මාධයයකට
මාධයවෙදන
සෑමවටම
##මාරකය
##ilus
##ilent
##ilia
##ilab
##ilton
##ilier
##omi
##omataceae
කොළඹද
ලංගකමය
නගරසභ
නගරාධපතව
බෙබද
බෙංගම
බෙමම
බෙංගාල
වදෙශයන
වදෙශකයන
වදෙශකයෙක
වදෙශකයො
##කසගෙ
##වතවෙලස
##පාළ
සමාතරා
පළාතවල
පළාතෙද
පළාතවලට
පළාතවලත
පළාතසභා
කොමසන
කොමාවකන
කොමසමෙන
##පනයන
##පනජා
පැවසෙ
පැවසෙන
පැවසමට
පැවසමෙන
පැවසෙය
කඩවක
කඩසර
කඩකළ
කඩාරම
කඩාරමක
කඩමඩ
දසබෑ
දසතරසක
බෙරා
බෙරයක
බෙරයන
බෙරමට
බෙරගල
බෙරෙය
බෙරයය
බෙරවලන
බෙරගහම
වචනයට
##ise
##isio
##isional
##ission
පැහැත
පැහැයෙන
පැහැදම
සැලකර
සැලෙය
සැලසෙ
සැලසමෙ
සැලසමට
හරහාය
උදාර
උදාවට
උදවෙග
උදාවය
උදදාම
උදවෙගය
ජලයෙන
ජලපරවහන
යටතල
##ාහෙනපට
##සතවට
අවසනව
අවසනදන
අවසනවමෙන
නෂපාදනයෙන
නෂපාදනවල
නෂපාදනවලන
නෂපාදනයනහ
කවප
කවචයක
කවාරටස
වකඩ
වකෘත
වකපඩයා
පදගලයෙකව
පදගලයෙකගෙන
නැතහොත
බරතානයෙ
භාණඩවලන
පයවම
පයවනන
මහනගර
යතයැය
##ete
##etrat
##etmap
##els
##ely
##eles
##eland
##elem
##elov
##elsen
##elona
##eldraw
##eltac
##ells
##elblad
කරණෙ
කරණවලට
කරණවලන
කරණාරතන
කරණාධරන
පැවතම
පැවතමට
පැවතෙමන
පැවතෙනනෙ
වෙනතො
මහදෙද
මහදවපක
කොටසෙහ
කොටසවලට
කොටසවලන
කොටසකරවෙක
කොටසකාරතවයක
කොටසකරවක
බරතානයය
බරතානයයන
බරතානයයට
අයතකර
අයතයට
අයතමය
අංශයන
අංශවල
අංශවක
අංශමය
අංශලොහ
ඇලව
ඇලබන
ඇලකර
ඇලවම
ඇලවමට
ඇලගරය
ඇලබෙන
ඇලජරයාව
ඉඩදමට
ඉඩමෙහම
නකතකර
නකතකරමන
පලට
පලවා
පලවන
පලබද
පලගැනම
පලබොධ
පලැට
පලපරද
පලායමන
පලාවනගනහ
මයව
මයයන
මයයා
මයගයෙ
ලාකෂණක
##බලනනෙ
##ාවරයා
##ාවරණයක
##ාවරනගෙ
##ාවරයාට
පරසැල
පරසදෙශය
පරසාදය
පරසාරණය
##යෙහය
නොහැකවන
දපතෙ
දපතට
දපතමතය
ශාකද
ශාකයෙ
ශාකමය
ශාකයකට
ශාකයකන
##rian
##rique
##rieri
සමතස
සදවණ
සදවයෙ
සදවවත
සදවමෙ
සදවවක
වෙනවෙනද
වෙනවෙනදැය
සැපයමෙන
සැපයමෙද
යොමකර
යොමකරමට
යොමකරමෙ
යොමවමකන
දෙනෙකව
දෙනෙකගෙ
ගණනකන
පතවණ
පතවයෙ
පතවවන
පතවවත
පතවමෙ
පතවමය
පතවෙම
පතවවනට
පතවෙනන
පතවෙනවා
පතවෙලා
පතවනාට
##කලස
##කලාව
පරසරයන
පරසරවල
පරසරයකට
පරසරහතකාමන
නයොජතායත
that
then
thre
thund
සාරක
සාරධරම
සාරථකය
සාරඩනය
සාරඩනයා
සපරකට
සපරාලන
සපරාගත
සපරාලමට
සපරගලොබල
සපරසලෆෙට
##භාගයෙ
පරහාරයෙද
නලධාරහ
ලැයසතවෙන
ලැයසතවෙහ
ලැයසතවකන
කඩාකප
නවසකට
නවසෙද
නවසකන
නවසවතවෙලස
වායව
##නෙටර
පයවරට
ඝාතක
ඝාතකයන
ජාලාව
ජාලගත
ජාලකරණය
ජාලකය
මාසෙ
මාසයෙන
මාසයට
මාසවල
මාසවලද
##රාකාර
පදධතන
පදධතවලට
සෙවාලාභ
සෙවාදායක
හැරයන
හැරමක
හැරවය
හැරවම
හැරගහන
ඉතාලයට
මධයයක
මධයයට
මධයසථානයෙ
පරමාල
පරමාවකන
කළමනාකරවන
කළමනාකරවෙක
වලටද
දෙශපාලනඥයනට
පාරභොගකයෙක
පාරභොගකයෙකට
කයල
කයද
කයතර
කයමන
තමනද
යමහලමය
##පලෙද
##පලෆය
##තවයකද
කරයාවල
කරයාවෙන
කරයාවලයන
දෙපාරශවය
පරතකාරයක
පරතකාරයෙන
නයමයක
පාසලෙද
ඉලෙකටරොනයට
ඉලෙකටරකලස
කසපප
කසදාක
තාබොර
තාකෂණයක
පවතවනනද
පවතවාගැනම
පවතවනනෙද
රාතරය
සංගමයෙන
සංගමයට
සංගමයකට
සංගමයෙහ
ලබාදය
ලබාදෙ
ලබාදමය
ලබාදමෙද
ලබාදෙමන
##හැරමට
කාබනකයෙ
වයාපාරයට
වයාපාරවල
වයාපාරකයන
වයාපාරයකට
වයාපාරකයා
වයාපාරකයනට
දයණවත
දයණකරම
##ැලට
වැටෙ
වැටමට
වැටමක
වැටලා
වැටනෙම
තබාගත
තරණයනට
තරණයෙකට
තරණයනගෙ
තරණයෙකගෙ
රාජපකෂට
යොදාගැනම
යොදාගැනමට
යොදාගැ
මානසකව
මානසකතවයක
බසයෙන
බසයට
බසවල
බසවක
මොවන
මොදර
මොලා
මොලලක
මොඩල
මොචනයට
මොචනයෙ
මොහාමඩ
මොසලගෙ
රෙගන
සාදය
සාදයක
සාදයෙ
සාදකකා
හදනන
හදමන
හදකලාව
##its
##ital
##itch
##itter
##ittle
##itzki
##බදනනට
පරසකද
හැඟෙන
හැඟමය
පෙළය
පෙළයය
පෙළගස
පෙළෙනන
පෙළපොතවල
පෙළගසව
පෙළපාළ
සථරව
සථරයක
සථරයෙන
උතසාහයකන
කෙසෙවත
දෙපාරතමෙනතවත
ආකෘතවලට
ආකෘතවලන
එලලෙ
එලලා
එලලවන
එලලවෙමන
කෂන
ගලට
ගලද
ගලෙන
ගලවා
ගලගොඩ
ගලකරගත
ගලකරසට
ගලනයය
ගලබරට
##යොගයක
##ගොරයාන
##uro
##ural
##ොමද
##ොමාන
වශවයෙ
වශවවදය
අපගෙම
පරමාණත
පරමාණයනගෙ
ඉලෙකටරොනයක
ඉලෙකටරොනයෙ
ඉලෙකටරොනකව
අසළ
අසවන
අසසක
අසසෙ
අසහනය
අසවෙය
අසාධාර
අසංඛය
අසකරස
අසාතමකතාවයකට
ඒකායන
ඒකාකාර
ඒකාහන
යායෙ
යාමක
යාතරා
යාමනට
රථයෙ
රථවලන
රථයකන
සවාමනාදන
සවායතතව
##eca
##ecies
##ලෙෂන
##ami
##ama
##ams
##amer
##amar
##amber
##amples
මලකඩ
මලකවම
අපෙකෂකයෙකට
අපෙකෂකයනගෙන
පරවෙශම
පරවෙශයෙ
පරවෙශවය
පරවෙශපතර
ඇලගොරතමයට
ඇලගොරතමයය
16ට
16න
16ත
168
1674
18ක
182
1882
1814
1812
1899
1842
කෘමන
කෘතයයනහ
යදෙව
යදධයෙහ
යදධයෙහද
##ාටවක
ඇතතට
ඇතතො
ඇතතටම
ඇතතෙම
ඇතතෙනම
##නායකපරම
එකකො
එකකගෙ
ගොඩනගන
හැකයාවද
හැකයාවනද
ආයතනක
ආයතනවල
ආයතනවලන
ආයතනයකන
17ය
17ක
1797
1767
1749
අලෙවසැල
තලනය
තලාවක
තලංගම
මාලය
මාලාවට
මාලාවය
##චඡාවෙන
සමපතක
සමපතම
සමපතද
නොවණොත
අවසානයට
ඉනදයාවෙදම
වාකයයකට
වාකයයකන
theatrical
අවරදදෙ
රපවල
රපටර
රපකයක
ලකෂයෙ
##assi
##ascript
තබෙනම
පහණවක
පහණකරම
ජනාධපතවරයාට
ජනාධපතවරයෙකට
පනතයෙ
පනතයෙද
මහනදට
මහනදගෙ
113
118
11වන
1110
1186
113ක
1153
anu
ant
ante
anthon
ආශරතව
ආශරවාද
චතරයක
චතරකා
චතරශරය
චතරාගාර
චතරාගරය
නෙත
නෙතන
නෙවෙය
නෙමෙය
නෙතකන
බහතර
බහවන
බහවම
බහවධ
බහජන
බහපද
බහතරය
බහවරණ
බහාලමෙ
රැකක
රැකගෙන
රැකගනනා
රැකගනන
රැකයාවක
රැකවරණයක
ලෙකන
ලෙකසං
ලෙකහවස
ලෙකමතමය
##දැකවම
##ැතතා
##ෘතතයට
සමමශරණය
සමානතවයක
පරශනයෙන
පරශනයකට
පරශනයකන
පරශනෙට
පරශනාරථ
පැතරෙන
පැතරෙය
පැතරලා
පැතරගොස
පැතරයාමට
දරවයය
දරවයයෙ
දරවයවල
දරවයමය
දරවයයනගෙ
දරවයයනහ
දරවයයනගෙන
පෙරමණට
ඉලලමපත
ආසාදතයනගෙන
කසලානය
කසලතාවය
කසලතාවනගෙන
රයලට
රයැලට
ශෂයයාගෙ
ශෂයයනගෙ
ශෂයාවකට
ශෂයයෙකගෙ
සාකකවෙන
##ayed
##ayaka
##ොසසක
##ොසතරවරන
තබණත
වශලෙෂණයට
වශලෙෂණාතමක
වශලෙෂකයාගෙ
සෙවකයනට
සෙවකයාට
ජනපදයෙන
ජනපදවල
ජනපදයෙහ
ජනපදයකම
අධයයනවලන
මහණතක
මහණදෙනන
බලපතරයට
දසතරකකයක
අලෙවකරවන
121ක
125කට
125ක
කෙනට
කෙනයාව
කෙනතතම
කෙනයාවෙ
කලාපද
කලාපයන
කලාකරවෙක
ගයර
ගයහොත
තැනවල
තැනමෙද
තැනතලා
තැනැතතා
නසාත
නසපාදනය
මතරව
මතරො
මතරාට
මතරවමක
පරකෂණද
පරකෂණයෙ
පරකෂණවලන
සංඛයාත
සංඛයාන
සංඛයාවෙ
සංචාරයෙද
සංචාරකයනට
වශවාසනය
වශවාසදායක
වශවාසවනත
හොඳක
තෙරමගෙන
තෙරමගැනම
බෙදාගැනම
බෙදාගැනමෙ
බෙදාහදා
බෙදාහැරමට
සමාගමවලට
පරතඵලයෙන
පරතඵලයන
පරතඵලවල
පරතඵලවලට
සාකචඡාවට
සාකචඡාවකට
සාකචඡාවෙද
කතාබස
කතාමාලාව
කතාබහක
හඳනවමන
##lege
යනතරවලට
දවයනෙන
දවයනවල
දවයනෙහ
දවයනෙම
පදධතයට
පදධතයකට
උපදෙසදම
ඇමතවරන
ඇමතවරය
ඇමතවරයෙක
ඇමපලෆය
තැවල
තැවලට
දෙසතයක
ධනවත
නවැසයන
ඵලයන
රනගස
ලෙබර
ලෙවනට
ලෙපඩස
ලෙපනජා
වාසන
වාඩව
වාටටව
වාචක
වාණජය
සෙනය
සෙනාව
සෙනදල
සෙනානායක
සෙනදව
සෙනාංක
සෙනෙව
සෙනරත
සෙනටරල
සෙනෙහස
සෙනකාක
මලයමය
දැනමදන
දැනමදමට
දැනමදෙය
දැනමදෙනන
දැනමදමක
එළයක
එළයෙ
එළවා
එළවල
එළැඹ
එළදකවමන
එළදැකවම
එංගනතයට
කනතත
කනෂක
කනෙකට
කනගාට
කනතලලන
පහරකට
පහරදෙනනට
සළගෙ
වැසසක
වැසෙය
වැසයාම
සටයෙම
වරතමානය
අධකවම
අධකණයට
පරතපතතවලද
අඩවමක
වදලබලය
සාකෂයක
සැලසමකරවෙක
වකණමට
වකණමක
වකණනනෙ
වකණමය
ඒකාබදධව
ඒකාබදධතාවයකට
issu
අගයමෙ
උතරට
උතරදග
උතරමැද
ඒකකයන
ඒකෙද
ඒකකයෙ
ඒකවරණ
ඒකකයෙද
ඒකමතකව
දොළොස
දොළහ
දනාගෙන
නශපාදන
නශපාදනය
නශචල
නශචතවම
පහසවටත
බණඩාරනායකට
සතයද
සතයමක
සතයවාද
සතයතාවය
ළඟදම
ළඟාවම
##ොචනයක
##ාවෙනවා
සමමතක
සමමතන
සමමතයෙ
වැරදමෙන
වැරදකරවන
වැරදකරට
අනරවෙ
අනරථකාර
වැඩසටහනගත
වැඩසටහනකට
අමාතයාංශයෙ
##anderization
##inga
##ingham
දෙනනෙකත
වයාපෘතය
වයාපතවන
වයාපෘතවලට
පාරභොගකයනගෙන
මෙහෙයමෙ
මෙහෙයවම
මෙහෙයවමන
සභාපතනය
සභාපතගෙ
සභාපතගෙන
සභාපතතවය
ලාංකය
ලාංකකයෙක
ලාංකකයා
ඝාතනයද
ආකෘතන
ආකෘතයට
ආකෘතගත
ගොඩනැගය
හමකමවලට
හමකමකරවන
අරමණකට
ඉටකර
ඉටකරන
ඉටකළ
ඉටකෙරණ
ඉටනොක
ඖෂධය
ගමබද
ගමයතාව
ගමපොල
ගමවාසන
ගමමනපල
ජලයස
පාලනතනතරය
බාගත
බාබකය
රොහණය
රොහලක
රසායනාගාර
රසායනඥයෙක
##igt
##igion
##igenkin
සමපයෙ
සමපතවලට
සමපඩනය
සහතකයෙ
වැළකම
වැළකය
වැළපණ
සටයදය
2026
සයලදෙනාට
බලපෑමවල
බලපෑමවලන
තරගාවලයට
තරගාවලයෙන
තරගාවලයෙද
සාහතයට
චතරපටකරණය
චතරපටවලද
නවැරදදැය
15ක
150ක
1551
1518
ආදයෙන
ආදතය
ආදතම
ආදානයෙ
ආදශකත
ආදයටද
කමටවට
නතරම
නතරඟ
නයටගෙ
නයටරයස
රතකා
රතගම
රතඤඤා
සසනත
##තාවකන
##osus
##osis
##osph
##osition
##osystem
##osely
සමාගමෙන
පරවාහනයෙ
පරවාහනයෙන
වෙලස
වෙලාව
වෙලකට
වෙලෙහ
වෙලාවන
වෙලානෙ
වෙලගමගෙ
වෙලාවෙද
වෙලාවෙම
##නාගාරවලන
කැපෙන
කැපෙය
කැපකළ
කැපපෙන
කැපෙනනෙ
කැපවමය
අයරෂ
අයරවෙද
දැමවෙ
දැමමත
දැමමය
ආරකෂකලෙකම
මණඩලයය
වචනයෙ
වචනවලන
වචනාරථ
කළමනාකරණයට
ඖෂධයක
ඖෂධවල
25ක
25l
258
25දා
250ක
neal
neural
stay
stev
story
stef
stated
statist
steam
stud
stanford
standerization
අගයෙන
අගයට
අගතය
අගලල
අගරය
අගයකන
අගභාගයෙ
ආලොකයෙන
ආලොකයන
ආලොකකරණය
ජෛනයන
ජෛනාගමෙ
තදකර
තදකරම
තදකරන
නාමක
නාභගත
නඩවට
නඩතතව
බඳවැට
බඳළවා
මැනඩ
මැනවන
මැනමට
මැනමෙන
මැනලා
රසයක
රසයෙන
රසාසවාදන
රසොටො
සපොක
සපගැනම
සපකොඩ
සපමල
සපොනජයක
සතවාද
සතවයාද
සතවපොහ
සතනට
සතනවා
##භවයෙද
##rei
##rest
##reframes
##ශලතවය
සමාවල
පරකෂක
පරකෂනයෙද
කරමයකද
වෙදද
වෙදකමෙ
වෙදකමත
හැඳනවව
හැඳනවනෙ
මැදව
මැදවල
මැදකොට
මැදපෙර
මැදැඟලල
මැදහතවම
ලැබෙවා
බැංකවක
බැංකකරගෙ
බැංකකරණයට
වාරතාවමෙ
වාරතාවෙය
ආසනනයට
ආසනනයෙද
කාරයාංශය
කාරයාංශයෙ
කාරයාංශයට
ආයතනයය
කෂෙතරයෙන
කෂෙතරයට
කෂෙතරවලද
crc
cramer
only
ආවරතනය
ආවරතයකම
ඉරානය
ඉරමකට
ඉරණම
ඉරෙෂා
ඉරගසා
ඉරවෙරය
ඉරාකය
බදනනෙ
බදකරණය
බොනන
බොලය
බොංච
බොතතම
බොටටවක
බොටටව
බොලකන
බොයගො
ලයවස
ලයවලලක
ලයැවණ
ලයවෙනනට
වධවධාන
වහනසෙට
වහනසෙලා
වහනසෙලාත
##ෞල
##බසගෙ
##බසසන
පළලව
වයවසථාවක
වයවසථාවන
වයවසථාමය
හෙළය
හෙළව
හෙළකරය
හෙළවෙය
හෙළාදකන
1995
1992
1990
1991
1948
රැසකරගනනා
මරණයෙන
මරණාසනන
පනරකත
පනරතථ
පනරචචාරණය
පනරභවයෙද
අභයොගකර
අභයොගයට
අභයොගවලට
අභයොගයකම
හැඟමවල
ඡායාරපය
අලලවක
අලලනනෙක
අලලගතතා
ඇමරකාස
ඡනදයක
ඡනදයෙ
ඡනදයට
ඡනදෙට
නෑරම
නෑසනා
පතරණ
පතරයෙක
පතරයාට
මළලලෙ
මළතැන
මළමනසන
යාමත
රොහත
රොබන
රොයන
රොබට
රොපණ
රොයලස
රොයටර
රොකටසට
වාසගම
වාසදායක
වාසසථානයක
වපකෂයෙන
වපකෂයට
වපකෂනායක
වභාගයකට
වභාගයකන
සතවලද
සතවලදාම
##වමකද
##ema
##ems
##emical
##රණයන
##unick
##unities
##unami
##olish
##olomataceae
සංගතයෙ
සංගතයෙන
බලශකතයෙන
නරතනය
නරතදග
කාණඩවල
කාණඩයකට
කාණඩවලට
කාණඩවලන
සනනාමයෙ
සනනාමයෙන
සනනාමයට
ගැටලවල
ගැටලවෙ
ගැටලවට
යෙදමවල
andrea
අනතරජාලයෙ
අනතරජාලයට
බනධකය
බනධනාගාරය
260
30ක
311
combat
phoen
phosph
අගනවරද
අගනවසර
ඇරඹයෙ
ඇරඹමත
කථාංග
කථනයෙ
කථානතරය
කාමොදදපක
කමාරට
කමාරකාවක
කමාරරතන
කමාරතංග
කමාරයෙකගෙ
දශාවෙ
දශානත
දශාවට
දශානතයක
දෂණයට
නපදවා
නපදවෙ
නපදවමෙ
නපදවමකද
මදාහැරමෙ
මදාහැරම
යටව
යටපතව
යටවණ
යටවමෙන
යටඇඳම
වහනන
වහලය
වහදව
සෘතවෙ
සතරෙන
සතරයෙ
සතරයෙද
සතරනට
සතරවැන
##පකශන
##ulis
##ulous
##ulica
##ultz
##uldering
##ulator
##ulosus
##චචා
##චචෙන
සංහලයන
සංහලයට
පොතෙන
පොතපත
1988
කාචයක
කාචයට
නරමාණයෙ
නරමාණයනගෙ
නරමාණශලතවය
සභාවාරය
මහාචාරයවරයක
සමපරෙෂකය
මලාශරයක
මලාශරයෙ
මලාශරවලන
මලාශරht
පෞදගලකරණය
145
144
144ක
145කට
1492
148ක
1431
ඇඟෙ
ඇඟළ
ඇඟවමෙ
ඇඟවෙනනෙ
එනසයම
එනකොට
එනඑස
එනඩොර
එනජමක
එනැමලඩ
කමනතරණය
දනයය
නයායන
නයායට
භාරව
භාරයෙ
භාරගත
භාරගෙන
භාරගන
භාරදෙන
භාරගැනමට
භාරකරවෙක
භාරගනනෙ
භකෂනගෙ
භකෂකයෙක
හානකරමට
හානපරණය
##ෑනර
##cher
##church
##change
සමනලන
සමනතරය
පරවාහ
පරවාහණ
පරවාචය
වනොදකාමන
ශරෙණයක
ශරෙණයට
අවබොධයෙ
අවබොධාතමක
වටනාකමය
ගොනවක
ගොනකරන
ගොනකරමට
ගොනවකට
ගොඩයය
ගොඩගමව
ගොඩවාය
ගොඩබමට
ගොඩවැද
ගොඩවායෙන
ගොඩබසසන
##inframe
ගැඹරෙ
ගැඹරට
ගැඹරකද
සාමාජක
සාමාජකතවය
ගැටළවලට
සාරථකතවයට
පරමඛතාව
පරමඛසථානයක
ඡායාරපයන
ඡායාරපකරණය
ඡායාරපකරනයෙද
බනධනාගාරයට
බනධනාගාරගත
බනධනාගාරගතව
මෛතරගෙ
ඇනකර
ඇනඩර
ඇනජලස
ඇනතනස
එසෙත
ජෙනරල
ජෙනරෙටර
තහඩවක
දාහතර
දාහකයෙ
දාහකයක
පඩාවක
පඩවක
පඩාවකට
පඩාදායක
පඩපතෙන
බටපොත
බදධයෙ
බදධශා
භමයෙ
භමයෙන
භමදරශන
භමදාන
රපයලෙ
##ides
##idna
##ෂඨයක
##ඩරයකට
##රයකම
##apas
##ogram
##ogrian
වෙගයන
වෙගයකන
පැලැනවතත
##සයමහ
1976
1975
1971
නයොගයෙ
වශෙෂඥයන
වශෙෂඥයනගෙ
තොරාපත
පෙනවාදෙනනෙ
කෙරෙහත
අපරකානවා
අපරකානවන
##isha
ධනාතමකව
භෞතකය
අංගොලා
අහමද
අහමවන
ආදරශන
ආදරශයක
ආදරණයයන
උණකට
කපගෙ
කපයෙහ
කපපල
කපපම
කපපරතොට
ධවරයෙක
ධවරයනගෙන
නවකතාවක
නවකවදය
නාමයද
පාකං
පාකසථානයෙ
පාකලනඩ
පනදහසෙ
බංගලදෙශය
ලොවපරා
වෂයන
වෂයය
වෂමජ
වතයායට
වතැනවමක
හතදන
හතදෙනාගෙ
හතළහට
##වාරොහක
##ලයටත
##දවවතත
##agation
##aglio
පරභරමණය
පරභොජන
පරභාකරන
පරභාසංසල
පරථකාර
පරථපල
පරථලාභ
වසඳනන
වසඳනනෙක
වනදනයක
වනදනයෙන
වනදනාවට
##ෙසටෙරොල
පළවනද
ජනමතය
ජනමතවචාරණය
හැසරමෙන
1962
1968
1959
ඉනධනහල
ගොලයව
සවඳක
දෙශයව
දෙශයතවය
නතඥවර
නතඥවරයෙක
මැතවරණයත
වදයාවෙහ
වදයාවෙහද
සලවාට
සලකාබලනනෙ
සැකකරට
අධයාපනයක
අධයාපනයෙ
අධයාපනයෙන
අතදැකමවලට
අගමැතනය
පෞදගලකතවය
අතයවශයය
හවමාරවන
forbid
forrest
file
files
අඛණඩය
අඛණඩතාව
අඛණඩතාවය
ආචාරයවරන
ආචාරයවරනගෙන
ඉංගරසයෙන
කමල
කණව
කණාටවක
කණෂඨයක
කතලා
කතානායක
කතානතර
කතහලය
කතානදර
කතකාවට
ඩෙව
දෂක
දෂාන
දෂතම
දෂණයකර
දෘඪ
දෘශයක
දෘඩාංග
දෘෂයමය
දලලය
දලලයට
දලලයෙහය
පෘනක
බයගම
බයවෙලා
බයවැද
මදරත
මදරෙය
මදරණයක
මදරවෙක
වඳය
වඳත
වඳනනෙ
වඳභාවය
වඳරඹ
වාතයෙන
වාතනය
වාතාශරය
වාතාවරණයක
වහාරයට
වහාරටට
වහාරසථානය
වහාරසථානයක
වහාරසථනයෙ
සවරපයක
සවරගයෙහ
සවරපවල
සාධන
ෆරෙම
ෆරඩම
ෆරගසන
ෆරෙසන
##ායනක
##දකවා
##terbau
පරණතවයෙ
පරණාමනය
පරාවසත
පරාවටම
පරාවෘතතයෙ
පරාවෘතතයට
සංකෙනදර
අනාවැකය
උපකරණයෙ
අධයකෂවර
අධයකෂකා
අධයකෂවරයෙක
මනසෙහ
ගොඨාගෙන
කැඳව
කැඳවමට
කැඳවනවා
කණඩායමකම
තනතරෙ
තනතරවල
තනතරවලන
කෙරණෙ
කෙරණත
කෙටස
කෙටෙර
කෙටකාල
තරඟාවලයක
තරඟාවලයෙන
පරාණතම
පරාණවතව
පරාණොකතවෙ
වෙළඳාමෙ
##මාරගවල
නයටරෙස
නයටරජනය
මෛතරපාලනය
තහවරකර
130
13කට
13දෙනෙක
130ක
1300ක
277
270
278
278ක
frog
franch
wiqu
wireframes
අයෙකගෙන
ඇතවාක
ඇමතම
ඇමතන
ඇමතමට
ඇමතමක
දළගම
දළවලට
දළවලන
ධරයෙන
ධරයන
පානයෙන
පානපර
බොගයට
බොගයනද
බොගහවතත
වෘතතමය
වෘතතයෙහ
වෘතතකයක
වෘතතකයනට
වෘතතකයනගෙ
සලකය
සලකනනෙ
##කඩෙ
##කඩවල
##ටයස
##රවරය
##look
##ොපණය
##ොපමනට
සහයදෙය
කොපප
සටමටය
නොතැක
නොතබා
නොතෙරෙනනෙ
උපායශල
උපායමාරගවල
හැඩක
හැඩයක
හැඩයකන
හැඩෆලඩ
අපහසවක
අපහසවෙන
අපහසතාවකට
අපහසතාවලට
අපහසතාවට
අපහසතාවකන
හමදාවෙ
හමදාවන
හමදාවනට
සයවසකට
පහළන
පහළයාම
පහළොවය
ගැටමවලට
රැසකළෙය
පාරලමෙනතවෙන
වෙළෙඳනට
වෙළෙඳනගෙ
සංවධානවලන
පාඨක
පාඨයක
පාඨකයාගෙ
පාඨශාලාව
භාෂාවලන
ගණනාවකට
වශලෙෂණයය
සංඛයාව14
තැබණ
තැබෙන
තැබමෙ
මෘදකාංගය
මෘදකාංගයට
මෘදකාංගවල
newton
000ට
000ත
000කට
arton
arvind
chron
change
chiov
channel
chatbot
chicag
chamber
chemical
made
mahd
makes
major
mainframe
අනාශයෙ
ඉතරකරම
උදයානය
උදයශානත
උතතෙජනයට
උතතෙජක
උතතෙජනයනත
කඳා
කඳාන
කඳවැටයෙ
චරතය
චරතයක
චරතයෙ
චාරලස
තහනමක
දායකයන
දායකතවයන
නාමයෙන
නාමකරණය
නාමමාතරක
පණපස
පණයායතන
බොලයෙ
යැං
යැවන
යැපෙන
යැපම
වණත
වළකන
වළකවමන
සවලම
සබැඳයට
##ගැමණ
##avia
##avaglio
##utional
##බෑවල
පරහමට
පරහමක
පරහමකට
##තවාදනට
වයසනය
වයසගත
සැසඳම
අධකාරවරයා
අධකාරවරයෙකට
අධකරණයක
අධකරණමය
අධකරණයනහ
කොටසකන
බැලෙන
බැලමක
බැලමෙද
බැලවහොත
බැලවෙම
##ardian
රැගෙනයාමට
##ente
##ented
සනධානයෙන
සනධානගත
සනධානයකට
සනධානගතව
සථානයකම
චනදරයා
චනදරරතන
චනදරපරභගෙ
චනදරසෙකරන
සනනවෙදනයක
කරඩකයනගෙ
සැලැසමෙ
සැලැසමට
සාහතයයෙ
සාහතයයට
පරවැසයෙක
අගනවරට
අගනවරදය
ශරෙණයෙහ
පරථමවරට
පරථමාධාර
cb²
pro
prop
prost
prayer
prunick
program
අගරාමතයවරයා
ආකරශණය
ඉදණ
ඛණඩයෙන
ඛණඩකන
ඛණඩවලන
ගවනසෙවා
තෙරණය
තෙරමට
තෙරපා
තෙරපම
තෙරෙසා
තෙරෙනවා
පැනමට
පැනවය
පැනමෙන
පැනවම
පැනයය
පැනගොස
පැනතරා
පැනවමත
පැනාඩ
බොරහා
බොරොන
බොරලව
බොරලනද
බොරසාද
බොරැලලෙ
බොරනයොට
බාධකය
බාධාවන
බාධාවකන
මගයෙක
මගදෙශවර
මගගනමතත
මදවා
මදණහොත
ලඟවෙ
##පපව
##htag
##ොනයාව
කරතෘ
කරතයක
කරතබණඩාර
පරශලන
පරශානත
පරශානතන
පරානතයකම
වෙඩතැ
වෙඩතැබ
පැදවලට
පැදවමට
පැදකරට
තරණයකර
වරෂාව
වරෂාවක
වරෂයකට
වරෂාවෙන
වරෂාධක
වරණසරය
නොවැළපෙම
දෙවයන
දෙවවරන
දෙවපතර
දෙවගරවතත
අවදානය
උපදෙශකයෙක
උපදෙශකයනට
මහතාටද
මනදට
මනදකට
පරදෙශයෙදම
පතකරගත
පතකරමෙන
පතකරගෙන
පතකරගැනම
පතකරවෙක
බලපෑමට
බලපෑමත
බලපෑමෙන
බලපෑවෙය
බලපෑමකන
බලපෑමෙද
රැසවනනට
රැසවමෙද
ආසාදනයවම
සපරශයෙන
සපරශයට
සපරශයකන
රාතරයෙද
රාතරයකම
කෘෂරසායන
සමනවතය
ගොඨාභයගෙ
ගනදෙනව
ගනදෙනවට
ගනදෙනවෙද
වෙළෙඳාම
වෙළෙඳමය
වෙළෙඳපලක
06ක
06ට
242
244
env
enable
energ
enser
entre
lankan
අඟවා
අඟවත
අංකයක
අංකයෙ
අංකනය
ඝනතවයෙන
ඝනකමට
ඝනතවයකන
ජවතවල
ජවහරලාල
ජරමනයට
ජරමෙනයම
ජලාශ
ජලාශයක
ඩොලරයකම
දමනෙද
නළය
නළවන
නළයනගෙ
නළවො
බළව
බළඳයකට
භටයා
භටයනට
මවහත
මවකර
මවබම
මවාවෙනවා
මතකඩ
වංචාවක
වංචාවන
වංචනක
වංචාවකට
සනාසණාය
##මානව
##iakoff
##ists
##රනග
##ධරමාලනකාරය
##ube
##ople
##opari
##opagation
##ocol
පරජාවක
පරජාවන
පරගතයෙ
පරගතයට
පරසථාරය
පරගණකවල
වැලගම
වැලෙනස
සංසථාවක
තබයදම
නොවෙම
ලබයද
සැපතැමර
උපාංගයක
පදගලයාගෙන
පාරශවක
192ක
1926
1925
1920
1920ද
දරසථභාවය
මනොභාවයක
කාලගණවදයා
පරදෙශයවල
අනතරවශව
දැනවතභාවය
දැනවතකරමෙ
දැනවතභාවයකන
වයාපතයන
වයාපතයකට
පරකාශයකම
වචලයය
නයොජතයක
නයොජතයනට
නයොජතයාට
නයොජතයෙකට
සංසකෘතයට
සංසකෘතයකට
කෘතමව
රපවාහනයක
ජනාධපතවරයාය
ජනාධපතවරයාගෙන
වනාඩයකට
සාපපවක
සාපපවෙන
පැලෑටයක
නයටරජනහ
අගරාමාතයධරය
22ය
220
280
287වන
deck
perrieri
try
trenc
trich
trong
training
travaglio
unp
union
unity
unique
unclos
ආධාරව
ආධාරකය
ඇඳක
ඇඳෙන
ඇඳමක
ඇඳෙහ
ඇගෙම
කෑහ
කෑල
කෑවෙ
කෑලල
කෑවාය
කෑගලල
කානතාර
ගවෙෂක
තරමන
තරමාන
පවරව
පවරපොයනට
පවරසනකලම
පලපනයට
මොරල
මොරාන
මොරයං
මොරොකකොව
මසලමවර
මසලමවරයෙක
රචනය
රචනයෙ
රචකතවයට
ලපගොන
වකරමරතන
වකරමබාහ
වකරමානවතය
සෑමට
සෑදමෙ
සසවා
සසලන
සසෙකස
හයදරාබ
##ebi
##ebrat
##ebate
##ebook
##umi
##ums
##ksang
##ාරමකරවෙක
පරයෙෂණය
පරයෙෂක
පරයෙෂණයක
වසතවකට
වසතවෙහ
වසතවනට
වසසය20
වනසරන
වනසරගෙ
වනසරවර
වනසරවරන
වනසරවෙක
වනසරවනට
සංකරානත
සංකරානතයක
සංකලනය
සංකලතාවයක
සංකලතාවයනට
එකතවම
එකතවෙන
වශෂටය
වශෂටතම
සදවමවල
සැමයා
සැමසන
සැමදන
උපරමයෙන
උපරමයට
අමලාගෙ
නැගෙනහරට
දරඝායෂ
සථාවරයන
කැලණය
කැලෑවක
නරපෙකෂ
නරපණයට
නරදෙශයක
නරකෂණයට
වලංගය
වලංගද
වලංගභාවය
ලැබණත
රැඳමට
රැඳවම
රැඳසටයද
සභාවෙද
පාසැලෙන
පාසැලෙහ
වදයාලවල
සෙවාවනට
සෙවාවනහ
නගරයෙය
උදෑසනත
වායගොලයෙ
වායගොලයෙන
තාකෂණයෙන
රාශයකම
##ොමබයා
හඳනවාදෙන
වරතමානයෙද
දොෂයෙ
දොෂයකන
දොෂාරොප
සංශොධනයද
සංශොධනයත
කපපාදව
ගෘහසථව
299
2345
233ක
අහසන
අහෙතවාද
අහවෙනන
ඇසමෙන
ඇසලලෙහ
කැනල
කැනෆලඩ
කැනොපස
ගඟය
ගතවම
ගතවණ
ගතවෙනන
ගතවනනටත
මඟද
මඟහරවා
රණසංහ
ශබදයක
ශබදකො
සකච
සකසය
සකොච
සකවරස
සකෑනර
සඟතතය
සඟතතා
සඟරාවල
හඟයට
හඟයකට
හඟවමන
හඟතාවයක
හඟරාන
හඬා
හඬට
හඬවල
##ාංශක
##නකොන
##ැසයනට
සමාලොචනයක
පරෂයෙක
කරමානතයෙන
කරමානතශාලා
වෙරෙකර
සදානමකර
##ාධපතතවයෙ
දරශනසර
##antson
කැටොලය
කැටඩොක
කැමරාවක
බරපතළ
බරපතලම
බරපතලකම
2013ද
නතපතට
නතපතගෙන
##endo
##endent
##endae
100ට
1007
100කන
වගවෙහ
අවසථාවකම
අවසථාවකටම
තතතවයකය
කඩදාසයෙ
කඩදාසවල
කවදැය
කළමනාකරණයෙ
වනාශයෙන
වනාශකාර
තරගාවලයෙහද
වළකවාලමෙ
කානතාවකට
කානතාවකගෙන
02ක
02වනදා
215
212
210
calcar
අයටඑන
ආශාවක
ආශරය
ආශාවෙ
ආශවාදයක
ආශාවනගෙ
ඕසටරෙලයාන
තාරක
තාරතාව
තාරකාවක
තායලනතයෙ
තොගයකට
දඹලලෙ
දකෂයෙක
නමනද
පැකටටවක
පැකළණ
බෙලජයම
බෙලඅතත
මංගචච
මංගලයෙය
යථාරථය
යථාරතයට
ලහලව
වජයලාල
වජයගරහණය
ශලපනට
ශලපයෙකට
සොරන
සරයාවෙ
සරයවැව
සරයආරචච
සජතගෙන
ළමයක
ළමයනට
##හදවට
##over
##ods
##odai
##ffenber
##ොඩරස
සමදරය
සමදරාගම
පරාගණයට
පරාගඓතහාසක
පරශනයත
අනපළවෙලක
අනපළවෙලකන
අනපළවෙළට
පළවෙලය
පළවෙලෙ
නොලබය
දෙවලලය
ජනපරයතවයක
ජනපරයතවයට
දකවනවා
අධකෂණයට
මහෙසතරාතට
මහෙසතරාතවරයා
1932
1931
නැරඹය
ගොදරව
ගොදරවම
ගොදරවමෙ
ගොදරවෙමන
සයලලම
සයලලනම
කැමැත
සරටටවලට
අයදමකරවනගෙන
අයදමපතරය
පෙරහැරට
කෞෂලය
කෞශලය
වවෙකයකන
වවෙකාගාරය
වවෙකාගාරයක
පාසකල
නවසලනතයට
නවසලනතයෙහ
රෙඛාවක
රෙඛාවෙ
රෙඛාවට
රෙඛාවකන
රෙඛාවෙද
රයදරට
රයදරෙක
රයදරනට
රයදරනගෙ
ලාංකකයනගෙ
ලාංකකයනගෙන
වැළැකව
වැළැකවමට
සමාගමකවන
පවතවාගෙනයාම
සකනධයට
සකනධවල
සකනධයය
සකනධයෙහ
සකනධයටද
සංකරමණකයෙක
වෙරළෙ
clay
shir
shad
sharat
shaqu
shells
ආබාධයක
ආබාධයකට
ආබාධවලන
ආබාධතයන
ඇටයක
ඇටයෙ
ඇටඹඔ
ඇපමත
ඇපොලො
එබැවනම
කලපටය
කලපොළ
කලපනාවෙන
කලපැවැතම
දානන
දාසය
දාශය
දෑල
දෑමණ
දෑතන
දහවල
දහනායක
දහහතවන
දොරටව
දයතලාව
ධරමපාල
ධරමදාස
ධරමකරත
නවනතම
නවතන
නවතත
නවරතන
පාවචච
බාරද
බාරදෙන
බාරදමෙ
බාරදෙය
බාරසලොනා
බදරවකනද
බහලතවය
මඩව
මඩයා
මඩපාත
මනාපය
වනනන
වනනාව
වනනතර
වනනමතත
වෂයයන
වෂයභාර
සවනදමෙ
සවනදෙනන
සවනෙශතරෙය
හතරකන
හතරදෙනා
##ලවො
##දගටත
##පෙනඩනහ
##razen
##quel
##ාවයගෙ
india
indep
indesign
පරයතනයට
පරයතනවල
පරෙමචන
පරෙමලාල
පරෙමවනතය
සහනයකන
සංසරගය
සංසරණයට
සංසරගයකට
සංසරගයෙන
සංවරධනයෙ
අනමැතයට
අනාවරණයත
වරායෙන
වරදකරවන
ජනරාවරයාට
ජනරාලට
ජනරාලගෙ
පරතචාරයන
මහාවංශයෙ
මහාවගග
මහාවහාරයෙ
මහානාම
මහානගර
දරවනව
හමකරට
හමකරගෙන
හමකරවො
හමබනතොටන
නයෂටයෙහ
රාජධානවල
රාජධානයද
මතපටට
මතපෙත
වශෙෂාංගයක
දැනෙනවා
දැනෙනවාද
දැනෙනනෙ
පකෂපාතව
ඉදරයටත
ආකාරයටම
අලතෙන
අවසථාවෙහ
අවසථාවෙදම
ලකවවන
ලකවමෙන
ආරකෂාකාර
##පොළෙ
##ection
##ectory
##ectric
සමමානලාභ
දෙසැමබරයෙ
සළඟය
සළඟට
පහසවෙනම
2020ට
පරකෂණයකට
ජෙනරාලවරයාගෙ
දනදසනක
පාකසතානය
පරජානනයන
තායවාන
පරායොගකව
exe
explor
excel
examples
exchange
scale
scient
scrum
scopari
works
worker
අනයත
අනයයනගෙ
අනයොනය
අනයසාමයක
අනයතරථක
අරමණය
අරමණක
අරමපදම
අතතයෙද
අතතඩය
අතතනමල
ඉසදන
ඉසසර
එදාත
කතාවසතවට
ගසවා
ගසවල
ගසවලට
ගමනාගමනයට
තයෙනන
තයෙනනෙ
තබනෙ
තබනා
තබනද
තාපන
තාපසයනගෙ
දටවොත
දටවෙම
දටගැමණ
දපව
දපාන
දපපත
දපවංශ
දපවංශය
පෙශවල
පාදස
පාදම
පාදමය
බාලහ
බාලවයසකරවෙක
බලලො
බලලෙක
බඳනක
බඳනෙ
බඳනෙන
මොකක
මොකො
මොකකද
යගයෙන
යගවලද
රතනපාල
රසයානවන
රසයානවනට
වවෙචනය
වවෙචකයන
හනදය
හනමා
හනසනෙන
හනොනමාදයෙ
##imus
##imple
##තනයඩ
##seff
##upled
##බකනන
කරගතතා
සමමෙලනයෙහ
සමකරණයෙන
සමකරණයකන
පරනමන
පරනැමය
පරවරගය
පරවරතන
පරවරගයක
වනානතරයෙ
නොමග
නොමඟ
නොමෙර
බලධාරයක
බලධාරනට
සදකළෙ
දෙදෙනාට
ජනවාරගක
හැරමෙ
නැගමට
නැගමකට
කටයතතත
බැරෑරම
සවභාවයන
සවභාවයකන
සවභාවයෙනම
පටවතරා
පටවහලක
හරනගෙන
දැරයට
2012ද
සතටකන
##ence
##encia
වවනයාවෙ
වවනයාවෙන
අලංකරණ
අලංකරණය
සැකසවනට
දසානායකගෙ
උදවවක
උදඝොෂකයන
උදඝොෂණයට
මාලාවකන
හමදාපතත
ලකෂයයට
ලකෂයයකම
ඉතහාසයකන
පරකෂාකාරව
පඩනයත
දෂකරතාවයට
ෆරැනසන
ආයධයක
උදයානයට
උදයානකරණය
උදයානයකට
යාවතකාලනව
danujayapas
ශරෙෂඨයන
masturbating
ca²
guide
gujarat
guerra
guardian
malik
malpass
malinga
toward
අසලද
අසලවැසයනගෙන
ආලෙප
ආලෙපනය
ඉංජනෙරමය
උසලය
උසෙහ
උසැත
උඩම
උඩකර
උඩවර
උඩගම
උඩදම
උඩකඳ
උඩවලව
උරමය
උරමයක
එදනම
ඔෆෙනබැක
කලනටන
ගායනාවල
ඩොටරස
දලකා
දලසෙන
දලරයෙ
දෛශකයක
දෛවොප
බෙදමෙන
භකතමත
භාගයක
භාගයකම
භාගයෙහද
මායමකට
මොහොමඩ
ලයනස
ලයනවා
ලයනවාක
සකරපට
සපතතවට
සතාස
සතාසය
හලො
හලනනට
හලෆගර
හලදවවතත
හණගල
හණපටය
##ලසෆලඩ
##audatus
##ැලලා
##බානහ
interhat
interconn
interactive
පරයසදධ
පරමතයක
පරමතයෙන
පරමතගත
පරමතයකට
පරමතනට
පරමතකරන
සහයොගයක
වසංගතයෙ
ඇතලවන
ඇතලතය
මෙජරවරන
සංසදය
සංසකරණ
කළාතරකන
පැරැණ
සටනනැය
තරගමාලා
පදනමට
සදසද
සදකරත
සදකරමන
මලධරමයය
මලධරමවලට
මලධරමවලන
කරයාවනවලන
උපනදන
උපනගරාධපත
උපොසථයෙහ
උපොසථාගාරයක
උපොසථඝරය
අමලකර
අමලකරණය
අමදරවයයනහ
මැසවල
මැසචසෙ
මැණකක
කැපටනවරනගෙ
නරකශණය
සරතානතයට
දෙනාගෙ
වදෙසගත
වදෙසගතව
ගැලපෙ
බැඳමකරය
ආරවලවලට
වමසමවල
වසරෙහදය
වයායාමවල
වයායාමයකන
##ically
සනසනකමෙ
පරවණතවයට
වැදගතකමද
වඩයොවක
නලධාරයෙකගෙ
රෙගව
රෙගවෙ
රෙගවෙද
රථවාහනවලන
වශලෙෂණයෙ
වශලෙෂණයෙද
උදාහරණවලට
ගොඩනැගමය
අයරලනතයෙ
අයරලනතයට
අගවනසරට
අගවනසරවර
අගවනසරවරයාගෙන
කාරයාලයෙන
කාරයාලයකට
අභයාසයෙ
අභයාසවලට
පරශලකයන
පරශලකයාට
අනරාධපරයෙ
ඩොලරයට
නරවදයභාවය
නරොධායනයට
07කන
03ක
00ට
00s
assi
askar
aslaks
ascii
its
itamar
items
mint
minimus
select
selous
selected
selling
selfish
selenological
අබෙව
අබෙවරධන
අකාරාද
අකාරයෙත
ඉකතව
ඉකතවන
ඉකබත
උලපත
උලපතක
උලකාෂම
උනනදවෙන
ඔසටරෙලයාන
ඔසටරෙලයාවෙන
කලකයක
ඩයගම
තයාගය
තවකකට
තනදහස
තනදවට
දනනාය
දනනවාද
දවසකට
දෂණයෙහ
පයනෙහ
පපරමට
පෘතගසන
පෘතගාලය
බජං
බජජම
බැකටරයාව
යරපඩස
රවනඩ
රවනපරෙ
රහණෙ
ලනඩනයට
ලොවා
ලොවස
ලොවක
ලොකාය
ලොතරැය
ලොසනජස
ලොලනගෙ
වජතවල
වජයානනද
වජෙසංහ
වජතවාදනට
ශාසතරය
ශාසනයත
සරමා
සරමන
ළමනට
ෆයසන
ෆයසලය
ෆයචර
ෆයසනට
ෆනලනත
ෆනලනතය
ෆනෑනස
##ාණවක
##ගාඩ
##ඩලකාර
##ැලකෙ
##ratigraphy
සමහයනට
සමතවමෙන
පරදරශනයට
අතරදහනව
එකකටම
පොළෙ
පොළව
පොළො
පොළකය
පොළොව
වරගයය
වරගයද
නොකරමන
නොකරනනෙ
නොකරනනැය
නොවමය
##සකලරකරණය
අවශෂට
අවශයතාව
අවශයතාවක
පරතදාන
ඉනදයන
ඉනදයා
ඉනදචනයට
දරවලකරන
පෙළඹෙ
පෙළඹමක
පෙළඹණෙම
අඩවයත
ගණාතමකභාවයය
පෙරළනන
පෙරළෙය
සභාපතවරන
සභාපතවරය
සභාපතවරයෙක
තෙවනව
ගරහණයක
ගරතවජ
සනහවක
සනහවෙන
කෙළනා
අරගලයක
අරගලයෙ
අරගලයන
අරගලයෙද
ආණඩකාරයක
ආණඩකාරයෙක
ආණඩකාරවරන
ආණඩකාරවරනගෙ
ආණඩවකද
දැකවහ
දැකවණ
දැකවමෙන
දැකවවාය
මහාධකරණයෙ
මනතරවරනව
භාෂාවකන
මණඩලවලට
මණඩලයෙනද
##etson
ලාභයෙන
පරසදධය
පරසදධයෙ
අසතයද
දසතරකකවල
දසතරකකයෙහ
දසතරකකවලත
මතරනගෙන
ලෙඛකයෙක
ලෙඛකයනගෙ
ලෙඛනාගාරවලන
ලෙඛනවල
අමාතයාංශයට
ජෛනයනට
කානතාවගෙ
කානතාවනට
කානතාවනගෙ
පනරාවරත
සමපරෙෂණයෙද
ඇඟලවලන
වටනාකමවල
දෘශයමාන
බලපෑමකසෙ
උතසහයෙ
කෞතකාරය
මනාපවල
මනාපයනට
කෙටමපතට
කෙටමපතන
worldwide
worldover
ඉංජනෙරවන
ඩොමනකල
ඩොමනොච
https
35ක
35a
355
354
350
5500
500ය
5000ක
907ක
909ට
916
best
beat
behav
beij
begin
beesianus
benef
bennett
conser
convol
emd
emmons
email
emilia
fertil
gross
gracilis
greogrian
mount
myron
mytholog
reque
regg
webelem
අටෙන
අටවක
අටෙහද
අළතන
අසනගනමන
අහසතලය
අසමතව
අසමපරණය
අසමඟව
අසමමතන
ආගමවලට
ආනයනයෙන
ඇදගනනා
ඉනනවනෙ
උෂණතව
උෂණාධක
උෂණතවයකද
එසෙකස
එළඹමත
එළඹයෙය
ඔකසකරණය
ඔකසඩස
ඔකසෆරඩ
කෘතන
කෘතයක
කෘතයෙන
කෘතහසත
කනදකැටය
ගාසතව
ගාසතවත
ගාසතවට
චකතසා
ටකෙන
ටකකට
තවරතාවයකන
නටබන
නටෙලස
නමකොට
නමකෙරණ
පෑය
පෑවෙ
පමපම
පමබෙන
පහනක
මංතර
මංලයය
මංපෙත
මංජල
මධයනය
මයකොලොජ
මහරරම
මශරණයක
මශරනයක
රදමක
රදවම
රදමා
රදමයානකල
රොමයෙන
රොමයට
රොමවරන
වතරෙන
වයනය
වයනාහ
වලකවා
වලකහා
වගනත
වගනතය
වහළව
වහළවට
වාහක
වාහකයනට
ෆොනටෙරා
##මමඩව
##වහනසෙලා
##ංහගෙ
##ainst
##ෘදධයට
##kees
##keem
##bakan
කරාබනැට
කරවනගෙන
සමළවෙ
සමළවෙහ
පරකටතවය
පරචාරණයට
සහකරට
සහකරවකගෙ
වෙහෙර
වෙහෙසට
සංගරාමයක
සංගරාමයෙ
සංගරාමයය
එකලකෂ
කොනදොසතරවරන
වරජනයෙ
පදාරථයනහ
වෙනනපපව
සැමරෙ
සැමරමක
අවධයක
අවධයය
අවධයෙහ
අවධමතව
පදගලාරොපණය
##වැතවම
හැදවෙ
දරවෙකගෙ
ගොවහ
ගොවයාට
ගොවපලෙද
කාලසටහනගත
නරපනයක
නරනතරව
නරනතරයෙනම
සරසගත
සරවකරමපර
සරදඬවම
සවදෙනෙකට
තළටද
පවතපතක
පවතපතෙ
පවතපතෙහ
##ariya
##ariats
නරමාංශකයෙක
කහපයෙද
පොහොටටවක
අභරචගත
අභරචකරණය
අපරකාවටත
අපරකාවටය
කෙතකරණයෙ
අරථවත
අරධයක
තරඟකාරතවය
තරඟකාරතවයක
තරඟකාරතවයන
පහටවනවා
ආරකෂතද
එරටරයාව
ඝාතනයෙන
රාහලට
අපෙකෂාකරන
සංඛයාවකන
තැපෑල
ඵලදායතාවය
ඵලදායතාවයක
ඵලදායතාවයෙන
වකණනවා
මහජනතාවගෙ
අගමැතකම
අගමැතවරය
සපයාගත
සපයාගනනට
##undifolius
දශකවල
යටතවැසයනට
සංශොධනයෙන
පෘෂඨය
පෘෂඨයෙහ
කොපමණද
සැසඳමට
සැසඳමෙන
කෘෂකරමයෙ
කෘෂකරමානතයට
කෘෂකරමානතයෙන
ජනමාධයවෙදනට
ජනමාධයවෙදනගෙ
වෙළෙඳපලට
වෙළෙඳපලවල
යතරපැදය
universed
රචනාකොට
අහොසකරන
පරයොජනවතද
බෙලහනතාවයෙන
නොලැබමට
නොලැබණොත
යොජනාවලය
නොමලෙම
චොදනාවට
ශාඛා
ශාඛාවක
orgern
නවාඩවෙ
ගානධට
ගානධගෙ
ගානධටත
ගානධාලගෙ
නෛතකව
493
490ක
401k
adams
black
bless
fine
good
head
hejri
heine
ipx
macilent
sport
split
spatula
species
serie
server
servic
අවනත
ආදෙශකයක
ඇඹමට
ඇවදනන
ඇවදමන
කසවෙකටත
ගලකොර
ගලකෑරා
ගතකව
ගතකළ
ගතකයන
චමල
ජොසෆ
ටයල
ටයරනග
ටරලයන
ටරැෆරඩ
ටරෙනටන
ටරානසෆො
තඩයෙක
තදනම
තෘපතයක
තෘපතමත
නාසකරණය
බෑගයක
බෑගයකට
බොකො
බොකකෙහ
මණසංහ
මණබරා
මකරාකෂය
මදනෙ
මදනෙහ
යතවම
යගලම
යගලනය
යොගට
රඟහලෙද
රෙදපළ
රෙදදෙ
ලතොගරැෆ
ලොහාන
වකරව
වකරසංහ
වපතත
වභවයනට
ශතවරෂයෙ
ශතවරෂයෙද
ශතවරෂයකට
සදරෙ
සදරවලන
සදාචාරය
සජවව
හවලව
හවලකාරතවයන
හවලකරවනගෙ
හනදයෙ
##ronatus
##rapods
##29ෆැසසට
##ketgu
සමමනතරණය
පරෙකෂක
පරෙකෂකයනට
පරෙකෂකයනගෙ
සහනාධාරය
සහොදරයන
සහොදරකම
සහොදරයො
වැරදන
වැලකැටය
සංරකෂණය
සංසනදනයක
සංරචකයක
සංවාදයකද
අනපාතක
අනපාතයෙ
පළගනත
##දරවො
කොනෆරන
කොනහොල
කොනඩටා
කොනගරසයෙ
කොනසරවෙටව
කොනකඩවල
තරකනය
තරකවලන
වශරාමයෙන
වරදධය
නොවයැය
ශරතාවලයටත
පදමයෙන
පදංචකරවනගෙන
බලවෙගයෙන
සදසකමවලට
දෙමාපය
දෙදෙනාටම
සෙවනැලල
සැඟව
සැඟවය
සැඟවණ
උපාධයක
උපාධධාර
අදහසකද
අධයකෂණයට
පරතසථාපත
පරතසථාපන
වසනධවම
1912
1911
1915ද
මැඩලමෙන
මැඩලම
මැඩෙරා
නැටමවලන
දරවාගෙ
##ance
නයැළණ
යොදනන
ගැහැනන
ගැහැනනට
බැසසවමෙන
සවඩනයෙහ
පතනව
ආරාධත
ආරාධනයක
අයසසයෙ
හරසවෙලා
ඉනදයාවටය
දැනගතහොත
තනතවක
ආරමභයද
තෙමාව
තෙමාතමක
තෙමාවට
2010s
ගරෙගොරයාන
ගරනථය
ගරහලොකයක
අරබදයක
අරබදයෙ
අරබදයෙන
අරබදකාර
අරබදයෙද
අරබදයකට
ගෙදරක
සාගරක
සාගරයට
දමපෙ
වරොධතාවයනහ
සැලකලලෙන
පොලසපතට
සෙවාවලන
සෙවාවලට
දපතමතම
යොදාගනත
මොසතරයක
ඒකාධකාරය
ඒකාධකාරතවයක
ඒකාධකාරයන
දසතරකකයද
කෙනදරයෙ
කෙනදරගත
කෙනදරසථානයක
කෙනදරගතවෙ
කලාපයෙන
කලාපයනට
කලාපයනහ
සාකචඡාවකන
ගැටලවකට
commonwealth
commission
කථානායකගෙන
කථානායකවරයා
කථානායකවරයාගෙන
අයවැයකරණය
ඇනඩෲ
බලපරදෙශයක
සැකකරවෙකව
අධයකෂකවරයෙක
withdraw
කටටලයෙන
පාපවහනසෙගෙ
##lowing
##lowback
නොතබමය
අනාගතෙ
අනාගතයක
අනාගතයෙ
ගනදෙනකරවනගෙ
ගනදෙනකරවනගෙන
ජලාපවාහන
ජලාපවහනය
ජොනසනගෙ
පරජාතානතරක
අගරාමාතයවරයාට
කැලෆොනයා
යහපතට
දඹලලෙන
score
scored
වපලවකාර
සතකාරකතවය
internationally
තරගමාලාවට
තරගමාලාවෙන
වමරශනයට
අකාරයකෂමතාව
තයාගනන
ශාසතරයට
ශාසතරාලය
කොනදෙසය
කොනදෙසවලට
යතරපැදයකන
ඊළඟට
උලලංඝන
එජාපයක
එජාපයෙන
ටනබරගෙ
පරතවපාකයක
තරකණාමල
තරකණාමලයෙ
වශරාමකයනට
පොරොනදවක
524
75ක
759
87ක
alons
algor
albus
bob
boot
bouldering
dry
drama
drums
gehr
geological
icu
opus
opport
pierc
supper
vibrator
you
අකණක
අකැප
අතවලන
අතවශෙෂ
අතවඳය
අතවදනනට
අගරවාත
අගරකෘත
අමතකමට
අඳරෙ
ආයොජනයකන
ඉමොජ
ඉවසා
ඉවසනන
ඉවසලවනත
ඉවතවන
ඉවතවමෙන
උනවහනසෙලා
උපයොගතාව
එතමට
එතමෙ
එතමා
එතැනන
එතළන
ඔසටරයාන
ඔසටරයාව
ඔසටරයාවෙ
ඔසටෙරලය
ඔසටරයාවට
කයකනද
කැකලා
කැකලො
කැකලනට
කමරගෙ
කමරෙකට
කනටෙනර
කනටෙනරය
කනටෙනරයෙ
ගඩෂෙඩ
ගතයතව
ගතයතතෙ
ගදයමය
චතගොං
චාලට
චාලස
චරයාතමක
ඡෙදයට
ජවනදර
ජොරඩන
ජොරදාන
ජවතවම
ජවතවමට
ජවතවනනො
ටෑංහ
ටොපං
ඩරහැම
තෙනනකොන
තෙනඩලකාර
තොටපොළෙ
ධමමාතරාම
නායයෑමට
නතනයෙද
පංකාව
පංතයෙ
පලෙඕෆ
යානතම
යානාවල
යහළවක
යහළවනට
යහළවනගෙ
යානතරණයන
යානතරණයකන
රළට
රොදයෙ
ලහබැඳ
වභනන
වභතය
වභෙදනය
වනයටට
වවනයා
වලාසය
වොලට
වොලටර
වජතපර
ශාලාවෙ
ශාලාවකට
ශරමා
ශරමාල
ශාලාවල
ශාලාවද
ෆෙරමොන
##කදානං
##izer
##sonaro
##okoensis
##ostic
##ostatist
##ostratigraphy
##jriwal
සමයහ
සමබරතාවයක
සමාවනහ
පරාසාදය
සහායකයන
සහායකයනට
සහායකයනගෙ
වැලමලල
සංයතයට
අනදකාරය
පළබොධකයනට
පළබොධනාශකයක
පැමණයද
පැමණයත
තබනනෑ
තරථයො
තරථංකර
පොසලයන
නොඩයට
නොපැවැතවමට
නොපැළඳ
නොපැවතණ
නොගැඹර
නොගැලපෙන
නොගැලපණ
ශරනාත
ශරලනපය
බලොගයක
බලොගකරවන
සදවෙනවා
මලකටද
දෙයයල
දෙයයනනෙ
දෙවැනයට
වෙනදාට
දකනවා
අමරකාවෙ
පරතශොධනය
පරතශොධනයෙ
හැදනව
හැදනවෙ
හැදනවණ
මැතනයගෙ
නැඟෙ
නැඟට
නැඟෙනහර
##angler
ජාතකයනගෙන
කැඩණ
නයජරයාවෙ
නයැදයක
නයැදවල
නරතවමට
නරතවෙනවා
පරදෙශවාසනගෙ
ආරොපණයක
ආරොපණයෙ
පටපෑම
වරගකරණයක
දැවයාම
දැවැනතයා
නරමාතෘවරයා
කාංසාවනට
කාකෂකවලට
මරදනකාර
පෙනෙනනට
මටරං
මටරයකට
ගමනානතයකට
කලබලයට
අභවෘතතයෙ
අභවෘදධයට
අභපරෙරණය
දයානකමපාව
දමනනැය
පරදානයන
පරදානතවයෙන
කරඩකයෙකගෙ
පැහැරගැනම
අයතමයකම
සපරැටලස
මධයසථානවලට
පරමාදයට
පරමාදවමෙන
කයවනනන
කයවනනනට
වැටලමෙද
වැටලමවලන
වැටලමවලද
රෙඩඩ
රෙඩයො
හදෙකලාව
1777
1776
1789
1783
1781
තැනැතතක
තැනැතතෙක
ලෙකමවරයාට
කනසසලලක
කනසසලලට
කනසසලලය
පහරදමෙන
පහරදමකන
ගමහානය
ගමහානයෙ
ගමමානවල
වැළකමෙ
බදදහම
බදදහමෙ
කථකාචාරයවරයක
භමකාවනට
1956දකවා
තමාගෙම
කාරයකෂමතාවයක
කාරයකෂමතාවයට
christian
christchurch
පණවඩයක
සවලපයකට
ආකරශනයට
ජලාශයය
ඩොලෆන
ජනගහනයෙන
සාපෙකෂතාවාදයෙ
periods
පරචණඩකාර
කැටයමවලන
මංගලයයක
මංගලයවල
අනපළවෙලෙන
කැමැතතට
කැමැතතෙම
කලපනාකාර
පාවාදම
පාවාදමට
අධරාජයයට
අධරාජයවාද
වෙළඳසැලට
පාකසතානයට
වවෙචනවලට
වවාහයෙ
මහාධකරණයට
අභයාචනාධකරණ
වෙහෙසකර
පරොටොකොලස
ඇඹලපටයෙ
සමමනතරණයෙහ
සංරචකයකට
ගරනථයට
ඇබබැහවම
සොහොනවල
ජනශරැතවලට
ජනශරැතනගෙන
388
300ත
57th
57392
6000ක
600mg
718
amaz
amtra
ambition
america
aston
astrazen
biography
bipol
biostatist
balf
balear
coreldraw
cats
catch
cathy
catalog
dewev
descript
haran
harri
harmaj
harris
hindu
illino
lead
lewis
past
paul
pahw
plant
platfor
small
smtp
submon
wwi
අශෂ
අශභ
අශොක
අශවාරොහක
අසරන
අසරණ
අසථයක
අසථවල
ආනභාව
ආනතකය
ආතතයෙ
ආතතයෙන
ආංජනෙයා
ආවෙගශල
ඇවදන
ඇවෑමෙන
ඇණහටය
ඇණමකද
උරනන
උරාගනනා
උගරෙ
උචචතම
ඒජනස
ඒජනසය
ඔටනන
ඔටොමාන
කවනසලයට
කවරාකාර
කසාගොතමගෙ
කාවයයක
ගාමක
ගාෆලඩ
ගවසමක
ගවසමකට
ගංගාව
ගංගාවක
ගෙරෂ
චානදන
චකරයක
චකරලෙඛ
චකරලෙඛය
චෙකසම
චෙකයාව
චෙකපොයනට
ඥානරතන
ඥානවනතව
තාමගෙ
තදෙනක
තදෙනාව
තදෙනාම
තදෙනාට
තෙහෙටටවය
දදලය
දාරයෙ
දාරශනකයෙක
දවයයක
දසාපත
නාරාහෙනපට
නකාය
නකායට
නදනමතත
පකසථානය
පකසතානයෙ
පවතර
පඨයක
පඨාධපත
බැනක
බැනර
බැනටන
බසනස
බසනම
බනදසෙන
බොටකඳා
බොටකදානං
භගොල
මාතාව
මතවානන
මැකකන
මැකලසෆලඩ
මාදමපෙ
මගමවෙ
මගමවට
මගමවෙන
මාපයන
මාපටය
මාපටගම
මාපලගම
යනාද
රශවන
රශමයෙන
රාමවක
රහසෙ
රහසගතව
ලගනා
වවරතන
වවරගතයක
වකාශනය
වපරත
වචාරක
වජෙවකරම
වාදනයය
ශදධොතතම
සඵනදකයන
සඝරගාම
සානතවරයා
සානදරණය
සානතවරයනගෙ
සානකමපත
සැනසමක
සෙරමක
සෙරෙනඩ
හෙනක
හාරසයකට
හාරපෙනඩනහ
##භකතකයන
##ajuw
##hniques
##hnayaka
##uston
##tionary
##බතනමතත
##dbr
කරදරයක
කරලලො
කරලලනගෙ
පරපහදව
පරපහදවට
පරබනධය
පරබනධයක
සහකාරයට
වසමයෙ
වසමවලට
කරමලෙඛනයකන
කරමාංකයක
කරමවෙදයය
වෙෙදයමය
වනයාචෙරය
සංගරහය
සංගරහයන
සංගරහවල
අනතොන
පළගැනෙ
පළගැනණෙ
පැසසම
පැසපක
පැළෑටය
කොලගෙන
කොලබසගෙ
කොලෙසටෙරොල
කොලොමබයා
කොබෙයයො
කොබබෑවල
කොලලයක
වශවයතවය
පොකරක
පොසටරයක
වරහතය
නොටංහැම
නොදනන
නොදනනා
නොදැව
නොරවෙ
නොරහසක
නොරවෙහ
නොරැවට
නොදෙනන
නොදෙනනෙ
බලනවා
වැඩහටයන
ලබනනාට
ලබනනාගෙ
දෙමසක
දෙමහම
දෙමවපයන
දෙවතාවනඅරඹ
දෙවසථානය
දෙවසථානයෙ
කරනනෙදැය
සෙබළා
සෙබළනගෙ
සැතකමට
සැතකමක
සැතකමන
සැතකමකට
සැහැලලතම
සැහැලලවෙන
උපකරමයක
උපකරමයෙ
අතලොසසක
වටෙකත
හෙලො
හෙලමන
හෙලතකෙයාර
හැමොම
හැමවටම
හැමදාම
මැදරයටද
ගොණව
ගොණවලට
කාලගණයකද
කැසසෙන
කැවලලනනෙ
දෙනකගෙ
වදවතාගෙ
බැහැදැක
බැහැගං
බැහැදකය
පටපාට
සොබාදහම
නවහනක
පරකාශනයෙන
දෙශනාමය
නෂපාදකයනගෙන
නෂපාදනාගාරයෙ
මරදනයට
අමාතයංශයෙන
අමාතයංශයට
අනවාරයය
තෙතමනයෙන
කලදමන
කලදමා
නතපතවරයාට
##eneur
පනවලයක
සනමාහල
සොයාබැලම
අරජනගෙන
කාරමකකරණය
ගෞරවනය
ගෞරවයට
පාකෂකයෙක
පාණඩයයනට
යෙදවමවල
කරඩාවාරය
භාෂාවෙනම
බෙකරසෆලඩ
පැවතයහ
පැවතයද
ඉඩකඩක
සමතලතතාව
පතවනෙම
කරඩාංගනයෙ
කරඩාංගණයෙ
පරමපරා
පරමපරාවක
පරමපරාවෙ
පරමපරාගතව
මොචනයත
අසබඩ
සවාමපරෂයෙක
1802
1803
නොවනනක
නෙදරලනත
නෙපාලය
බහතරයකගෙ
සමමඛව
සමමඛයෙ
තැටයක
තැටයකන
කනයාභාවය
කනයාභාවයට
ඕනෑවට
ඕනෑතරම
වෘතතයමයභාවය
සතයමගත
සතයමකරණ
වැළඳණ
වැළලණ
1505
නාඩයාඩ
වෙදකාවට
හෙළදරවවක
##ologists
මදාහරනනට
සෘතවකට
දාහකවල
දාහකයය
පාකසථානයට
පරභෙදයෙ
බලාපොරොතතවන
forms
formula
දෘෂටමය
දෘෂටකොණ
වඳදරාගැනමට
වඳදරාගැනමෙ
පරාවදයාවෙ
arts
arturo
printing
ආකරමණකයන
ආකරමණශල
වෙළෙඳපොළෙ
වෙළෙඳපොළවල
##ophilus
පාරශවයෙ
පාරශවවල
නයොජතයනද
සංසකෘතනහ
transfer
transfor
හංසාකර
රණවරවන
රණවරවෙක
සඟවාගෙන
කැමරාවනහ
ගබඩාව
ගබඩාවෙ
වජයබාහගෙ
clitical
පරයතමයන
එකඟතාවලට
රංගනයෙන
වපලවයත
පරනැමමක
කොළොනනාව
කොළොනනාවෙ
සවභාවධරමයෙ
ජාවාරමකරවන
ශානතකරමයෙද
ශානතකරමවලද
පැරෙටොගෙ
අබෙසංහ
අබෙසනදර
තවකකකරවෙක
ලනඩනයෙ
ලයාපදංචය
සංගපපරව
ලැවගනවලන
මනොවදයාතමකව
බලපානනෙද
කෙළවරක
networks
චකතසකයනගෙ
මධෂාන
blasca
තෙඳනානො
චතතවෙගයන
චතතවෙගයක
වලාකළන
ඇෆගනසථාන
ඇෆගනසතානයෙ
බදයදනගෙ
මයනමාරයෙ
යවරජහට
සොහොයරය
සොහොයරා
338
33⅓
466
56ක
541
582ක
582කට
724
935
awards
count
cooki
coupled
ccf
cctvසව
canva
carter
carey
carmel
collor
collected
college
cidයට
diels
durantson
dirk
directed
directory
else
elvin
electric
edward
ecb
ecosystem
feature
featur
fuente
gaeltac
hawlett
haisha
hakeem
homo
humping
humilis
humanity
jalebi
kaokoensis
khurr
klobusic
monkey
mildbr
miss
metering
metoo
metachr
michael
naan
naomi
olson
olajuw
pəʈel
parke
parrot
parviflorus
religion
secure
secures
secret
saudid
usa
urduc
valueerr
valcuha
valencia
virens
west
what
whole
where
wilt
අකරැසස
අකරමකතා
අවලක
අවලංගය
අවයය
අවයව
අමතන
අමතං
අමතමන
අගතගාම
අකරමවත
අකරමවතව
අකරමනයතාව
ආරයමපත
ඇරැඹ
ඇරසටොට
ඇරනටයස
ඉඳකට
ඉවරෙහ
ඉංගරය
ඉංගරයෙ
ඉංගරසන
උදධමනය
උඳනෙන
ඍණවාද
එඩවඩ
එඩගාර
එඩවරඩ
එපමනක
ඔසටරලෙසයාව
ඔලවයා
කංසල
කංචනට
ගහාවල
ගංජා
ගංවතර
ගංඉවර
ගණයකන
චංචලා
ජෙමසට
ටැරසයො
ටෙකසාස
ටයටනස
ටරමනෙටර
ටොකවලට
ටොකයො
ටොනකන
තලලවෙය
දවරමවෙල
ධාවකයන
ධාවකයකන
නඟය
නඟම
නඟත
නමාගෙන
නාටකාකාර
පනනනන
පනනලා
පතකළ
පතකළෙය
පතකෙරෙ
පංචබණඩාර
පංචෙනදයනට
ඵලකය
ඵලකයක
ඵලකයය
බසවද
භයංකර
මාධයකරණය
මයයෑමෙ
මකළගොලල
යකතව
යකකයන
යොනයෙ
රකමන
රකඛනමතත
රතවතත
රතවෙය
රසකයෙක
රසකැවල
රවමවල
ලෙයබර
වඥඥාණ
වදනෙ
වකටර
වගරහයය
වගරහකරන
ශශනයෙ
සවෙතා
සවෙචඡාවෙන
සවෙචචා
සගරට
සොකසගෙ
හැනෆොර
හසතයා
හසරවන
හසරවනනෙ
ෆලොයඩ
ෆැනසයමහ
ෆලඩෙලෆයා
##ෙඩො
##nekar
##තපපකශන
##mbol
##propagation
##preneur
##ෆයචර
##cast
කරකැවය
සමෙධ
පරතරපය
පරතරයකන
පරතරොධකය
පරාමතන
පරාජයන
##ාතතද
සහමද
සහයකයන
සහසරකය
ඇතලතකරගැනමට
ඇතැමනගෙ
මෙලබන
මෙලබරනහද
මෙලෙසම
වෙදනාවෙන
වනදනා
වනතෙකම
සංහනාගාද
සංචාලන
සංයොගය
සංයොගයනහ
සංගණන
සංවරධකයනට
අනකමපාව
පළසසන
පළසසා
පළසසම
පළකරනවා
කොකඅඩච
කොසවතත
කොසලනද
කොහොමද
කොරහ
කොරවලට
කොරහෙ
කොවලක
සටරොස
කරනලවරයෙක
පොළඹවා
පොළඹවය
පොළඹවාලමෙ
පොෂයදාය
පොසපරසහ
නොසැල
නොසලකය
නොසැලකෙ
නොපවත
නොපවතන
නොපෑහෙන
නොසටම
නොසටයත
ශරාණගෙන
සදධානතවල
සදකෙරෙ
සදකෙරෙන
වැඩමළවෙ
දෙවයගෙ
දෙවයනනෙ
සැරසල
සැළසම
සැරසලලක
අවපඩනයෙ
උපකරණයට
අමමාවරනගෙ
අධයනය
අධයනයක
අධයනයන
අතකරනන
හෙලකොපට
මහමඟ
මහමාලෛය
මහයංගනය
හැසරෙන
හැසරවම
හැසරවමට
අපවතර
ඉනදරයන
ඉනදරජත
ඉනදරජාල
නැටමෙද
නැතවණොතල
මනදාකණ
මනදාකණය
මනදාකනයක
දනවලදත
පෙලෙනනෙ
පෙලඹෙනනෙ
පෙලෙනනනට
කැකරාව
නයැලෙන
නයැලමට
නයැලමෙහ
රාජාසන
රාජාණඩව
රාජාණඩවක
නරකෂණයෙන
##otto
##ineering
වලාසයට
සරැකම
සරසතල
කොටඨාශ
ගැසවම
ගැසණාය
ගැලරය
ගැහැනයක
සවපහසවෙන
පටහැනව
පොලමවල
සොදසයකද
අයසලනතය
අයසලනතයෙ
අයැදමකන
බරසලයට
දැරමෙන
රජවඟම
රජවරනද
රැළයකට
රැවටමට
රැවටෙනන
රැවටවොත
කාඩපත
කාළයක
වයාකලතවයක
වයාකලතවයට
සාමපලයෙන
දෙශපාලනයට
දෙශපාලනමය
දෙශපාලඥයාට
මරාදැමන
මරාදැමය
මරාදැමමට
අමාතයවරනගෙන
ඉදරයෙනද
පනකඩව
අභබවමන
අභාවයට
අභලෙඛනයක
අභලෙඛනයෙහ
ජයගරාහකයා
අපරසද
අපරසනන
අපරසාදය
රොගයකගෙ
අරාබයෙ
අරාබයට
1000ක
ගනධබරෙව
ගනධනහලලහ
පරවතරයෙ
පරවතරයනට
පාඩවක
මනතරවරයාට
පොලසපතවරයා
වදයාඥයනට
වදයාගාරයෙද
වෙළඳපොළක
නගරාධපතවරයක
නගරාධපතවරයෙක
නගරාධපතවරයාගෙ
වකලපය
වෙබඅඩවයය
කරණාටකයෙ
පැවතනෙය
නැවතමපොළ
සමතලතයකට
මධයසථභාවයට
කළමනාකරගෙන
තමනගෙම
යොදාගෙනය
මොඩටත
මොඩලනග
මොළෙ
මොළයෙ
මොළයෙන
කෂරපාය
අසාදතයන
යාතරාවක
යාතරාවෙ
යාතරාවලන
පරවෙශයකටම
1875
1870
1870ද
1869
1866ද
1861ද
1850
1851
anglo
angeles
angulica
රැකවරණයෙන
හඳනවාදමට
හඳනවාදමක
හඳනවාදෙමන
ආරථකයටත
නතයානකලව
තදසවක
නඩවකනම
ඉරානයන
බොටටවෙන
1993ද
1946ද
component
කාමරයට
කාමරයකන
වහදවන
වහදවය
කාචයනහද
මහාචාරයවරයාය
කමපනවල
වාතවවක
සාධාරණය
සංකෙතය
මනසෙකගෙන
franco
francais
francesca
නොතසයක
හැඩගැසම
හැඩගැසමෙ
හැඩගැසවමට
තැබමටද
නාමලගෙ
ගොඩනැගමටත
ඉදකරමක
මදදරයෙන
උපදෙශකවරයක
english
england
engineering
නළධාරන
නළධාරයෙක
සනාමයක
තබයදත
පරයෙෂකයක
පරයෙෂකයො
පරයෙෂකයනට
සථාවරභාවයක
සථාවරභාවයෙ
සථාවරභාවයකට
කැනමවලන
ජපානයට
යහපැවැත
හඬනගන
දඹලපතන
පරාගණයය
clarence
දඩයමට
දඩයමක
වැඩපළවෙලකට
islands
පරවරතකයක
පරවරතකයෙක
බැරසටරවරයක
ෆරැනසසකා
ආලෙපනයක
ආලෙපනයන
කලනොචචයෙ
මෑතකාලනව
බැඳණට
ශරෙෂඨාධකරණයෙහ
content
contains
contire
grandiflorus
මෙකසකාන
මෙකසකොව
මෙකසකොවෙ
හැදෑරමෙ
පොහොසතකමක
පොහොටටවෙ
පොහොටටවට
පොහොටටවෙහ
කෙතකරණයක
අරධදවපය
කණගාටව
machines
අවනශචතතා
අවනශචතභාවය
රඟපෑ
රඟපෑම
රඟපෑමට
ලතනනවරනගෙන
සදාචාරයෙ
සදාචාරාතමක
කොටඨාසයක
ඒකාධපතතවය
ඒකාධපතතවයක
ගරතවාකරෂණයෙන
espncricinfo
openai
openstre
අකකරකමකන
උනඋනටරයම
පලලවවරනගෙ
පෙමවතයක
කැඩමයමවලන
අභයවකාශයෙ
පැහැරගතතා
නෞකාවත
illustrations
subcaudatus
චානසලරවරය
වපරයාසවල
වජෙවරගෙ
ශරලංකාව
ශරලංකා
ශරලංකාවෙ
බලාපොරොතතවක
networking
focacius
ඇසතමෙනතවක
ඉතයොපයාවෙ
ඊශරායලයට
තටාකයන
පහාටවක
බසරථයක
බටලරගෙ
මථයාචාරයෙන
යදාධකරණය
සබසාධනය
මතභෙදාතමකව
අලගැටපෙර
37ක
482ක
429ක
842
835
883
800කට
80000
925
9282
agaric
against
about
abdul
afp
after
affected
affinity
budgets
buxfer
bryant
bbq
backgr
backpropagation
days
data
dates
diced
dictionary
domest
dominic
dunn
duncan
dumped
fmදෙරණ
fact
facebook
founder
foundation
genus
generat
globals
hilfig
hilalsighting
help
helmer
howard
images
import
java
javascript
kejriwal
lammy
lambakan
mores
morel
maps
martin
martyn
merck
mercedes
markup
oscar
osmos
obtus
oblong
panis
panip
patel
patrick
prequel
polonn
poliakoff
puma
pumping
partner
particul
rajesh
siri
seema
soap
system
symbol
schweinf
schultz
sortable
social
societ
simcity
simulator
sexologists
two
twitter
tommy
times
voice
voigt
අනනයන
අනනයතාවය
අකමැත
අකමැතය
අයෙකටම
ආමනඩ
ආමනතරණය
ආසයාවට
ආසයාතක
ආදායමක
ආදායමෙන
ආගමනයත
ඇවතක
ඉඟයක
ඉසවවෙ
උනනදව
උනනතාංශ
උදමමට
උභයජව
ඌරබෙ
ඍෂවරයා
ඍෂවරයාගෙ
එබමෙන
ඔයල
ඔයාලා
ඔයාලට
ඔටටසඩ
කචාවෙන
කචාවලන
කකෂයෙ
කකෂගත
කවෙණ
කවෙටයෙ
කහරය
කතනට
කතනදරයක
කෂයවමෙ
ගායකාවන
ජවාලන
ජවාලා
ටවනෂෙඩ
ටවනෂෙනඩ
ඩෙනවර
ඩෙනමාරකය
ඩොනල
ඩොනලඩ
ඩයනොසස
ඩයනොසටක
තොඃ
තොණඩමන
තලයභාවය
තලකහ
තනමාලට
තැලගම
දයාගමගෙ
නහාල
නහදල
නංවන
නංවය
නාලකා
නාලකාවල
නකෂතරය
නකෂතරයෙ
පපවෙ
පපවෙන
පජාවලය
පජකවරයෙකට
පඹමට
පඹමෙන
බවනොස
බගලවලට
භාරයාව
භතාපජ
භතාපජව
මාවතවල
මලලෙරයාවෙ
මොදගෙ
යවලක
යවලගෙ
රවටන
රවටරය
රාකකය
රාකකයෙ
රොනලඩ
රටමසටර
රපනයක
ලසඤඤා
ලසසනසල
ලඛත
ලඛතව
ලැනඩරස
ලැනතනයඩ
වෘකෂ
වෘෂණ
වානජ
වානගර
වරමනතර
වතාවට
වතාවත
වංශවතන
වංශාධපතතවයෙ
වහලට
වහලභාවය
ශෛලන
ශෛලයකන
සගයා
සගයනට
සබොග
සබලලා
සකෂම
සකෂමතා
සවකය
සවකළ
සනමාව
සනමාවෙ
සනදප
සනදනායකපරම
සගයනව
හෘදය
හෘදරොග
හමනමක
හදනවය
හදනවාදෙන
හනගෙරයාන
හනගෙරයාව
හසාරවර
ෆෙරාර
ෆෙරෙඩන
##ioral
##earch
##ලොනා
##azine
##plete
##permus
##lerianus
##lington
##චකයෙන
කරසතභකතකයන
infector
infinite
සමසථය
සමරපණය
සමභාරයය
පරෙනටස
පරෙනටයස
පරානතවල
පරානතවලන
පරවනමත
පරසතාරගත
පරවෙනෙහ
පරවාදයට
පරාරථනා
පරාරථනාවක
කරමෙහලා
කරමානකලභාවය
කරමලෙඛනය
කරමලෙඛකයන
සංවාදයකන
සංවෙදනයකන
සංදරශනයක
අතරකතයක
අතරමැදයෙක
අනවරථ
අනවරථන
අනතමයා
අනකලතවය
අනතවාදනගෙ
පළසසනන
පළසසමකට
පළලයකව
පැටවන
පැටරමන
පැතමවලට
කොෂර
කොඩවල
කොඩතවකක
කොචචර
කොචචකඩෙ
කොලලකෑ
කොලලකෑමෙ
කොනකනම
කොනකොඩ
කොනසොල
කොනසවෙටව
කොදෙවවාසන
සටොනමන
තරකොණයක
තරකොණයෙ
පොමපය
පොමපයක
පොරපටයෙන
පොරබදනනට
පොතකන
පොටෑෂ
පොටෑසයම
වරණයකනම
##ෙරලයාවෙන
නොනවතන
නොනැවත
නොහරන
නොහරනන
නොපෙනෙ
නොපෙනෙන
පදවයෙ
බලරඩ
බලරහත
වයහගත
වයොවෘධ
මලෙචඡ
මලාකෘතවලන
මලාකෘතකරණය
දෙලකෂයකට
දෙවාලයට
දෙවාලයකට
දෙපැතතම
දෙපැතතටම
පසසෙතා
හාසයයට
හාසයජනක
සැදමලත
අවකාශයෙන
ජනකතා
උපසමපදා
උපසමපදාව
උපකරමයය
අමපාරෙද
අමරසෙන
අමරසංහගෙ
අමබලනගොඩ
අමබලනගොඩන
පවසනනෙනම
පරතචකරකරණය
පරතචකරයකරණය
වටමනගෙ
##හරාජපර
ලැගමගෙන
ලැගමහලක
##ාසටවමෙ
හෙලාචාරය
හෙලාචාරයට
හැරයනනන
අපසරා
අපසරාවක
අපනයනය
ඉනමෙහද
ඉනොකාට
මැතණය
දරොණවලන
නමැවම
නමැවමක
සයොදන
සයපරසයෙ
අඩාලවෙන
කැදවමන
නයොජනයකන
නරඹනනන
නරඹනනනගෙ
##inction
වලොමය
එමලගෙ
සරරෙහ
සරවනමතත
සරවනාමයක
සරංගනා
සරකෂතතා
වදහලෙන
වදහලපත
වදහලපතවරන
වදහලපතවරනට
ගැබගැනම
ගැබබරව
බැමමට
බැමබනො
බැබළව
බැබළෙන
පතතවමෙන
පතෙකද
ආරජනටනාව
ආරජනටනාවෙ
පටමග
පටමඟ
පටලවා
නෂෙධනය
නෂෙධාතමක
තනපඩවක
පෙනහළවලට
කලතැබමට
කලතැබෙය
අභමතයකන
ගරභයෙ
ගරභනවමකට
ගරාහකයනට
ගරාහකයෙකට
ජයලතට
සනතානයෙ
##ොලොමැටෙස
වෙළෙනදා
වෙළෙනදන
අරණායක
අරවකකාලවෙ
මානාභරණගෙ
සථානාධපතවරනට
සථානාධපතවරයාට
උතසකයන
උතසකතා
ගනකොන
ගනකනද
ගනගතහෙන
පරවගාමයා
මාඝවෙලා
මාසකව
අලතවෙය
අලතවෙල
ගෙවතතක
ගෙවලවල
සංවධායකකම
පැමණෙනනෙම
පාටයක
සැකැසම
සැකැසමක
ඉවතකරනනැය
වෛදයවරකට
වෛදයවරයෙකගෙන
මාධයවෙදයෙක
##illeabh
කොමයනයෙ
කොමයනසට
පැහැදළ
උදදපනය
උදදපනයන
උදාවෙය
වකවානව
thinker
කයබාව
කයබාවෙන
යොදාගතහ
මොසරෙලලා
මොසරැලලා
මොඩයලෙටඩ
මොඩයලෙෂන
රෙජමෙනතවල
රෙජමෙනතවෙ
හදනාගත
පෙළෙඕ
පෙළගැසෙන
පෙළගැසවමට
සවායතත
1887
1883
1750
1730
1738
නොවනනෙය
චතරසරයක
චතරසරාකාර
නෙළාගන
නෙළමකණව
122ක
වශවාසභංගයෙ
ලෙඩෙක
වාණජමය
වාණජයය
හමකාරතව
මෙහෙයමටත
නයටරොපොසපෙට
නයටරොචොක
starring
strata
stratigraphy
අගයනවා
ආලොකකරණයෙන
එලසබෙත
එලෙසම
එලෙසනම
එලටටඊයට
නාගරක
නාගරකරණය
හැඳනවමටය
offers
office
පනරපපතතය
පනරපපතතයට
මළමනනම
රොඩරක
රොඩෙෂයාව
දෂණයවමවලට
කමනතරණයකන
සමනතආර
බදධමතනට
බදධමතනගෙන
භමපරදෙශමය
අතරමගද
අංගමපොර
වෂකමභය
වෂකමභයක
කමරයගෙ
කතහලයෙන
කතහලයට
පහළටයතම
newscast
කඳරගමව
කඳරවෙල
චරතාපදාන
චරතාපදානය
සනධානයටය
protect
protocol
බාධකවලන
මගධාධපත
මගධෙශවර
අවදානමට
අවදානමය
ඝනතවයනද
##abhbhai
ජනගහණය
ජනගහණයක
මොරෙලගෙ
මඟහැරවමට
තාරකාවය
පැකෙජයක
පැකෙජයට
නොලැබන
නොලැබම
දරකථනයය
classic
classific
දායාදයක
බාරවණා
##ificance
ජනරජයෙ
ඉතාලයානවන
extensi
extinction
පතතලමෙ
පරවරාජකයන
පරවරාජකයො
ෆරැනසයසගෙ
මොහොතෙ
මොහොතකට
ශාසනයෙන
ශලපයකගෙ
ඇතලතවමෙ
අමදරවයයනගෙනද
සරතානතයත
බැකපැක
යරෙනයමවලට
වනශචයකාරවරයෙක
graves
gravit
චකතසාව
චකතසාවට
පෑදමය
මයකරොගරෑමයක
යටතවජතවල
යටතවජතමය
කෞතකාගාරයෙ
ටරැකටර
ටරැකටරයක
බෙනටො
මණගැසෙන
මණගැසනෙ
ශතකාලයෙහ
ශතකාලයනහ
සදාකාලක
සදාකාලකව
දෙමාපයනට
දෙමාපයනගෙ
මැඩපැවැතවමට
මැඩපැවැතවම
communis
communication
පරාවදයාඥයනගෙන
youtuber
youtube
ඉමාමවර
ඩරබරයනර
ඩරබරයනරය
නායයෑමෙන
නායයෑමකන
නොපැහැදලවමක
පෙමවතයගෙ
නයජරයානවාට
පෞරෂතවය
players
playstation
උචචාවචනයන
උචචාවචනයක
ගාථාව
ගාථාවක
ගංගාරාමයෙ
පකසථානයෙන
බඩලකඹරෙ
පැළෑටයක
දෙවසථානයට
දෙවසථානයෙද
දෘෂටකොණයක
දෘෂටකොණයට
ධරැවවලද
සොහොයරාය
කොරොනාවෛරසයට
කොරොනාවෛරසයත
341කට
diagnosis
diagnostic
klobusice
klobusics
michelle
ලෙයබගගෙ
ෆලොරයට
ෆලොරඩාහ
කරකොකැට
කරකොකෙටා
සැළකෙය
සැළකලලට
හෙලකොපටර
හෙලකොපටරයක
වෙබඅඩවයෙන
composer
composed
සාධාරණකරණය
උනඋනබයම
උනඋනකටැඩයම
ඇසතමෙනතගත
ඉතයොපයාව🇪🇹
862ට
alexa
disorder
disorders
fossils
nasuta
nasutus
private
privatel
අෂටකවලට
ආගනතකයෙක
කයටසහ
ඛෙදවාචකය
ඛෙදවාචකයෙන
චරමඡෙදනය
චරමඡෙදනයට
ජැමෙයකාව
ජැමෙයකාවෙන
බසමාරකගෙ
මහසෙනරජ
ශෘංගාරාතමක
ශෘංගාරොදදපක
ෆරයඩෙස
ෆරයඩෙෆො
ෆලෙමනග
සමරකොනගෙ
පරාතමොකෂ
පරාතමොකෂය
සහයොගතාවයට
සරකඳවරවල
මාරගොපදෙශ
මාරගොපදෙශය
තමලනාඩවෙ
ගවනතොටපළට
දොෂාභයොගය
සෘජකොණාසරය
සෘජකොණාසරාකාර
assistants
5kg
520කට
633ක
684
686ක
760ත
785ක
7000ට
824ක
ayushman
arizona
april
aerobic
apollo
bhumi
business
believ
bride
beck
bambino
basin
bolsonaro
babe
brady
buckner
balls
baeksang
barcelona
barker
breviflorus
break
cnns
css
ctb
celebrat
critical
china
curse
clear
capital
cognit
cardoso
circle
cancer
candoos
dsm
dʒʰəʋ
dilma
delayed
demolish
dolittle
dapara
dogs
divisional
dubuque
dowson
deepmind
dichotom
dennis
etrus
eye
ebcdic
ewing
elements
echidna
everydol
fast
fonop
fusilier
family
female
following
fulton
future
february
first
f40ph
glass
glo1
gump
gangsters
gilyard
garnett
houston
hinacanthus
henrique
hamilton
hashtag
hayes
havlice
harden
hebrew
hasselblad
ireland
ichigenkin
iupac
iucn
jair
jacques
junior
july
jabbar
jordan
jackinwor
jhaverbhai
jerry
klotzsch
kanban
keras
kareem
katariya
kurz
keyaren
korea
kennedy
kuntze
luiz
loosely
latilab
lisn
lasagna
lianzhou
laga
lives
located
lebron
lindau
life
lauffenber
lynch
mike
mlb
mcmill
manure
microso
medical
mello
mandi
moses
mishra
magazine
mental
mockup
modern
mucronatus
meeuse
miller
marco
nielsen
ntj
n2o
ndorensis
nyse
north
napier
nowitzki
nintendo
nancy
nikon
nottingham
odi
oxides
oඔහ
others
oriented
outlook
people
puterbau
python
potassi
penetrat
pednekar
pura
pulcher
piadin
populous
pocketgu
padron
packard
personal
paleoz
penney
qamari
ruth
ryan
ranking
rotundifolius
rathnayaka
russian
research
risotto
recept
rose
roles
raviol
roxb
richard
rousseff
rottlerianus
suilleabh
szorey
switch
sanjay
silva
sites
surf
sapiens
saving
summit
significance
sounds
session
tsunami
tuong
tvn
tcp
tarisio
tenuip
tetrapods
techniques
taylor
treelov
temer
tubulosus
texas
tensorflow
tillage
tabsir
urethral
vwp
very
visit
vulva
versa
various
vallabhbhai
videos
vince
wrangler
winners
wellington
week
william
wallace
xbox
xerophilus
ynab
yankees
yellowback
yummy
yizhou
zachary
ʋəlː
تقویم
قمری
هجری
අචං
අදරදරශ
අගලවල
අකටයතතක
අජනත
අශරවාද
අබදලලා
අඹරන
අලාභහාන
අවාසනාවකට
ආමලක
ආභරණයක
ආඩමබර
ආඥාපත
ආචරණයන
ආඬමලල
ආවරතය
ආගරපතන
ආබාසය
ආයාමයක
ආණමඩව
ඇහමකන
ඇතරල
ඇකරලක
ඇවනගාඩ
ඇකටනයඩ
ඇමණම
ඇනටනටො
ඇෂටන
ඇනටෙනාව
ඉවහල
ඉෂාන
ඉචගෙනකන
ඉඞම
ඉසකොලෙ
ඉංශරස
ඉලපවච
ඉපදවමෙ
ඉපනැල
ඉකවදොර
ඉදකෙරෙන
ඉබෙරයාන
ඉපැයමෙ
ඊසවර
ඊනයා
ඊසානදග
උකකටක
උයනකය
උනාපාන
උදරයෙ
උගලක
උගෙනම
උගනවලා
උවමනාවක
ඍජවම
එමටය
එදරසරය
එජනස
එපරදදෙන
ඒකරාශ
ඒබරහම
ඒඑසඑන
ඔසවය
ඔඩඩා
ඔටරහයම
ඔරසසා
ඔරලොසව
ඕරලයනස
ඕසටෙරලයාවෙන
ඕසටරෙලයා
කශෙරකාව
කඹල
කාවනද
කාතොලක
කපතානවරයෙක
කදරං
කතවරනගෙ
කෙහෙලය
කඳනං
කාවනතසස
කසවකට
කවතානසයෙ
ඛෙඩා
ගවෙශකයො
ගාරටන
ගනාංගකරනය
ගරමාර
ගොරලලා
ගලනෑව
ගඩාෆ
ගමයමාන
ගලපන
ගළණෙ
ඝටටන
ඝණකෘත
චෙතනාවන
චදතයන
චෛතයය
චයනගම
චවරධාරයක
චාමකර
චමතකාරය
චලනයන
චකමගලර
චලපල
චමරාජනගර
චැලෙනජ
චලවංශය
ඡාවාරමකරවෙක
ඡවතං
ජමෙතල
ජොහැන
ජලෙබ
ජබරලය
ජාවරබාය
ඥාණය
ටොෆ
ටෙනඩරයකට
ටරයකොලොමැටෙස
ටරනප
ටරවගලයො
ටරයෙසටා
ටැනසානයාවෙ
ඩසොඩරස
ඩශඩ
ඩයාගො
ඩෙකාන
ඩවලොපමනට
ඩංගර
ඩගලස
ඩකනසන
ඩකලරෙෂ
ඩලඩොවන
තෘෂණාව
තාතවක
තංගලල
තලෙබාන
තානතරකයනට
තවරණයෙහ
දයකාවන
දහතන
දයනෑමට
දවතයක
දෙරටෙ
දවටනය
දසලකෂ
දංකොටව
දබරැඟලල
දසසමාහත
දංගොලල
ධාතවංශය
නගාසටවමෙ
නඛල
නබඩන
නතවෙද
නහතමානව
නයනා
නැනො
නකරගවාවෙ
නගෙගොඩ
නටටඹව
නයනටන
නෘතයයෙහ
නකදළපත
නපණතාවය
නපැයමක
පථයක
පබබතනමතත
පඟාන
පණඩකාභය
පාගමන
පලයෙල
පජාකරන
පපපලාට
බංද
බාවයක
බයකාබන
බකෂවක
බාදයට
බහසණ
බාසලොනා
බගනෙට
බොනො
බෙහෙත
බකනරගෙ
බසසදද
බොදවංශය
බජාණ
බොසච
භකතකයන
භගවාන
භතයෙන
භමකමපාව
භොජනාගාරය
මෂෙල
මජහදන
මෘග
මාමඩව
මගරකන
මොලබඩෙනයම
මොටාර
මතවාදයන
ඹෟෂධ
යෑමෙද
යෂො
යකෂගමනය
යොරකටවන
යදනසයඩ
යතකමක
යකෂණයන
යෙලොබැක
යකලඩ
යවනනෙක
යෞවන
යවළක
යඑනප
රෙනෙ
රැනගලර
රෙසෞල
රවයොල
රමෙනයාව
රාසායනක
රාපජකෂ
රනදොල
රකනවා
රසවඳන
රමළාන
රදෙවවා
ලමබකනන
ලානසා
ලොනග
ලසයානාට
වංනශය
වථයෙ
වැකයෙ
වාලචචෙන
වදරද
වාදයක
වලලබභාය
වාමාංශක
වවාදයකට
වඛණඩන
වොයස
වපාකය
ශහබාන
ශභවාද
ශඝරයෙන
ශාවවාල
ශෙෂය
ශාපයෙ
ශානකගෙ
ෂරබානහ
ෂවරයෙන
ෂාටවා
සජාතාවට
සධධරමාලනකාරය
සෛල
සයෙරා
සයනයෙහ
සාලංග
සගමොයඩ
සවටසරලනතයෙ
සලාක
සවධානය
සලපෙට
සශරක
සපටල
සබැදම
සසංයොගයක
සකොටලනතය
සොරකමෙ
සගමනඩ
සොකොතරා
සෙකසටස
හඩැස
හජජා
හඊශා
හාවඩ
හතාමතා
හාමදරවො
හයතහා
හගනස
හකමවම
හලමලලආර
හලටන
හෑනකසගෙ
ළංවෙය
ළමාරකෂක
ෆොටොන
ෆෙයාරන
박ᄉ
완ᄒ
향ᄅ
##යඩරෙට
##ගඟෙ
##ithms
##eɾbʰɑi
##tanus
##cape
##əbːʰɑi
##ොටටෙ
කරාමයෙන
කරගනත
කරොනකල
කරතවයය
කරසමස
කරඳමංග
කරවෙහෙර
කරවවවල
කරොඒෂයාව
##stown
inacio
inkscape
inventions
integer
incomplete
සමාසහත
සමභොගයෙන
සමරසංහ
සමාරමභක
සමබාහනය
සමලංගක
පරයනජත
පරෙෂණයට
පරසමපාදන
පරසෙපරොන
පරශරයට
පරොජෙකටරයක
පරකසනන
පරපාලනමය
පරපොෂතයන
පරාදෙශක
පරගණකය
පරලොකනය
පරශලනය
පරපපමමඩව
පරබාහරව
පරකලපනයන
පරෙහමසර
පරදරශණ
පරසනටෙශන
පරෙමකමාර
පරඥපතයට
instagram
සහවටන
සහජවනය
වසාලයා
වසාදැමමට
වසසතං
වසසමබරග
කරමාණකලව
ඇතලලමෙන
සමබනධතාවයන
පහතදැකවෙනනෙ
වසතරාතමකව
මෙටරක
මෙටලගසට
වනසනතපපකශන
වනාතවලලව
වැසකලය
වැරවො
වැජඹෙම
සංසලෙශණය
සංජානන
සංගණකයෙන
සංයොජනයක
සංදරශක
සංධසථානයකට
කළමණාකර
අනදනම
අනසථතන
අනකරමයට
අනශරතාව
අනගරහය
අනසාරයෙන
අනබැඳයා
අනගරාහකතවය
අනශාසක
අනභභවනය
පළකළෙ
පැරදමට
පැවතවමට
පැදවමෙන
පැදකණ
පැවරණෙ
කොපරෙට
කොකටෙල
කොබරාස
කොනතරාතතද
කොසොවා
සටසනස
සටයොය
සටවරයෙකගෙ
සටැටසටකල
සටෙලටවෙක
සටැෆරඩෂයර
සටෙෆාන
තරොනස
හොරොයන
හොනඩරාස
පොතතෙහ
පොලනසයාව
පොටටනයක
පොසටරය
පොනටං
පොරතනට
පොරනවක
වරකකොඩ
නොසනසන
නොතකමන
නොවෙනස
නොවමටත
නොසොයා
නොරමනඩ
ශරගනධ
ශරදධාව
පදකකමක
බලොකබසටර
බලගනවනන
බලසමපනන
බලකොටවක
බලාගාරයෙ
බලමැනඩල
බලතසංහල
වයරසයක
වයවසනයෙන
වයවහාරයක
වයවසායකතවය
සදදලාගෙ
මලාසනය
මලෙයර
මලගරෑම
මලශරයෙ
මලබැසගත
මලශාලාවට
වැඩසටහනන
කරයරවරනට
දෙයකටය
දෙපටලලන
දෙගොඩෙම
දෙවමෙහෙය
දෙදදො
දෙවසරකට
දෙවැනනාගෙ
පසබෑමක
පසමබය
පසතැවය
සෙමබරාන
සෙපපවක
සෙහොයර
සෙබසතයන
හාඩෆලඩස
වෙනකොටත
සැණකෙලයක
සැසවාරයෙ
සැවානා
අවභාවතය
අවපාතයකට
අවශයකරන
අවවාදයය
අවහංසාවාද
ජනපතවරණයට
උපනදනය
උපපැනන
උපකයාස
උපලෙඛනගත
දකගැනවල
අමබලට
අමතතෙකටම
අමබලනතොට
අදමරාල
අධෛරයමත
අධනතඥ
අතචඡාදනය
අතලතට
අතෘපතය
අතකොරල
පරතපාදනයක
පරතපොෂණය
පරතකරයාවකට
පරතජනනයට
වටපටාවෙ
ලැජජාව
හෙටටආරචච
පාරාදසයද
මහමැතවරණය
මහමමද
හැමබරගර
අපොහොසත
අපසසං
අපකරතමත
ඉනෆරනො
ඉනෆොගරැෆකස
මැරටයම
මැහමකාරයන
මැලෙරයාව
නැමබයාව
නැෙඟනහරටත
නැවගණනන
නැලවමෙද
දරගනවන
දරකතනය
දරාපතවම
දරගැනවමෙ
දරෘෂයමය
දරාසටනනය
මනමරනනෙක
මනසංදයෙ
මනොචකතසා
දනචරයාවෙන
ඔබාගැනමත
පෙහෙළ
පෙපෙරොන
සථායකරන
සථාපතව
සථනදකයක
අඩපණව
කාලසබෑඩ
කාලපරචඡෙදය
කැසටලයාන
කැළඹල
කැරොලනාවෙ
කැබැලලට
කැටලොනයාව
කැරකෙන
කැටයමෙ
කැළණගඟෙ
කැවාලයර
කැරලකරවන
කැරෙනයෙ
නයරොශය
නයජරයාට
නයොවාසකලරකරණය
රාජොතතමාවයගෙ
ලංකාගමනයෙන
නරතනයක
නරාවරනය
නරසංහරාජපර
යොදවමන
වලෆරෙඩො
එමඑනඩ
එමමැනවෙල
සරටොගා
කටපරාපතයට
පහමාරකට
මතනමතතනගෙ
කොටදෙනයාව
කොටදෙණයාව
ගැලවණ
ගැහෙනනට
බැදමකරවලට
බැසසෙය
බැපටයස
සවශකතයෙන
සවපතවමෙ
queenstown
අනතරකරයාවලට
අනතරගරාහනයක
ආරකකවක
ආරොපනයය
පටාරගැලමෙ
පොලොනනරවට
සොසෙජස
සොමාලලනතය
අයපසචච
කරයාකරනයෙ
කරයාධරයන
හරවැටමක
බරහමාණඩ
ගණකාධකාරවරයා
වමොචනයෙ
වමොචනයකන
වමොඩනයන
##aruwensis
රජජරවන
කාබොහයඩරෙට
වයාබාධයක
සභපැතම
දකවා1929ෆැසසට
ආසවාදනයට
තරගවාරයෙන
නෂපාදකයාගෙන
මරපොලෙ
මරපොලට
අමාතයංඅශයට
පෙනවාදෙය
මටොබටො
වවධාංගකරණය
යතාරථවාද
ඉලලකකයක
කලඅඩචෙනෙය
සතඅනතයෙද
සතයාංගන
අභචොදක
ගරාටමාදවයට
නලවරණයෙන
සනටැකස
සනසඳවමට
සනගොගයෙන
පළමවැනදා
කෙජරවාල
සටනකාමනගෙන
රොගාබාධවල
අරථකථනය
සලෆයරක
සෞනදරයාතමක
පරවඋපකලපනය
ගෙවාදමන
ගෙවතතෙ
ගෙජජට
මහාභාරතය
සාසනජොතක
දමවැලවලන
චනඩපාට
ලංගාශරත
පාසාණනමතත
බවයපොලසය
පාණඩයයනවර
ලකවනනට
මනතරවරයකගෙ
මනතරයකයාලවො
වඩකකොටටෙ
මටටකකලයට
මලදරවයපරමාණවක
නගරසභාවෙ
නගරාධපතවරයාව
බෙබදදන
බෙංගමවෙ
බෙමමලල
කඩමඩයෙන
දසතරසකකයෙ
බෙරගහමඩ
උදවෙගකර
උදදාමයෙන
ඇලගරයාවෙ
ඇලබෙනයාව
පලබදව
පලබොධකයනගෙ
පලැටපස
පලපරදදක
පරසැලසම
නයොජතායතනයය
three
thunder
සාරඩනයාවෙ
කඩාකපපල
සෙවාලාභන
සෙවාදායකයනට
කළමනාකරවෙකටම
කරයාවලයනගෙන
යොදාගැනන
මොලලකලම
පෙළගසවනවා
පෙළෙනනෙනම
පෙළගසවනන
ගලගොඩඅතතෙ
වශවවදයාරලය
අසාධාරණයක
අසංඛයාත
1882ද
යදෙවවන
anthony
ලෙකසංටන
පරශනාරථයක
දසතරකකයකනම
ඇමපලෆයර
ලෙවනටහ
ලෙපඩසගෙ
සෙනෙවයා
එළැඹෙන
කනෙකටකට
කනගාටවට
issues
ඉටනොකළොත
කැපපෙනෙ
වචනාරථයෙන
steven
stefan
statistical
studco
බඳවැටෙන
රසාසවාදනයෙ
සතවපොහොර
මැදපෙරදගටත
බොලකනහ
බොයගොලට
පනරතථාපනය
නෑසනාක
මළතැනගෙය
සතවලදාමයන
phoenix
phosphorus
අගනවසරවරයා
වහදවනනෙ
මලාශරhttps
එනඑසඒප
එනඩොරෆන
ගොඩවැදනාය
පරමඛසථානයකගන
ඇනඩරෙ
බදධශාසන
භමදරශනවාදය
භමදානයනහ
අංගොලාංගයන
වෂමජාතය
පරභොජනයෙන
පරභාසංසලෙෂණය
forbidden
දෘශයකරණය
බයවැදදම
ෆරෙසනො
සංකෙනදරණය
කෙටකාලයෙද
පරාණොකතවෙදය
franchise
wiquetson
සංඛයාව148
newtons
chronostratigraphy
chiovendae
chatbots
chicago
chamberlain
mahdavia
පණයායතනයකට
proposition
prostate
programming
තෙරෙසාගෙ
වෙඩතැබම
වෙඩතැබමට
දෙවපතරාජ
energy
ensermu
entrepreneur
වැලෙනසයා
trencsen
tricholomataceae
හයදරාබාද
පරයෙෂණයකන
දොෂාරොපණ
ශබදකොෂයෙ
කැටොලයාන
කැටඩොකසන
calcaratus
කෞශලයයෙ
shirn
shadows
shaquille
ඇටඹඔය
කලපොළා
independent
පරෙමචනදර
explorer
scientist
scoparius
දපවංශයෙහ
gujarati
towards
දෛවොපගත
interhatiand
interconnection
මැසචසෙටස
askaris
aslaksen
selousensis
අබෙවකරම
බජජමපොළ
ලොකායතත
ලොතරැයපතක
ෆයසලයර
සභාපතවරයාවරයා
behavioral
beijing
benefits
conservation
convolutional
fertilizer
mountains
mythology
request
reggie
webelements
නටෙලසබැක
පමපමඩව
මයකොලොජසට
තැපෑලෙන
orgernization
blessed
macilentus
services
ටරෙනටනො
ටරානසෆොමර
කොනෆරනසන
withdraws
alonso
algorithms
opportunities
pierce
අගරවාතොට
අගරකෘතයක
ඔසටෙරලයාවට
573922
amazon
amtrak
astrazeneca
bipolar
biostatistics
balearic
dewevrei
descriptions
harmaja
illinois
pahwa
platform
submontanus
චකරලෙඛයට
චෙකපොයනටස
සෙරෙනඩබ
නොටංහැමෂයර
නොරැවටෙන
දෙවතාවනඅරඹයාය
දෘෂටකොණවලට
transformer
blascaodai
counties
cookie
carmelo
featuring
gaeltacht
khurrana
monkeypox
metachroa
olajuwon
securesafe
secretariats
saudidebate
urducalendar
valueerror
අකරමනයතාවයෙන
ඇරසටොටල
ඇරනටයසගෙ
ගංඉවරෙහ
ටැරසයොගෙ
හැනෆොරඩ
සංහනාගාදදෙ
කොකඅඩචොල
හෙලකොපටරය
angulicaulis
යහපැවැතමෙ
contireal
මෙකසකොවෙහය
openstreetmap
budgetsimple
background
domestically
dominici
fmදෙරණට
generative
hilfiger
lambakanna
osmospermus
obtusifolius
oblongus
panipuri
polonnaruwensis
particulate
society
උනනතාංශවලද
ඔටටසඩාන
ලැනඩරසහද
classifications
extensible
privatelimited
ෆරයඩෙෆොෆයචර
ayushmann
believe
celebrated
cognitive
dʒʰəʋeɾbʰɑi
dichotomus
etruscans
everydollar
havlicek
jackinworld
keyarena
latilabiatus
lauffenberg
mcmillan
microsoft
mockups
puterbaugh
potassium
penetrative
piadina
pocketguard
paleozoic
rankings
reception
ravioli
suilleabhain
szoreyny
tenuipes
treelove
williamson
ʋəlːəbːʰɑi
ඉකවදොරයෙ
ඩකලරෙෂන
බයකාබනෙට
මොලබඩෙනයමද
박산
완함
향로
පරසෙපරොනයක
දකවා1929ෆැසසටවාද
